{
  "version": "1.0",
  "truncation": null,
  "padding": null,
  "added_tokens": [
    {
      "id": 0,
      "content": "<unk>",
      "single_word": false,
      "lstrip": false,
      "rstrip": false,
      "normalized": false,
      "special": true
    },
    {
      "id": 1,
      "content": "<pad>",
      "single_word": false,
      "lstrip": false,
      "rstrip": false,
      "normalized": false,
      "special": true
    },
    {
      "id": 2,
      "content": "<mask>",
      "single_word": false,
      "lstrip": false,
      "rstrip": false,
      "normalized": false,
      "special": true
    },
    {
      "id": 3,
      "content": "<cls>",
      "single_word": false,
      "lstrip": false,
      "rstrip": false,
      "normalized": false,
      "special": true
    },
    {
      "id": 4,
      "content": "<sep>",
      "single_word": false,
      "lstrip": false,
      "rstrip": false,
      "normalized": false,
      "special": true
    }
  ],
  "normalizer": {
    "type": "Sequence",
    "normalizers": [
      {
        "type": "Replace",
        "pattern": {
          "String": "<br />"
        },
        "content": "\n"
      },
      {
        "type": "Sequence",
        "normalizers": [
          {
            "type": "Replace",
            "pattern": {
              "String": "``"
            },
            "content": "\""
          },
          {
            "type": "Replace",
            "pattern": {
              "String": "''"
            },
            "content": "\""
          },
          {
            "type": "NFKD"
          },
          {
            "type": "StripAccents"
          },
          {
            "type": "Replace",
            "pattern": {
              "Regex": " {2,}"
            },
            "content": " "
          }
        ]
      }
    ]
  },
  "pre_tokenizer": {
    "type": "Metaspace",
    "replacement": "▁",
    "add_prefix_space": true
  },
  "post_processor": {
    "type": "TemplateProcessing",
    "single": [
      {
        "SpecialToken": {
          "id": "<cls>",
          "type_id": 0
        }
      },
      {
        "Sequence": {
          "id": "A",
          "type_id": 0
        }
      },
      {
        "SpecialToken": {
          "id": "<sep>",
          "type_id": 0
        }
      }
    ],
    "pair": [
      {
        "SpecialToken": {
          "id": "<cls>",
          "type_id": 0
        }
      },
      {
        "Sequence": {
          "id": "A",
          "type_id": 0
        }
      },
      {
        "SpecialToken": {
          "id": "<sep>",
          "type_id": 0
        }
      },
      {
        "Sequence": {
          "id": "B",
          "type_id": 1
        }
      },
      {
        "SpecialToken": {
          "id": "<sep>",
          "type_id": 1
        }
      }
    ],
    "special_tokens": {
      "<cls>": {
        "id": "<cls>",
        "ids": [
          3
        ],
        "tokens": [
          "<cls>"
        ]
      },
      "<sep>": {
        "id": "<sep>",
        "ids": [
          4
        ],
        "tokens": [
          "<sep>"
        ]
      }
    }
  },
  "decoder": {
    "type": "Metaspace",
    "replacement": "▁",
    "add_prefix_space": true
  },
  "model": {
    "type": "Unigram",
    "unk_id": 0,
    "vocab": [
      [
        "<unk>",
        0.0
      ],
      [
        "<pad>",
        0.0
      ],
      [
        "<mask>",
        0.0
      ],
      [
        "<cls>",
        0.0
      ],
      [
        "<sep>",
        0.0
      ],
      [
        "▁",
        -3.02518066291233
      ],
      [
        "▁the",
        -3.3333810705749087
      ],
      [
        ",",
        -3.399285760096628
      ],
      [
        "s",
        -3.7437650897542234
      ],
      [
        "▁of",
        -3.854018378599868
      ],
      [
        "a",
        -3.91068123328305
      ],
      [
        "▁and",
        -4.073691954829773
      ],
      [
        "▁in",
        -4.107236856743178
      ],
      [
        ".",
        -4.147861149016368
      ],
      [
        "▁to",
        -4.451184818939698
      ],
      [
        "\n",
        -4.95557367926887
      ],
      [
        "▁was",
        -4.991439712436783
      ],
      [
        "e",
        -5.103085852898342
      ],
      [
        "▁is",
        -5.264192712950198
      ],
      [
        "ed",
        -5.309881412078177
      ],
      [
        "▁for",
        -5.317238041671217
      ],
      [
        "▁The",
        -5.340376550871046
      ],
      [
        "ing",
        -5.364814282077198
      ],
      [
        "▁as",
        -5.365342692150261
      ],
      [
        "y",
        -5.404245290437228
      ],
      [
        "▁on",
        -5.437981806281201
      ],
      [
        "▁by",
        -5.460414710101325
      ],
      [
        "▁with",
        -5.52092329706019
      ],
      [
        "-",
        -5.553216598256725
      ],
      [
        "t",
        -5.608319645999249
      ],
      [
        ")",
        -5.612014482893375
      ],
      [
        "d",
        -5.641471897886369
      ],
      [
        "o",
        -5.688856685082705
      ],
      [
        "'s",
        -5.709232880984825
      ],
      [
        "▁from",
        -5.711508510050194
      ],
      [
        "▁at",
        -5.758907563814283
      ],
      [
        "▁that",
        -5.782901203888681
      ],
      [
        "▁(",
        -5.800296117404599
      ],
      [
        "i",
        -5.862576558684701
      ],
      [
        "▁his",
        -6.012110129156067
      ],
      [
        ":",
        -6.048133625599974
      ],
      [
        "\"",
        -6.093712756457556
      ],
      [
        "n",
        -6.0980262908913865
      ],
      [
        "▁an",
        -6.13829791317832
      ],
      [
        "▁he",
        -6.16614306905689
      ],
      [
        "er",
        -6.222124992194967
      ],
      [
        "ly",
        -6.279212830452938
      ],
      [
        "▁were",
        -6.332559012503763
      ],
      [
        "▁||",
        -6.3405811163574395
      ],
      [
        "al",
        -6.400689316790203
      ],
      [
        "▁A",
        -6.419617223691212
      ],
      [
        "▁In",
        -6.420381326249169
      ],
      [
        "▁are",
        -6.424114408610889
      ],
      [
        "▁which",
        -6.441603418794108
      ],
      [
        "in",
        -6.480569722198357
      ],
      [
        "▁He",
        -6.497171615476974
      ],
      [
        "▁be",
        -6.502124390769513
      ],
      [
        "▁it",
        -6.503885985215
      ],
      [
        "▁also",
        -6.526962859259854
      ],
      [
        "f",
        -6.536241449444962
      ],
      [
        "▁–",
        -6.55622485407285
      ],
      [
        "on",
        -6.57380415698899
      ],
      [
        "es",
        -6.579204588060941
      ],
      [
        "an",
        -6.583024067883629
      ],
      [
        "r",
        -6.627157575179588
      ],
      [
        "▁or",
        -6.642779365964078
      ],
      [
        "▁had",
        -6.650671589059181
      ],
      [
        "),",
        -6.6754095309880235
      ],
      [
        "▁has",
        -6.694082869248447
      ],
      [
        "▁first",
        -6.706351738997855
      ],
      [
        "▁\"",
        -6.789291602257293
      ],
      [
        ")\n",
        -6.802481515297096
      ],
      [
        "u",
        -6.83953620452178
      ],
      [
        ".\n",
        -6.844222591174427
      ],
      [
        "▁their",
        -6.85747587830714
      ],
      [
        "▁who",
        -6.859887312359982
      ],
      [
        "s.",
        -6.864197679348772
      ],
      [
        ";",
        -6.8932438942061545
      ],
      [
        "▁not",
        -6.894922064129862
      ],
      [
        "▁It",
        -6.898441636669631
      ],
      [
        "▁her",
        -6.919503295800256
      ],
      [
        "en",
        -6.927815646133849
      ],
      [
        "m",
        -6.93683139445643
      ],
      [
        "▁but",
        -6.943994360157998
      ],
      [
        "k",
        -6.954834311762664
      ],
      [
        "▁its",
        -6.96790184951886
      ],
      [
        "▁one",
        -6.9698922885680865
      ],
      [
        "▁S",
        -6.989401082002937
      ],
      [
        "▁de",
        -7.018352378703968
      ],
      [
        "h",
        -7.029975711311131
      ],
      [
        "▁have",
        -7.035878742559966
      ],
      [
        "'",
        -7.036569427184716
      ],
      [
        "c",
        -7.037498918880896
      ],
      [
        "th",
        -7.0451740747575045
      ],
      [
        "▁this",
        -7.067176015703531
      ],
      [
        "▁two",
        -7.0700469490834905
      ],
      [
        "l",
        -7.097567719518459
      ],
      [
        "▁New",
        -7.110462020431955
      ],
      [
        "▁been",
        -7.118275209381675
      ],
      [
        "▁I",
        -7.120241499689701
      ],
      [
        "or",
        -7.121738107123946
      ],
      [
        "p",
        -7.178098734414391
      ],
      [
        "–",
        -7.186179342183413
      ],
      [
        "▁after",
        -7.189020362614697
      ],
      [
        "is",
        -7.208081327547884
      ],
      [
        "/",
        -7.212725021010025
      ],
      [
        "ic",
        -7.2253133235985025
      ],
      [
        "g",
        -7.243299540082299
      ],
      [
        "▁American",
        -7.256664250966141
      ],
      [
        "ar",
        -7.271627492953339
      ],
      [
        "▁other",
        -7.272894536562092
      ],
      [
        ".\n\n",
        -7.295702247061019
      ],
      [
        "b",
        -7.303028003330469
      ],
      [
        "ion",
        -7.316940677123087
      ],
      [
        "▁into",
        -7.323185326474379
      ],
      [
        "▁people",
        -7.330429736258672
      ],
      [
        "▁she",
        -7.335527970352617
      ],
      [
        "▁over",
        -7.34033036456081
      ],
      [
        "▁re",
        -7.343742850079924
      ],
      [
        "man",
        -7.3513670866454355
      ],
      [
        "▁United",
        -7.353574809362477
      ],
      [
        "it",
        -7.366745921078339
      ],
      [
        ".\n\nThe",
        -7.367390149168662
      ],
      [
        "us",
        -7.407662010492524
      ],
      [
        "▁time",
        -7.410309223072336
      ],
      [
        "to",
        -7.415364240161741
      ],
      [
        "▁E",
        -7.419729176008342
      ],
      [
        "▁all",
        -7.430886965505438
      ],
      [
        "▁B",
        -7.432786519043413
      ],
      [
        "▁1",
        -7.440235970250807
      ],
      [
        "▁(19",
        -7.47168535846267
      ],
      [
        "▁out",
        -7.486447989672884
      ],
      [
        "▁when",
        -7.487106224921014
      ],
      [
        "w",
        -7.493824774058632
      ],
      [
        "▁C",
        -7.494206407693044
      ],
      [
        "▁University",
        -7.498803371165652
      ],
      [
        "ers",
        -7.50532790995889
      ],
      [
        "▁would",
        -7.505410767995322
      ],
      [
        "re",
        -7.511241214620037
      ],
      [
        "▁more",
        -7.512591027385614
      ],
      [
        "le",
        -7.519595516398711
      ],
      [
        "during",
        -7.530259267401972
      ],
      [
        "▁up",
        -7.530700168578363
      ],
      [
        "\n\nExternal",
        -7.538841238139238
      ],
      [
        "▁new",
        -7.539769526503466
      ],
      [
        ".\n\nIn",
        -7.541095371240292
      ],
      [
        "▁under",
        -7.541175264767313
      ],
      [
        "▁where",
        -7.547081237238517
      ],
      [
        "z",
        -7.551298120206146
      ],
      [
        "\n\n",
        -7.557854398076317
      ],
      [
        "\nThe",
        -7.580359613241217
      ],
      [
        "▁P",
        -7.580797797844733
      ],
      [
        "▁can",
        -7.580942411277913
      ],
      [
        "▁film",
        -7.585418459501307
      ],
      [
        "\n|",
        -7.591035881625428
      ],
      [
        "▁only",
        -7.597440580501194
      ],
      [
        "ne",
        -7.598155825546309
      ],
      [
        "▁between",
        -7.60222339313146
      ],
      [
        ").",
        -7.608890781763781
      ],
      [
        "▁2",
        -7.619836318300582
      ],
      [
        "▁about",
        -7.63609192328307
      ],
      [
        "at",
        -7.649616716199695
      ],
      [
        "▁years",
        -7.652175211666272
      ],
      [
        "▁three",
        -7.6592358978827235
      ],
      [
        "▁part",
        -7.666497282649782
      ],
      [
        "el",
        -7.669147451268827
      ],
      [
        "▁made",
        -7.673491577990335
      ],
      [
        "ation",
        -7.677603130662417
      ],
      [
        "▁She",
        -7.6790025208438575
      ],
      [
        "▁This",
        -7.682290390203175
      ],
      [
        "▁later",
        -7.684333982279419
      ],
      [
        "▁used",
        -7.687376032926469
      ],
      [
        "ist",
        -7.687731733180941
      ],
      [
        "▁G",
        -7.689577502903029
      ],
      [
        "▁States",
        -7.709535977858477
      ],
      [
        "ton",
        -7.737867810196267
      ],
      [
        "▁most",
        -7.740941931051475
      ],
      [
        "▁such",
        -7.743221008160853
      ],
      [
        "▁World",
        -7.744642528178126
      ],
      [
        "▁known",
        -7.74629273037479
      ],
      [
        "▁him",
        -7.746995839027917
      ],
      [
        "▁National",
        -7.755261019665946
      ],
      [
        "▁K",
        -7.760981421792435
      ],
      [
        "became",
        -7.762031271743533
      ],
      [
        "▁Re",
        -7.762268329831336
      ],
      [
        "▁team",
        -7.765752932048979
      ],
      [
        "▁season",
        -7.76775642509107
      ],
      [
        "▁17",
        -7.771054158019835
      ],
      [
        "▁players",
        -7.773176881826039
      ],
      [
        "▁than",
        -7.781371353519015
      ],
      [
        "▁County",
        -7.782216417660976
      ],
      [
        "▁un",
        -7.79056628854838
      ],
      [
        "▁second",
        -7.794079684527043
      ],
      [
        "▁F",
        -7.802973246407751
      ],
      [
        "▁D",
        -7.805360548654051
      ],
      [
        "▁&",
        -7.8140522898936915
      ],
      [
        "▁3",
        -7.8151942425699215
      ],
      [
        "ive",
        -7.816128119016991
      ],
      [
        "able",
        -7.817741728123201
      ],
      [
        "▁M",
        -7.824804779295063
      ],
      [
        "▁series",
        -7.825511332091914
      ],
      [
        "▁being",
        -7.826875725497404
      ],
      [
        "te",
        -7.829015168674411
      ],
      [
        "de",
        -7.829312865082882
      ],
      [
        "▁some",
        -7.835153795245825
      ],
      [
        "▁May",
        -7.838892342711807
      ],
      [
        "ch",
        -7.840566159705734
      ],
      [
        "x",
        -7.849408108517919
      ],
      [
        "▁War",
        -7.852008183670254
      ],
      [
        "▁including",
        -7.856154447416737
      ],
      [
        "▁W",
        -7.862417963561219
      ],
      [
        "6",
        -7.862429163360185
      ],
      [
        "il",
        -7.864982234522767
      ],
      [
        "ry",
        -7.868975181108494
      ],
      [
        "▁work",
        -7.870181434752229
      ],
      [
        "▁through",
        -7.8745353054827
      ],
      [
        "▁against",
        -7.876236496017592
      ],
      [
        "▁4",
        -7.876749801357965
      ],
      [
        "▁no",
        -7.877349820948689
      ],
      [
        "▁there",
        -7.8798191001842355
      ],
      [
        "▁York",
        -7.887975958026779
      ],
      [
        "▁year",
        -7.892782252837525
      ],
      [
        "▁N",
        -7.893610711068295
      ],
      [
        "▁then",
        -7.89899753937447
      ],
      [
        "ter",
        -7.907203795598729
      ],
      [
        "▁18",
        -7.907866345720352
      ],
      [
        "▁South",
        -7.908071357370819
      ],
      [
        "▁well",
        -7.912425297072266
      ],
      [
        "2",
        -7.915891030042635
      ],
      [
        "▁before",
        -7.918397973459097
      ],
      [
        "▁T",
        -7.922595740768818
      ],
      [
        "▁while",
        -7.929236020787476
      ],
      [
        "ity",
        -7.931681331009543
      ],
      [
        "▁name",
        -7.933403368459665
      ],
      [
        "ir",
        -7.936282000365692
      ],
      [
        "▁John",
        -7.942203009037263
      ],
      [
        "\n\nReferences",
        -7.942578326072736
      ],
      [
        "ian",
        -7.945566464680962
      ],
      [
        "am",
        -7.947061141290288
      ],
      [
        "▁number",
        -7.948947029948883
      ],
      [
        "▁School",
        -7.949259480345368
      ],
      [
        "▁many",
        -7.954645274660171
      ],
      [
        "▁5",
        -7.955145566866539
      ],
      [
        "until",
        -7.958395442457808
      ],
      [
        "ur",
        -7.9627700084122495
      ],
      [
        "▁August",
        -7.967502127484057
      ],
      [
        "▁La",
        -7.969615859855573
      ],
      [
        "▁March",
        -7.973014293311511
      ],
      [
        "▁September",
        -7.973648106181564
      ],
      [
        "▁album",
        -7.975664908665744
      ],
      [
        "▁both",
        -7.982122903853664
      ],
      [
        "ment",
        -7.983336671602226
      ],
      [
        "3",
        -7.986463338362787
      ],
      [
        "▁school",
        -7.9895592414536125
      ],
      [
        "▁O",
        -7.991319197092746
      ],
      [
        "▁On",
        -7.993754080975847
      ],
      [
        "▁births",
        -7.99476161042505
      ],
      [
        "ce",
        -7.995785568261413
      ],
      [
        "▁c",
        -7.997513086529878
      ],
      [
        "no",
        -7.999020385049253
      ],
      [
        "est",
        -7.999818140697554
      ],
      [
        "▁October",
        -8.000725217410896
      ],
      [
        "co",
        -8.005337579905603
      ],
      [
        "▁January",
        -8.01391509483953
      ],
      [
        "ate",
        -8.015099321828304
      ],
      [
        "▁played",
        -8.016873998986279
      ],
      [
        "▁R",
        -8.018945898746342
      ],
      [
        "um",
        -8.019551717556677
      ],
      [
        "▁family",
        -8.024680206595747
      ],
      [
        "▁—",
        -8.025586185252065
      ],
      [
        "▁16",
        -8.025828250066137
      ],
      [
        "▁links\n",
        -8.029212209424138
      ],
      [
        "▁June",
        -8.032084920523577
      ],
      [
        ".\n\nReferences",
        -8.036307256551936
      ],
      [
        "1",
        -8.038617958424549
      ],
      [
        "▁released",
        -8.038914362887203
      ],
      [
        "land",
        -8.044293915349675
      ],
      [
        "son",
        -8.04965357051107
      ],
      [
        "▁July",
        -8.049827464782997
      ],
      [
        "▁As",
        -8.051421414827486
      ],
      [
        "▁L",
        -8.05700345723349
      ],
      [
        "(born",
        -8.06169879491166
      ],
      [
        "▁p",
        -8.0627809291494
      ],
      [
        "▁won",
        -8.06336148509388
      ],
      [
        "▁April",
        -8.06413254886607
      ],
      [
        "▁may",
        -8.067139615669028
      ],
      [
        "▁British",
        -8.067731489381876
      ],
      [
        "▁De",
        -8.067986584997364
      ],
      [
        "▁10",
        -8.073749684667773
      ],
      [
        "ro",
        -8.074633068183136
      ],
      [
        "\",",
        -8.075760033457382
      ],
      [
        "▁State",
        -8.075980958613991
      ],
      [
        "ine",
        -8.076484206068464
      ],
      [
        "▁Le",
        -8.076805083763169
      ],
      [
        "▁November",
        -8.079808322235468
      ],
      [
        "–19",
        -8.088829954901284
      ],
      [
        "▁City",
        -8.089738778035667
      ],
      [
        "▁so",
        -8.090870017513843
      ],
      [
        "▁state",
        -8.092996972138613
      ],
      [
        "ma",
        -8.093523953822896
      ],
      [
        "0",
        -8.09436355159884
      ],
      [
        "ent",
        -8.09529272917708
      ],
      [
        "▁four",
        -8.096163808839906
      ],
      [
        "▁December",
        -8.099625068244631
      ],
      [
        "▁Al",
        -8.10606003088305
      ],
      [
        "▁League",
        -8.109873758159116
      ],
      [
        "▁football",
        -8.109986119261047
      ],
      [
        "4",
        -8.119609316620581
      ],
      [
        "▁will",
        -8.1203739107549
      ],
      [
        "▁6",
        -8.120865547683849
      ],
      [
        "▁life",
        -8.122799536640395
      ],
      [
        "ous",
        -8.124554794442389
      ],
      [
        "ge",
        -8.130514631487713
      ],
      [
        "▁North",
        -8.134974189756697
      ],
      [
        "and",
        -8.13628437362271
      ],
      [
        "▁called",
        -8.137072042203883
      ],
      [
        "▁game",
        -8.140161342211082
      ],
      [
        "▁former",
        -8.153083159818264
      ],
      [
        "▁do",
        -8.16304842990661
      ],
      [
        "▁several",
        -8.163895370705426
      ],
      [
        "▁them",
        -8.164928064420181
      ],
      [
        "▁|",
        -8.165507101668585
      ],
      [
        "▁15",
        -8.167256076552446
      ],
      [
        "▁end",
        -8.170093200314485
      ],
      [
        "▁same",
        -8.172067162730682
      ],
      [
        "lo",
        -8.176197251261991
      ],
      [
        "me",
        -8.181430172159816
      ],
      [
        "▁U",
        -8.182900694194396
      ],
      [
        "▁following",
        -8.185196142698942
      ],
      [
        "▁early",
        -8.186068778066714
      ],
      [
        "ke",
        -8.18672156982052
      ],
      [
        "▁group",
        -8.191838381903683
      ],
      [
        "▁February",
        -8.199465310268222
      ],
      [
        "ol",
        -8.200107410598063
      ],
      [
        "▁found",
        -8.200599117844117
      ],
      [
        "be",
        -8.2030953421017
      ],
      [
        "▁since",
        -8.20586045999697
      ],
      [
        "▁7",
        -8.208206410263863
      ],
      [
        "▁place",
        -8.21201776113112
      ],
      [
        "age",
        -8.219116627632179
      ],
      [
        "▁music",
        -8.225962115669574
      ],
      [
        "un",
        -8.228654261644673
      ],
      [
        "▁career",
        -8.229814029197872
      ],
      [
        "▁government",
        -8.23092930686789
      ],
      [
        "li",
        -8.230996825167663
      ],
      [
        "▁At",
        -8.233663036215983
      ],
      [
        "▁use",
        -8.237730129829885
      ],
      [
        "▁home",
        -8.240298871525509
      ],
      [
        "ant",
        -8.241360372158642
      ],
      [
        "▁St",
        -8.241758347770157
      ],
      [
        "▁city",
        -8.243694740737324
      ],
      [
        "▁V",
        -8.245517730006672
      ],
      [
        "▁area",
        -8.248041994345657
      ],
      [
        "▁back",
        -8.24837276047037
      ],
      [
        "▁based",
        -8.253369622013043
      ],
      [
        "▁began",
        -8.253683267258257
      ],
      [
        ".\"",
        -8.255226316902071
      ],
      [
        "▁member",
        -8.256009240675006
      ],
      [
        "▁these",
        -8.256254639581735
      ],
      [
        "ve",
        -8.256651756641988
      ],
      [
        "tic",
        -8.257140905248376
      ],
      [
        "▁named",
        -8.259544521674265
      ],
      [
        "▁12",
        -8.260243167687044
      ],
      [
        "\".",
        -8.269164226108625
      ],
      [
        "▁An",
        -8.282438650086792
      ],
      [
        "▁held",
        -8.288905540313156
      ],
      [
        "▁established",
        -8.2894990357983
      ],
      [
        "ck",
        -8.290052172993486
      ],
      [
        "B",
        -8.291086276692907
      ],
      [
        "▁films",
        -8.291313326375471
      ],
      [
        "s\n",
        -8.291570597613612
      ],
      [
        "▁After",
        -8.292150894147927
      ],
      [
        "ley",
        -8.293350722686418
      ],
      [
        "id",
        -8.29792312588475
      ],
      [
        "A",
        -8.301552234629863
      ],
      [
        "▁His",
        -8.30220287774686
      ],
      [
        "▁For",
        -8.302606013229237
      ],
      [
        "▁located",
        -8.30360819132532
      ],
      [
        "▁Co",
        -8.303647785107897
      ],
      [
        "j",
        -8.304384559072522
      ],
      [
        "5",
        -8.30522306083588
      ],
      [
        "▁8",
        -8.306441236765442
      ],
      [
        "▁West",
        -8.306539118591195
      ],
      [
        "ca",
        -8.307741175354634
      ],
      [
        "▁population",
        -8.309592495154046
      ],
      [
        "▁College",
        -8.312041450952588
      ],
      [
        "▁San",
        -8.313598740233964
      ],
      [
        "▁each",
        -8.315664673732787
      ],
      [
        "▁did",
        -8.31759003373129
      ],
      [
        "la",
        -8.319050778176576
      ],
      [
        "▁show",
        -8.323798741310346
      ],
      [
        "\nIn",
        -8.327135722616855
      ],
      [
        "v",
        -8.328253531200762
      ],
      [
        "di",
        -8.328987200996748
      ],
      [
        "▁station",
        -8.331439120581333
      ],
      [
        "\n\nThe",
        -8.332326285256276
      ],
      [
        "▁To",
        -8.334133231698623
      ],
      [
        "8",
        -8.334923185942102
      ],
      [
        "▁set",
        -8.336003284205574
      ],
      [
        "ul",
        -8.337666398699202
      ],
      [
        "ra",
        -8.339389915513456
      ],
      [
        "▁song",
        -8.339469763677727
      ],
      [
        "ism",
        -8.3414449920706
      ],
      [
        "go",
        -8.34685867789068
      ],
      [
        "19",
        -8.347654385745912
      ],
      [
        "S",
        -8.349442738268364
      ],
      [
        "▁Me",
        -8.351313734627682
      ],
      [
        "▁English",
        -8.351340864972764
      ],
      [
        "▁2010",
        -8.351582104776444
      ],
      [
        "ber",
        -8.3558716047012
      ],
      [
        "▁German",
        -8.357292045876427
      ],
      [
        "der",
        -8.35752929127221
      ],
      [
        "M",
        -8.359364846410756
      ],
      [
        "▁Con",
        -8.362794686554182
      ],
      [
        "▁line",
        -8.368685707570393
      ],
      [
        "▁large",
        -8.370025404688187
      ],
      [
        "ner",
        -8.370065103725265
      ],
      [
        "em",
        -8.375186755593562
      ],
      [
        "sh",
        -8.375751917274506
      ],
      [
        "▁company",
        -8.378681712788206
      ],
      [
        "▁District",
        -8.379102476797781
      ],
      [
        "▁served",
        -8.384114847292109
      ],
      [
        "\nS",
        -8.387010033464046
      ],
      [
        "ang",
        -8.389575991860706
      ],
      [
        "he",
        -8.38988335793378
      ],
      [
        "▁(18",
        -8.390004431846913
      ],
      [
        "\nA",
        -8.391511629244063
      ],
      [
        "▁born",
        -8.393044240614682
      ],
      [
        "7",
        -8.394913198907476
      ],
      [
        "D",
        -8.39581888166154
      ],
      [
        "ance",
        -8.396165593212949
      ],
      [
        "▁members",
        -8.3977492232409
      ],
      [
        "▁due",
        -8.399247268022478
      ],
      [
        "▁French",
        -8.400033377171452
      ],
      [
        "▁any",
        -8.400350716362109
      ],
      [
        "▁local",
        -8.400773550015911
      ],
      [
        "▁television",
        -8.400865066012443
      ],
      [
        "▁2011",
        -8.400938847838155
      ],
      [
        "▁9",
        -8.40415721747345
      ],
      [
        "ary",
        -8.404891114798462
      ],
      [
        "▁con",
        -8.40617574424952
      ],
      [
        "▁could",
        -8.407329851819744
      ],
      [
        "▁published",
        -8.4077244342614
      ],
      [
        "▁public",
        -8.408760402725836
      ],
      [
        "▁built",
        -8.410331651694797
      ],
      [
        "▁H",
        -8.413025178043851
      ],
      [
        "▁received",
        -8.41521365561822
      ],
      [
        "▁age",
        -8.422587811069635
      ],
      [
        "▁11",
        -8.423868007701818
      ],
      [
        "▁band",
        -8.425455720363189
      ],
      [
        "▁pro",
        -8.425563476346309
      ],
      [
        "▁national",
        -8.427724924337772
      ],
      [
        "op",
        -8.429573586021384
      ],
      [
        "▁around",
        -8.430427552894995
      ],
      [
        "▁\n\n",
        -8.431010957699176
      ],
      [
        "▁high",
        -8.431427924099474
      ],
      [
        "▁games",
        -8.433606718272085
      ],
      [
        "▁2012",
        -8.438709411695699
      ],
      [
        "▁Ha",
        -8.439089710579594
      ],
      [
        "ri",
        -8.440319435599333
      ],
      [
        "den",
        -8.44102592973679
      ],
      [
        "N",
        -8.44379295570601
      ],
      [
        "ard",
        -8.444107868578582
      ],
      [
        "▁final",
        -8.444206273182552
      ],
      [
        "▁14",
        -8.446399014227993
      ],
      [
        "▁single",
        -8.45320688121804
      ],
      [
        "▁Cup",
        -8.454559320810214
      ],
      [
        "▁2008",
        -8.455551622494037
      ],
      [
        "▁House",
        -8.4558677134442
      ],
      [
        "mo",
        -8.461029553149267
      ],
      [
        "▁species",
        -8.462120242578962
      ],
      [
        "took",
        -8.46314653237961
      ],
      [
        "▁village",
        -8.465303210296756
      ],
      [
        "▁II",
        -8.46765209615692
      ],
      [
        "▁last",
        -8.469985631289507
      ],
      [
        "▁River",
        -8.470395656488188
      ],
      [
        "▁town",
        -8.470669511994585
      ],
      [
        "▁2009",
        -8.474803265544242
      ],
      [
        "▁13",
        -8.475367500230433
      ],
      [
        "▁now",
        -8.477411449086642
      ],
      [
        "▁system",
        -8.479031866000597
      ],
      [
        "ha",
        -8.482157354753467
      ],
      [
        "V",
        -8.482229237880983
      ],
      [
        "▁left",
        -8.483296912852119
      ],
      [
        "men",
        -8.483626685925794
      ],
      [
        "▁club",
        -8.483998419833965
      ],
      [
        "▁women",
        -8.485640293690725
      ],
      [
        "▁long",
        -8.487959647795194
      ],
      [
        "However,",
        -8.488686787493167
      ],
      [
        "▁London",
        -8.48910006600641
      ],
      [
        "▁dis",
        -8.49089660219513
      ],
      [
        "our",
        -8.495860530654642
      ],
      [
        "▁along",
        -8.496236724421923
      ],
      [
        "ver",
        -8.496343211460621
      ],
      [
        "▁short",
        -8.497624577252257
      ],
      [
        "▁2015",
        -8.502931780528767
      ],
      [
        "▁2014",
        -8.502987290988257
      ],
      [
        "▁2016",
        -8.505045100562548
      ],
      [
        "very",
        -8.505543421914803
      ],
      [
        "▁2006",
        -8.506901217813796
      ],
      [
        "▁links",
        -8.50747981810221
      ],
      [
        "▁J",
        -8.511657216565368
      ],
      [
        "H",
        -8.511802489595024
      ],
      [
        "▁make",
        -8.512849261566291
      ],
      [
        "▁like",
        -8.515739938239378
      ],
      [
        "▁Be",
        -8.516635177647935
      ],
      [
        "▁2013",
        -8.521257901051682
      ],
      [
        "ong",
        -8.522077387263082
      ],
      [
        "▁five",
        -8.523092270226995
      ],
      [
        "▁Man",
        -8.524707980182656
      ],
      [
        "▁Park",
        -8.52501955160654
      ],
      [
        "▁2007",
        -8.525759437865911
      ],
      [
        "ka",
        -8.526129936239677
      ],
      [
        "W",
        -8.528099794810924
      ],
      [
        "way",
        -8.528687160628193
      ],
      [
        "▁small",
        -8.528882765619876
      ],
      [
        "▁own",
        -8.530637198787153
      ],
      [
        "▁building",
        -8.530891502987995
      ],
      [
        "G",
        -8.53187089570602
      ],
      [
        "▁So",
        -8.532427653415949
      ],
      [
        "▁died",
        -8.533031331032173
      ],
      [
        "▁support",
        -8.53340241023996
      ],
      [
        "ja",
        -8.534881070650604
      ],
      [
        "▁El",
        -8.534943946944678
      ],
      [
        "T",
        -8.53498286071933
      ],
      [
        "\nPeople",
        -8.535171409419508
      ],
      [
        "▁because",
        -8.537120457558245
      ],
      [
        "▁near",
        -8.537146315385742
      ],
      [
        "▁water",
        -8.537441344671073
      ],
      [
        "\nLiving",
        -8.538323166278294
      ],
      [
        "ham",
        -8.53865043727482
      ],
      [
        "▁International",
        -8.53918146294361
      ],
      [
        "K",
        -8.53971198320992
      ],
      [
        "ated",
        -8.540616686260051
      ],
      [
        "▁within",
        -8.540662305843135
      ],
      [
        "▁result",
        -8.541285949601635
      ],
      [
        "ci",
        -8.543853651121216
      ],
      [
        "▁described",
        -8.549087719738608
      ],
      [
        "tra",
        -8.549404681601482
      ],
      [
        "▁main",
        -8.549561920429367
      ],
      [
        "▁take",
        -8.549917464168871
      ],
      [
        "9",
        -8.555327488889752
      ],
      [
        "▁third",
        -8.558068513873213
      ],
      [
        "▁Ro",
        -8.558366891580377
      ],
      [
        "im",
        -8.559658439363627
      ],
      [
        "ga",
        -8.55973996001929
      ],
      [
        "▁20",
        -8.560964071878784
      ],
      [
        "▁U.S.",
        -8.562789947683417
      ],
      [
        "▁century",
        -8.563526863872328
      ],
      [
        "▁included",
        -8.56376579879349
      ],
      [
        "▁Ar",
        -8.565687503712567
      ],
      [
        "▁head",
        -8.567607038260038
      ],
      [
        "▁Go",
        -8.569346461987488
      ],
      [
        "=",
        -8.569650238802167
      ],
      [
        "▁b",
        -8.570085806969725
      ],
      [
        "▁history",
        -8.570361083758185
      ],
      [
        "▁2018",
        -8.570813200113392
      ],
      [
        "lin",
        -8.571131796420888
      ],
      [
        "▁service",
        -8.571168615467373
      ],
      [
        "ies",
        -8.572560664055395
      ],
      [
        "F",
        -8.573787137325773
      ],
      [
        "▁player",
        -8.573940544021255
      ],
      [
        "▁book",
        -8.574085301197156
      ],
      [
        "ub",
        -8.575128751491834
      ],
      [
        "▁Sa",
        -8.575768406523931
      ],
      [
        "▁death",
        -8.578825211664025
      ],
      [
        "▁2017",
        -8.57983700631214
      ],
      [
        "▁Ho",
        -8.580141175568397
      ],
      [
        "▁per",
        -8.583932545074116
      ],
      [
        "▁district",
        -8.58410339118138
      ],
      [
        "▁play",
        -8.584550630068986
      ],
      [
        "▁said",
        -8.586547315644774
      ],
      [
        "▁2020",
        -8.586633620409783
      ],
      [
        "mer",
        -8.586987279429238
      ],
      [
        "▁male",
        -8.58756010222529
      ],
      [
        "▁war",
        -8.591142222158172
      ],
      [
        "ology",
        -8.593756369862383
      ],
      [
        "▁record",
        -8.595119649664426
      ],
      [
        "ig",
        -8.596471355348537
      ],
      [
        "▁Lo",
        -8.597085892482525
      ],
      [
        "by",
        -8.60207798879469
      ],
      [
        "L",
        -8.603070868667114
      ],
      [
        "ster",
        -8.603247845726374
      ],
      [
        "ru",
        -8.60690253420039
      ],
      [
        "C",
        -8.610920478449227
      ],
      [
        "con",
        -8.61285884214092
      ],
      [
        "▁Bo",
        -8.612919642414084
      ],
      [
        "▁million",
        -8.613868099232118
      ],
      [
        "▁help",
        -8.614677388772634
      ],
      [
        "ut",
        -8.615026134507444
      ],
      [
        "▁form",
        -8.619694354132811
      ],
      [
        "▁major",
        -8.622606095343185
      ],
      [
        "▁different",
        -8.622992822384214
      ],
      [
        "▁Mo",
        -8.623653998505997
      ],
      [
        "▁down",
        -8.62435588715792
      ],
      [
        "▁2000",
        -8.62502530328317
      ],
      [
        "ov",
        -8.625138077533336
      ],
      [
        "▁Na",
        -8.627079724298815
      ],
      [
        "▁East",
        -8.628944293002503
      ],
      [
        "U",
        -8.629932921040446
      ],
      [
        "▁Se",
        -8.630686150160601
      ],
      [
        "bo",
        -8.632622539041414
      ],
      [
        "▁title",
        -8.633682348064012
      ],
      [
        "▁world",
        -8.633970756377307
      ],
      [
        "▁day",
        -8.635882593123563
      ],
      [
        "those",
        -8.637953662467206
      ],
      [
        ".\n\nA",
        -8.641327925661367
      ],
      [
        "▁include",
        -8.64278567081247
      ],
      [
        "▁original",
        -8.643752778143964
      ],
      [
        "ki",
        -8.644768567461075
      ],
      [
        "ness",
        -8.647580339190851
      ],
      [
        "▁William",
        -8.648061039934229
      ],
      [
        "▁Award",
        -8.649069396974646
      ],
      [
        "▁side",
        -8.650461251059383
      ],
      [
        "▁2019",
        -8.65393062593725
      ],
      [
        "ak",
        -8.655000151637077
      ],
      [
        "ho",
        -8.655107915508642
      ],
      [
        "▁still",
        -8.655815793341487
      ],
      [
        "chi",
        -8.656824177617528
      ],
      [
        "ling",
        -8.657252042202142
      ],
      [
        "▁deaths",
        -8.658246820139864
      ],
      [
        "▁km",
        -8.660308207108724
      ],
      [
        "▁period",
        -8.660462493541099
      ],
      [
        "▁another",
        -8.662374704594638
      ],
      [
        "▁Her",
        -8.662881986825187
      ],
      [
        "▁moved",
        -8.664186455649368
      ],
      [
        "▁There",
        -8.66501708190835
      ],
      [
        "▁Mar",
        -8.665648539365074
      ],
      [
        "▁Party",
        -8.668019453198918
      ],
      [
        "P",
        -8.669039855775834
      ],
      [
        "▁Division",
        -8.669932503217337
      ],
      [
        "▁off",
        -8.671383016598828
      ],
      [
        "▁Army",
        -8.67474993621184
      ],
      [
        "▁if",
        -8.676570288990096
      ],
      [
        "▁High",
        -8.676889033311591
      ],
      [
        "ish",
        -8.677416207807248
      ],
      [
        ".\n\nSee",
        -8.677735130137949
      ],
      [
        "▁father",
        -8.681006538975403
      ],
      [
        "les",
        -8.684325119018547
      ],
      [
        "up",
        -8.684572049419977
      ],
      [
        "mon",
        -8.684634667016597
      ],
      [
        "▁No",
        -8.68984525850056
      ],
      [
        "one",
        -8.692783853444814
      ],
      [
        "▁George",
        -8.69343856159979
      ],
      [
        "▁California",
        -8.69623521208252
      ],
      [
        "wa",
        -8.69786034198998
      ],
      [
        "▁US",
        -8.69825707727523
      ],
      [
        "▁di",
        -8.701328776201201
      ],
      [
        "▁America",
        -8.701681931515733
      ],
      [
        "▁England",
        -8.702396683256397
      ],
      [
        ".\n\nOn",
        -8.703386060810542
      ],
      [
        "▁led",
        -8.703615183870872
      ],
      [
        "▁house",
        -8.705292189081703
      ],
      [
        "▁2005",
        -8.706004872340502
      ],
      [
        "▁general",
        -8.70867119783624
      ],
      [
        "went",
        -8.709825288524252
      ],
      [
        "▁order",
        -8.709913360601094
      ],
      [
        "▁power",
        -8.711100668468214
      ],
      [
        "▁best",
        -8.712767817551066
      ],
      [
        "▁Air",
        -8.712775173440507
      ],
      [
        "gu",
        -8.713945537887072
      ],
      [
        "\nAmerican",
        -8.718237037148159
      ],
      [
        "▁Church",
        -8.718240773736593
      ],
      [
        "▁debut",
        -8.720351396475026
      ],
      [
        "▁role",
        -8.721518099098743
      ],
      [
        "▁often",
        -8.724175229327876
      ],
      [
        "▁lead",
        -8.724937275295742
      ],
      [
        "bi",
        -8.72635654426572
      ],
      [
        "ko",
        -8.727405759864318
      ],
      [
        "▁Ne",
        -8.728480402520272
      ],
      [
        "▁Da",
        -8.730421730759655
      ],
      [
        "▁Car",
        -8.731496842501322
      ],
      [
        "min",
        -8.732941587504547
      ],
      [
        "hi",
        -8.733226423820469
      ],
      [
        "▁Australia",
        -8.733657037359851
      ],
      [
        "▁Pro",
        -8.73393815188924
      ],
      [
        "ex",
        -8.734018979245047
      ],
      [
        "▁late",
        -8.73549962205199
      ],
      [
        "▁Z",
        -8.737592881564797
      ],
      [
        "▁top",
        -8.742103220934998
      ],
      [
        "▁Royal",
        -8.743296970937886
      ],
      [
        "▁produced",
        -8.74351650782051
      ],
      [
        "che",
        -8.744426618004914
      ],
      [
        "▁James",
        -8.745602215750386
      ],
      [
        "▁total",
        -8.746008641992427
      ],
      [
        "▁Council",
        -8.746442893493693
      ],
      [
        "15",
        -8.747375834981279
      ],
      [
        "▁six",
        -8.747828473769857
      ],
      [
        "▁France",
        -8.748158943142112
      ],
      [
        "▁development",
        -8.748649004165408
      ],
      [
        "▁2004",
        -8.7501264845974
      ],
      [
        "ill",
        -8.751225105661604
      ],
      [
        "ll",
        -8.752514135212747
      ],
      [
        "using",
        -8.755957428556417
      ],
      [
        "und",
        -8.756312417504615
      ],
      [
        "▁Do",
        -8.757060966721202
      ],
      [
        "▁site",
        -8.757328318450556
      ],
      [
        "ok",
        -8.758180381667588
      ],
      [
        "▁announced",
        -8.758969785073347
      ],
      [
        "gi",
        -8.759943161850034
      ],
      [
        "\nC",
        -8.760603795940437
      ],
      [
        "▁son",
        -8.761380384910954
      ],
      [
        "▁again",
        -8.761407828649592
      ],
      [
        "▁law",
        -8.764196402721549
      ],
      [
        "vo",
        -8.765544191028763
      ],
      [
        "▁written",
        -8.76748725965775
      ],
      [
        "▁just",
        -8.767570716926725
      ],
      [
        "20",
        -8.767669610709023
      ],
      [
        "▁came",
        -8.767993683435966
      ],
      [
        "va",
        -8.7689451624158
      ],
      [
        "▁Street",
        -8.769819068281173
      ],
      [
        "▁production",
        -8.772683521950613
      ],
      [
        "E",
        -8.772891932348776
      ],
      [
        "▁north",
        -8.775115561437568
      ],
      [
        "▁General",
        -8.776467909756168
      ],
      [
        "▁Di",
        -8.776701952047501
      ],
      [
        "ven",
        -8.777451089527089
      ],
      [
        "▁Lu",
        -8.777999975697295
      ],
      [
        "▁international",
        -8.778825164901436
      ],
      [
        "per",
        -8.779024880127311
      ],
      [
        "10",
        -8.781052118340968
      ],
      [
        "R",
        -8.782175321320178
      ],
      [
        "▁political",
        -8.782322280039686
      ],
      [
        "]",
        -8.78279558970305
      ],
      [
        "▁Ma",
        -8.78298659378478
      ],
      [
        "▁European",
        -8.784750800650194
      ],
      [
        "▁30",
        -8.786019841177824
      ],
      [
        "▁pre",
        -8.787264146843786
      ],
      [
        "▁children",
        -8.788573374889834
      ],
      [
        "pe",
        -8.790951778674904
      ],
      [
        "que",
        -8.792953349190748
      ],
      [
        "▁created",
        -8.793987075826506
      ],
      [
        "s'",
        -8.794649856186428
      ],
      [
        "▁started",
        -8.794852370903625
      ],
      [
        "▁One",
        -8.795185593124035
      ],
      [
        "ba",
        -8.795280756764065
      ],
      [
        "ran",
        -8.796351642993324
      ],
      [
        "ger",
        -8.796751191711545
      ],
      [
        "▁video",
        -8.798760295246208
      ],
      [
        "When",
        -8.799322551685028
      ],
      [
        "▁All",
        -8.799738939451775
      ],
      [
        "▁what",
        -8.801628899239052
      ],
      [
        "▁version",
        -8.805642783102723
      ],
      [
        "▁community",
        -8.807918622834993
      ],
      [
        "▁given",
        -8.808109707235765
      ],
      [
        "\nF",
        -8.808555109713641
      ],
      [
        "▁round",
        -8.808978094437556
      ],
      [
        "ier",
        -8.80924923893576
      ],
      [
        "▁married",
        -8.811293396900876
      ],
      [
        "▁Ka",
        -8.811568496606107
      ],
      [
        "among",
        -8.812295863152773
      ],
      [
        "▁country",
        -8.812957558635189
      ],
      [
        "▁Sch",
        -8.813840175751869
      ],
      [
        "▁2002",
        -8.814213604775022
      ],
      [
        "▁land",
        -8.815323737371154
      ],
      [
        "’s",
        -8.8159197933504
      ],
      [
        "▁\"The",
        -8.817269080752908
      ],
      [
        "▁much",
        -8.817639401035612
      ],
      [
        "▁25",
        -8.81776136901926
      ],
      [
        "—",
        -8.81847600683312
      ],
      [
        ".\n\nReferences\n",
        -8.818827535511847
      ],
      [
        "▁become",
        -8.819110567520143
      ],
      [
        "ler",
        -8.819889736071222
      ],
      [
        "▁Robert",
        -8.820479275054593
      ],
      [
        "▁(S",
        -8.821355081829381
      ],
      [
        "▁professional",
        -8.821550077029723
      ],
      [
        "ized",
        -8.823663177811007
      ],
      [
        "▁Association",
        -8.826932577314103
      ],
      [
        "▁2021",
        -8.827721571904164
      ],
      [
        "various",
        -8.828010182420106
      ],
      [
        "▁Indian",
        -8.828085974830763
      ],
      [
        "▁Championship",
        -8.830896960326521
      ],
      [
        "▁Pa",
        -8.831489453798635
      ],
      [
        "▁Su",
        -8.831565401195675
      ],
      [
        "▁King",
        -8.83396949296323
      ],
      [
        "▁2001",
        -8.834742839257956
      ],
      [
        "▁car",
        -8.837399905324753
      ],
      [
        "▁post",
        -8.83814381949954
      ],
      [
        "having",
        -8.839017967426866
      ],
      [
        "▁India",
        -8.839018057791925
      ],
      [
        "▁Australian",
        -8.839902496092202
      ],
      [
        ".\n\nS",
        -8.8408727521644
      ],
      [
        "ud",
        -8.84160767099919
      ],
      [
        "▁President",
        -8.841652124510784
      ],
      [
        "mar",
        -8.841676098033071
      ],
      [
        "lu",
        -8.843434267812942
      ],
      [
        "ities",
        -8.843903595857945
      ],
      [
        "gen",
        -8.850040277298751
      ],
      [
        "▁Li",
        -8.8531233527228
      ],
      [
        "▁military",
        -8.855311286431846
      ],
      [
        "▁Art",
        -8.857051167869457
      ],
      [
        "▁David",
        -8.857545758895796
      ],
      [
        "▁Union",
        -8.857642319038298
      ],
      [
        "za",
        -8.858092629636351
      ],
      [
        "we",
        -8.860473047843568
      ],
      [
        "▁next",
        -8.863032756740312
      ],
      [
        "line",
        -8.864299159765952
      ],
      [
        "less",
        -8.86464018018422
      ],
      [
        "▁joined",
        -8.864910501981342
      ],
      [
        "ence",
        -8.865419919280844
      ],
      [
        "er,",
        -8.866157563789343
      ],
      [
        "ron",
        -8.866707502057295
      ],
      [
        "ring",
        -8.868116956199414
      ],
      [
        "▁south",
        -8.868315224874182
      ],
      [
        "Y",
        -8.868903004236195
      ],
      [
        "▁election",
        -8.869847718050119
      ],
      [
        "▁worked",
        -8.870147809727937
      ],
      [
        "▁Or",
        -8.871484212521265
      ],
      [
        "ern",
        -8.87627630391066
      ],
      [
        "▁Ta",
        -8.877895292757858
      ],
      [
        "\nT",
        -8.881208871770372
      ],
      [
        "▁Canada",
        -8.88167679664394
      ],
      [
        "▁St.",
        -8.881932155479705
      ],
      [
        "hu",
        -8.884892638174863
      ],
      [
        "50",
        -8.88521365526792
      ],
      [
        "▁research",
        -8.885469093649634
      ],
      [
        "▁position",
        -8.886217028150458
      ],
      [
        "▁point",
        -8.887382893224665
      ],
      [
        "▁few",
        -8.888378818452711
      ],
      [
        "▁2003",
        -8.88951988001858
      ],
      [
        "om",
        -8.891140261860105
      ],
      [
        "pi",
        -8.891884445082967
      ],
      [
        "▁Po",
        -8.892045536593251
      ],
      [
        "vi",
        -8.892856309102052
      ],
      [
        "▁director",
        -8.8932646432136
      ],
      [
        "▁Ko",
        -8.893726010799302
      ],
      [
        "▁Hall",
        -8.894030746906548
      ],
      [
        "▁Ri",
        -8.894307530338775
      ],
      [
        "▁present",
        -8.895565900882765
      ],
      [
        "▁match",
        -8.896328630792405
      ],
      [
        "During",
        -8.896557043025652
      ],
      [
        "\n\nSee",
        -8.897000954742069
      ],
      [
        "▁1,",
        -8.897236351102686
      ],
      [
        "tro",
        -8.897304655388508
      ],
      [
        "(",
        -8.897751125425065
      ],
      [
        "es,",
        -8.898307669411507
      ],
      [
        "\n\nReferences\n",
        -8.898558776399122
      ],
      [
        "ward",
        -8.898814390644585
      ],
      [
        "▁bgcolor=#",
        -8.901630916609228
      ],
      [
        "ors",
        -8.902551712664351
      ],
      [
        "▁even",
        -8.905730311372883
      ],
      [
        "▁win",
        -8.905940179370344
      ],
      [
        "▁returned",
        -8.906214297833444
      ],
      [
        "▁Court",
        -8.906249166774922
      ],
      [
        ":\n",
        -8.908630240590995
      ],
      [
        "▁style",
        -8.909204096856767
      ],
      [
        "▁art",
        -8.909400406044353
      ],
      [
        "▁Paul",
        -8.909906877937106
      ],
      [
        "ship",
        -8.909963270196009
      ],
      [
        "▁Roman",
        -8.910675241352648
      ],
      [
        "▁live",
        -8.911786259481532
      ],
      [
        "▁church",
        -8.91414085913554
      ],
      [
        "▁24",
        -8.915971670929036
      ],
      [
        "ph",
        -8.916698460834404
      ],
      [
        "▁()",
        -8.9169526277457
      ],
      [
        "ite",
        -8.917693343215628
      ],
      [
        "ung",
        -8.91774563947255
      ],
      [
        "tu",
        -8.91799988495872
      ],
      [
        "ou",
        -8.918608395723584
      ],
      [
        "▁Japan",
        -8.919268976260314
      ],
      [
        "ji",
        -8.91942133978429
      ],
      [
        "▁project",
        -8.920321940637637
      ],
      [
        "▁works",
        -8.920624461016587
      ],
      [
        "O",
        -8.920827822629285
      ],
      [
        "ice",
        -8.920864197168003
      ],
      [
        "▁wrote",
        -8.921701447396693
      ],
      [
        "▁race",
        -8.923862457396178
      ],
      [
        "14",
        -8.924032783815445
      ],
      [
        "▁control",
        -8.924506232030678
      ],
      [
        "▁la",
        -8.924908449663722
      ],
      [
        "▁Gu",
        -8.92833963820265
      ],
      [
        "▁sub",
        -8.931492166168665
      ],
      [
        "ze",
        -8.931797581113184
      ],
      [
        "▁China",
        -8.931846037484279
      ],
      [
        "mp",
        -8.932271424142783
      ],
      [
        "▁students",
        -8.936780638342622
      ],
      [
        "▁opened",
        -8.937807866987088
      ],
      [
        "▁league",
        -8.938845023940491
      ],
      [
        "▁Mi",
        -8.940719093573874
      ],
      [
        "▁refer",
        -8.941408052716874
      ],
      [
        "▁Act",
        -8.94239803514658
      ],
      [
        "▁Red",
        -8.945617979063801
      ],
      [
        "lan",
        -8.94647630792726
      ],
      [
        "▁Te",
        -8.948267478128372
      ],
      [
        "sen",
        -8.949250855996937
      ],
      [
        "▁way",
        -8.950055741284457
      ],
      [
        "▁event",
        -8.950365584114483
      ],
      [
        "ally",
        -8.952079970137145
      ],
      [
        "ions",
        -8.952856685116013
      ],
      [
        "▁events",
        -8.953595023688536
      ],
      [
        "▁Road",
        -8.9547441959217
      ],
      [
        "▁\n|-id=",
        -8.955624174418913
      ],
      [
        "mi",
        -8.955964803978384
      ],
      [
        "side",
        -8.956461554189344
      ],
      [
        "▁Fa",
        -8.956626681175852
      ],
      [
        "▁men",
        -8.957217692299144
      ],
      [
        "▁program",
        -8.95825998224645
      ],
      [
        "the",
        -8.958374691119754
      ],
      [
        "val",
        -8.958881066755623
      ],
      [
        "po",
        -8.959242764578828
      ],
      [
        "▁Club",
        -8.959467859395025
      ],
      [
        "▁air",
        -8.959839861905062
      ],
      [
        "▁however",
        -8.96000289774523
      ],
      [
        "▁Music",
        -8.960092485479688
      ],
      [
        "▁similar",
        -8.960129071689334
      ],
      [
        "▁List",
        -8.961221719773178
      ],
      [
        "▁character",
        -8.961501162566913
      ],
      [
        "field",
        -8.96172847772456
      ],
      [
        "ial",
        -8.963424329978919
      ],
      [
        "▁free",
        -8.964087980492039
      ],
      [
        "▁Bar",
        -8.964473101863886
      ],
      [
        "▁st",
        -8.966269851669473
      ],
      [
        "low",
        -8.96654957188519
      ],
      [
        "▁X",
        -8.967689054650874
      ],
      [
        "ical",
        -8.967801347556316
      ],
      [
        "▁songs",
        -8.968492488739546
      ],
      [
        "▁Island",
        -8.96868605719247
      ],
      [
        "▁field",
        -8.970857459048103
      ],
      [
        "▁run",
        -8.97166890710033
      ],
      [
        "▁Black",
        -8.972124310488656
      ],
      [
        "▁By",
        -8.973271338467283
      ],
      [
        "▁align=right",
        -8.97435009340061
      ],
      [
        "▁design",
        -8.975559097722636
      ],
      [
        "▁Company",
        -8.976328380079137
      ],
      [
        "▁1999",
        -8.97635299619874
      ],
      [
        "ell",
        -8.976980858673064
      ],
      [
        "▁My",
        -8.97714469514646
      ],
      [
        "▁Center",
        -8.978161692132634
      ],
      [
        "je",
        -8.978576897267619
      ],
      [
        "wi",
        -8.97952469018826
      ],
      [
        "▁[",
        -8.980403667524273
      ],
      [
        "▁Canadian",
        -8.981045998928803
      ],
      [
        "▁half",
        -8.981305882086618
      ],
      [
        "X",
        -8.983822444201417
      ],
      [
        "▁Pe",
        -8.983964321092007
      ],
      [
        "These",
        -8.984257728391155
      ],
      [
        "han",
        -8.98518705523366
      ],
      [
        "▁We",
        -8.98702096040748
      ],
      [
        "▁continued",
        -8.988568083783228
      ],
      [
        "▁Kingdom",
        -8.989231729643318
      ],
      [
        "J",
        -8.99001776925262
      ],
      [
        "▁Vi",
        -8.991532071756517
      ],
      [
        "ker",
        -8.991946544449316
      ],
      [
        "▁Society",
        -8.99271860737113
      ],
      [
        "▁Bi",
        -8.993876783215088
      ],
      [
        ".\n\nHe",
        -8.99431617811754
      ],
      [
        "▁education",
        -8.995064676362244
      ],
      [
        "all",
        -8.99603732358643
      ],
      [
        "▁lost",
        -8.996461931084186
      ],
      [
        "ative",
        -8.997104786230748
      ],
      [
        "\nB",
        -8.997275085626844
      ],
      [
        "ide",
        -8.997445826861272
      ],
      [
        "▁Germany",
        -8.998457817592655
      ],
      [
        "▁services",
        -8.998665714468396
      ],
      [
        "I",
        -8.999006111189978
      ],
      [
        "without",
        -8.999511451288132
      ],
      [
        "▁Summer",
        -8.999626789234567
      ],
      [
        "▁right",
        -9.000035191364756
      ],
      [
        "▁Ni",
        -9.000481290478001
      ],
      [
        "18",
        -9.000703716634199
      ],
      [
        "ure",
        -9.001725907556501
      ],
      [
        "▁go",
        -9.001779615578311
      ],
      [
        "13",
        -9.001970921494788
      ],
      [
        "nd",
        -9.004072518642616
      ],
      [
        "ek",
        -9.006129056396999
      ],
      [
        "▁Pi",
        -9.00835883538348
      ],
      [
        "▁Washington",
        -9.009681273855117
      ],
      [
        "▁First",
        -9.009957653031048
      ],
      [
        "▁Ja",
        -9.010331255236183
      ],
      [
        "▁Charles",
        -9.011269192719537
      ],
      [
        "▁Ca",
        -9.011954154792496
      ],
      [
        "har",
        -9.014785292407238
      ],
      [
        "▁completed",
        -9.015867039931743
      ],
      [
        "▁level",
        -9.016301921637014
      ],
      [
        "▁(M",
        -9.016758426132771
      ],
      [
        "▁light",
        -9.018018687578463
      ],
      [
        "tal",
        -9.018791899507823
      ],
      [
        "▁social",
        -9.020480473616717
      ],
      [
        "▁every",
        -9.020496161292696
      ],
      [
        "▁old",
        -9.021178037160212
      ],
      [
        "▁recorded",
        -9.021433683019051
      ],
      [
        "▁founded",
        -9.022094226982224
      ],
      [
        "▁Games",
        -9.023049375473702
      ],
      [
        "ted",
        -9.024442571276678
      ],
      [
        "▁story",
        -9.024619875287105
      ],
      [
        "▁Du",
        -9.024793661852328
      ],
      [
        "▁we",
        -9.025704208724678
      ],
      [
        "▁case",
        -9.026323321776765
      ],
      [
        "ach",
        -9.02643011056286
      ],
      [
        "▁addition",
        -9.026791951069388
      ],
      [
        "▁considered",
        -9.027242977645754
      ],
      [
        "▁Ben",
        -9.02768939410805
      ],
      [
        "▁me",
        -9.028577177644395
      ],
      [
        "▁Institute",
        -9.02967847580515
      ],
      [
        "▁open",
        -9.03120411983205
      ],
      [
        "\n\nIn",
        -9.03153709140574
      ],
      [
        "▁Group",
        -9.031999668026216
      ],
      [
        "▁Records",
        -9.032996342585458
      ],
      [
        "▁directed",
        -9.03471977382619
      ],
      [
        "25",
        -9.0347503990517
      ],
      [
        "▁elected",
        -9.034829793328422
      ],
      [
        "▁business",
        -9.036098412539362
      ],
      [
        "▁Europe",
        -9.036378962566584
      ],
      [
        "▁Department",
        -9.036475110716252
      ],
      [
        "▁party",
        -9.036947687449926
      ],
      [
        "▁Olympics",
        -9.0379437084951
      ],
      [
        "▁100",
        -9.038022596746709
      ],
      [
        "▁wife",
        -9.039292840597684
      ],
      [
        "▁appointed",
        -9.042022280089975
      ],
      [
        "ow",
        -9.042026682050784
      ],
      [
        "▁Thomas",
        -9.042443912370986
      ],
      [
        "▁Green",
        -9.042538885294732
      ],
      [
        "▁days",
        -9.04261924665484
      ],
      [
        "▁teams",
        -9.044078021504609
      ],
      [
        "▁non-",
        -9.044329240700964
      ],
      [
        "▁further",
        -9.044701235081888
      ],
      [
        "▁(A",
        -9.046951644208969
      ],
      [
        "ists",
        -9.04745753761432
      ],
      [
        "▁official",
        -9.047915113507294
      ],
      [
        "30",
        -9.04801476134393
      ],
      [
        "▁1998",
        -9.048783502503634
      ],
      [
        "ius",
        -9.050289831893782
      ],
      [
        "▁Y",
        -9.050382704780755
      ],
      [
        "▁release",
        -9.05072251153886
      ],
      [
        "▁young",
        -9.051733390780033
      ],
      [
        "▁21",
        -9.052384601619078
      ],
      [
        "ting",
        -9.052486621041982
      ],
      [
        "wards",
        -9.056011652940224
      ],
      [
        "\nP",
        -9.05709820992169
      ],
      [
        "▁popular",
        -9.058488554035106
      ],
      [
        "if",
        -9.059276730867644
      ],
      [
        "▁22",
        -9.061332734525925
      ],
      [
        "▁come",
        -9.06148109499143
      ],
      [
        "▁together",
        -9.061604587287707
      ],
      [
        "▁Museum",
        -9.061951553654351
      ],
      [
        "▁Peter",
        -9.06378326471065
      ],
      [
        "▁Japanese",
        -9.066010399491374
      ],
      [
        "▁office",
        -9.067741631552684
      ],
      [
        "▁appeared",
        -9.069361489255478
      ],
      [
        "▁signed",
        -9.070679093737365
      ],
      [
        "▁Academy",
        -9.070941559631768
      ],
      [
        "▁Am",
        -9.072127380741575
      ],
      [
        "▁special",
        -9.072639845609409
      ],
      [
        "▁coach",
        -9.07298675620446
      ],
      [
        "▁Italian",
        -9.073023838575269
      ],
      [
        "▁Central",
        -9.073673984026671
      ],
      [
        "ford",
        -9.073735953874086
      ],
      [
        "▁average",
        -9.074339337144927
      ],
      [
        "▁(C",
        -9.07516106422078
      ],
      [
        "▁Best",
        -9.075208263733712
      ],
      [
        "▁region",
        -9.07539859615322
      ],
      [
        "▁times",
        -9.07632174601807
      ],
      [
        "▁Minister",
        -9.076748066964896
      ],
      [
        "bu",
        -9.077435616051542
      ],
      [
        "▁developed",
        -9.07851400886452
      ],
      [
        "▁Lake",
        -9.0799624628729
      ],
      [
        "▁important",
        -9.080233927953625
      ],
      [
        "▁sp",
        -9.081041068755487
      ],
      [
        "ther",
        -9.082259184041126
      ],
      [
        "▁Football",
        -9.082900153367977
      ],
      [
        "\n18",
        -9.083029010768524
      ],
      [
        "▁points",
        -9.083654826909022
      ],
      [
        "▁track",
        -9.084784899420306
      ],
      [
        "▁groups",
        -9.08720221666588
      ],
      [
        "▁Bay",
        -9.087642856226587
      ],
      [
        "11",
        -9.088941715565928
      ],
      [
        "▁full",
        -9.090932802364753
      ],
      [
        "▁list",
        -9.09213578463434
      ],
      [
        "▁language",
        -9.092739800632788
      ],
      [
        "▁fire",
        -9.092836658359596
      ],
      [
        "▁Russian",
        -9.094476606019766
      ],
      [
        "▁east",
        -9.094625908126645
      ],
      [
        "pan",
        -9.095739252453138
      ],
      [
        "▁1996",
        -9.095936700265622
      ],
      [
        "bb",
        -9.09643767398
      ],
      [
        "▁Catholic",
        -9.098132901392946
      ],
      [
        "▁areas",
        -9.099153072372948
      ],
      [
        "▁“",
        -9.099964614859369
      ],
      [
        "▁co",
        -9.100158649441326
      ],
      [
        "▁Africa",
        -9.100589097913838
      ],
      [
        "▁mother",
        -9.100789637840045
      ],
      [
        "▁Republic",
        -9.101107069375232
      ],
      [
        "▁process",
        -9.102705526132311
      ],
      [
        "▁(P",
        -9.104032202228328
      ],
      [
        "berg",
        -9.105231972600595
      ],
      [
        "▁TV",
        -9.105327549882126
      ],
      [
        "▁formed",
        -9.105378800010444
      ],
      [
        "pp",
        -9.105612698785077
      ],
      [
        "▁study",
        -9.105713214449905
      ],
      [
        "ik",
        -9.106467562345122
      ],
      [
        "▁common",
        -9.106932194188497
      ],
      [
        "▁Zealand",
        -9.1072360438063
      ],
      [
        "▁Western",
        -9.107898984213495
      ],
      [
        "▁working",
        -9.10842422915362
      ],
      [
        "▁reported",
        -9.1090567071626
      ],
      [
        "▁(B",
        -9.109929843139446
      ],
      [
        "▁Jo",
        -9.110315300223744
      ],
      [
        "cal",
        -9.110438431503724
      ],
      [
        "▁Wa",
        -9.111716222159332
      ],
      [
        "12",
        -9.115002431099809
      ],
      [
        "▁Michael",
        -9.115415521577786
      ],
      [
        "port",
        -9.115736682914198
      ],
      [
        "▁stage",
        -9.116402261804438
      ],
      [
        "▁contract",
        -9.11727499293155
      ],
      [
        "”",
        -9.11784693676938
      ],
      [
        "▁Cha",
        -9.11806106358878
      ],
      [
        "▁making",
        -9.11842022210018
      ],
      [
        "s:",
        -9.118855987550258
      ],
      [
        "▁west",
        -9.119419561420465
      ],
      [
        "’",
        -9.11944037478621
      ],
      [
        "\n\nS",
        -9.121484367831204
      ],
      [
        "end",
        -9.12251832499224
      ],
      [
        "▁radio",
        -9.12310684684626
      ],
      [
        "▁daughter",
        -9.1248770615407
      ],
      [
        "day",
        -9.12527987282635
      ],
      [
        "▁Film",
        -9.125434379327352
      ],
      [
        "▁1997",
        -9.126202614526612
      ],
      [
        "cha",
        -9.126701875109376
      ],
      [
        "▁Ru",
        -9.129724513449698
      ],
      [
        "ord",
        -9.129947456409676
      ],
      [
        "▁president",
        -9.133519641059811
      ],
      [
        "▁does",
        -9.133930651479098
      ],
      [
        "▁23",
        -9.134458571823156
      ],
      [
        "pa",
        -9.134700008204115
      ],
      [
        "▁human",
        -9.134704375967594
      ],
      [
        "▁Great",
        -9.135336227533532
      ],
      [
        "▁White",
        -9.137030634978984
      ],
      [
        "wood",
        -9.138019650771932
      ],
      [
        "ight",
        -9.138945943909553
      ],
      [
        "▁term",
        -9.13972079748666
      ],
      [
        "▁himself",
        -9.139988216938589
      ],
      [
        "▁Ke",
        -9.140136043274484
      ],
      [
        "-19",
        -9.141248470183127
      ],
      [
        "▁footballers",
        -9.141996451059786
      ],
      [
        "▁road",
        -9.14389953786367
      ],
      [
        "▁Per",
        -9.144683960850312
      ],
      [
        "▁also\n",
        -9.144797277403905
      ],
      [
        "zi",
        -9.145000036531334
      ],
      [
        "▁19",
        -9.14540586810409
      ],
      [
        "n't",
        -9.14799268840979
      ],
      [
        "▁Christian",
        -9.149213546979723
      ],
      [
        "although",
        -9.149439402607996
      ],
      [
        "ney",
        -9.150053339552954
      ],
      [
        "out",
        -9.151498931736976
      ],
      [
        "q",
        -9.152442516228966
      ],
      [
        "▁modern",
        -9.153014796403324
      ],
      [
        "▁companies",
        -9.154466383240475
      ],
      [
        "▁body",
        -9.155437465801327
      ],
      [
        "▁rock",
        -9.155479160359636
      ],
      [
        "ten",
        -9.155782505030531
      ],
      [
        "▁man",
        -9.156326083313193
      ],
      [
        "ization",
        -9.156759013355249
      ],
      [
        "▁Ver",
        -9.158443794836543
      ],
      [
        "▁No.",
        -9.158842214620366
      ],
      [
        "▁Mon",
        -9.159297390289446
      ],
      [
        "40",
        -9.159662580015066
      ],
      [
        "\nG",
        -9.161686639712345
      ],
      [
        "▁author",
        -9.162139199557062
      ],
      [
        "▁episode",
        -9.16314730782388
      ],
      [
        "gan",
        -9.163221747927702
      ],
      [
        "▁Texas",
        -9.164003257010632
      ],
      [
        "▁across",
        -9.165117093666163
      ],
      [
        "▁26",
        -9.165713088452687
      ],
      [
        "▁J.",
        -9.167319592528465
      ],
      [
        "▁Cor",
        -9.168292083804037
      ],
      [
        "▁UK",
        -9.168485695693102
      ],
      [
        "▁court",
        -9.168878307958613
      ],
      [
        "▁albums",
        -9.170738987651289
      ],
      [
        "▁Wi",
        -9.171755606143034
      ],
      [
        "-S",
        -9.171768718062284
      ],
      [
        "fer",
        -9.171776437142285
      ],
      [
        "▁get",
        -9.172291921983952
      ],
      [
        "ium",
        -9.172338234894385
      ],
      [
        "\nW",
        -9.173703218290113
      ],
      [
        "\n20th-century",
        -9.175025169602469
      ],
      [
        "ning",
        -9.1763390996126
      ],
      [
        "60",
        -9.176845913588478
      ],
      [
        "▁Pre",
        -9.180252997655948
      ],
      [
        "▁female",
        -9.180824266932172
      ],
      [
        "▁campaign",
        -9.182553935017518
      ],
      [
        "ick",
        -9.18266759437986
      ],
      [
        "▁hand",
        -9.182687316205618
      ],
      [
        "▁1995",
        -9.183856667600152
      ],
      [
        "▁1992",
        -9.18409579848824
      ],
      [
        "ville",
        -9.185034383508832
      ],
      [
        "▁27",
        -9.186999306889517
      ],
      [
        "ev",
        -9.187040419282642
      ],
      [
        "▁Har",
        -9.18715752454348
      ],
      [
        "▁met",
        -9.189151098264755
      ],
      [
        "▁28",
        -9.189194337451
      ],
      [
        "▁ten",
        -9.189444503450728
      ],
      [
        "▁available",
        -9.19018872025918
      ],
      [
        "▁playing",
        -9.191266113884044
      ],
      [
        "jo",
        -9.191495089011868
      ],
      [
        "ens",
        -9.192569750043956
      ],
      [
        "well",
        -9.192889952378906
      ],
      [
        "▁how",
        -9.192930321360915
      ],
      [
        "▁birth",
        -9.193082083030392
      ],
      [
        "▁sold",
        -9.193973392349694
      ],
      [
        "ations",
        -9.194671049553609
      ],
      [
        "▁Ex",
        -9.197742180076569
      ],
      [
        "▁1994",
        -9.197928787202802
      ],
      [
        "▁consist",
        -9.198293208210275
      ],
      [
        "sk",
        -9.199267487192296
      ],
      [
        "▁class",
        -9.20005628042198
      ],
      [
        "▁alumni",
        -9.200842278635209
      ],
      [
        "80",
        -9.20106573051944
      ],
      [
        "kin",
        -9.201847258615038
      ],
      [
        "▁Star",
        -9.20202947285878
      ],
      [
        "▁From",
        -9.202991084363864
      ],
      [
        "▁Grand",
        -9.205231146892856
      ],
      [
        "▁Paris",
        -9.20588278660666
      ],
      [
        "▁Chinese",
        -9.207174100545856
      ],
      [
        "ful",
        -9.207418889656568
      ],
      [
        "pur",
        -9.2076772998661
      ],
      [
        "▁information",
        -9.207841131118098
      ],
      [
        "▁model",
        -9.208432583956704
      ],
      [
        "▁attack",
        -9.209664228164652
      ],
      [
        "▁performance",
        -9.20986349957534
      ],
      [
        "▁Si",
        -9.209872115887404
      ],
      [
        "▁African",
        -9.210418511788127
      ],
      [
        "▁Mu",
        -9.210989408834864
      ],
      [
        "▁schools",
        -9.21146605902343
      ],
      [
        "▁Mor",
        -9.211489513102633
      ],
      [
        "▁Ga",
        -9.212492306307515
      ],
      [
        "–20",
        -9.21441319265585
      ],
      [
        "▁close",
        -9.21600918035508
      ],
      [
        "du",
        -9.217869556782642
      ],
      [
        "gave",
        -9.217988510047098
      ],
      [
        "▁Ad",
        -9.218436148334604
      ],
      [
        "24",
        -9.218705316582533
      ],
      [
        "▁black",
        -9.218776509472669
      ],
      [
        "▁Mc",
        -9.218862528296809
      ],
      [
        "▁performed",
        -9.219079576547337
      ],
      [
        "–18",
        -9.220588286165258
      ],
      [
        "▁living",
        -9.221632182184443
      ],
      [
        "▁construction",
        -9.222359030310429
      ],
      [
        "17",
        -9.223306819523776
      ],
      [
        "house",
        -9.22357997757433
      ],
      [
        "sha",
        -9.223833822110542
      ],
      [
        "▁buildings",
        -9.223907683524931
      ],
      [
        "air",
        -9.225265545043213
      ],
      [
        "23",
        -9.22565451882391
      ],
      [
        "▁Ra",
        -9.2262806611694
      ],
      [
        "▁should",
        -9.226382275497077
      ],
      [
        "▁Los",
        -9.226801046273456
      ],
      [
        "▁range",
        -9.227823259339678
      ],
      [
        "▁seven",
        -9.228137425311475
      ],
      [
        "▁politician",
        -9.228538207069894
      ],
      [
        "▁space",
        -9.229424611997452
      ],
      [
        "!",
        -9.229446417245004
      ],
      [
        "▁never",
        -9.23162616521534
      ],
      [
        "▁start",
        -9.232658515263314
      ],
      [
        "com",
        -9.232713332094669
      ],
      [
        "▁$",
        -9.233560285634638
      ],
      [
        "tre",
        -9.234126379293668
      ],
      [
        "\nOn",
        -9.234957572675166
      ],
      [
        "van",
        -9.235120122618714
      ],
      [
        "▁stations",
        -9.235769316214917
      ],
      [
        "▁killed",
        -9.237233396641294
      ],
      [
        "act",
        -9.237420413758189
      ],
      [
        "▁front",
        -9.23780177998496
      ],
      [
        "ator",
        -9.238493793987136
      ],
      [
        "uk",
        -9.239080878386458
      ],
      [
        "▁current",
        -9.239879268833098
      ],
      [
        "▁Super",
        -9.241077341083049
      ],
      [
        "▁away",
        -9.2432860669443
      ],
      [
        "▁media",
        -9.243606597840438
      ],
      [
        "tion",
        -9.24435523098724
      ],
      [
        "▁Henry",
        -9.246500317775014
      ],
      [
        "ding",
        -9.246641959442227
      ],
      [
        "▁less",
        -9.246719225317246
      ],
      [
        "▁bar",
        -9.246791488856418
      ],
      [
        "str",
        -9.246859737940063
      ],
      [
        "▁1990",
        -9.246959539814288
      ],
      [
        "▁ship",
        -9.247016324004797
      ],
      [
        "▁return",
        -9.247294122463494
      ],
      [
        "▁Law",
        -9.247441685172635
      ],
      [
        ".\n\nB",
        -9.24783070105587
      ],
      [
        "▁Richard",
        -9.24784805366012
      ],
      [
        "ani",
        -9.249131239889282
      ],
      [
        "▁taken",
        -9.249132127151029
      ],
      [
        "▁(D",
        -9.249356834154806
      ],
      [
        "▁see",
        -9.24963576625394
      ],
      [
        "▁though",
        -9.25007053119338
      ],
      [
        "vis",
        -9.250546774711744
      ],
      [
        "||",
        -9.250966055963922
      ],
      [
        "▁months",
        -9.252476681586662
      ],
      [
        "▁base",
        -9.252707017888584
      ],
      [
        "▁Ti",
        -9.25358829170582
      ],
      [
        "▁finished",
        -9.2551503640087
      ],
      [
        "▁Gi",
        -9.255314644710792
      ],
      [
        "can",
        -9.255845491660198
      ],
      [
        "▁Fe",
        -9.25674069753151
      ],
      [
        "tor",
        -9.256813738399458
      ],
      [
        "21",
        -9.257183787444747
      ],
      [
        "hy",
        -9.257407349593832
      ],
      [
        "▁followed",
        -9.257787125992504
      ],
      [
        "▁En",
        -9.257912271214858
      ],
      [
        "row",
        -9.25859476221879
      ],
      [
        "▁private",
        -9.258688261885402
      ],
      [
        "▁1993",
        -9.259865376213405
      ],
      [
        "red",
        -9.260731174769116
      ],
      [
        "▁Force",
        -9.260782099745857
      ],
      [
        "▁Ireland",
        -9.26203355014422
      ],
      [
        "tur",
        -9.262479909597486
      ],
      [
        "While",
        -9.263007123848809
      ],
      [
        "▁Saint",
        -9.263159039630429
      ],
      [
        "▁Ba",
        -9.266398346213956
      ],
      [
        "▁Spanish",
        -9.26728188509846
      ],
      [
        "▁establishments",
        -9.267396257041026
      ],
      [
        "▁Some",
        -9.269418115413938
      ],
      [
        "▁Hill",
        -9.269679627866244
      ],
      [
        "gg",
        -9.269869464112814
      ],
      [
        "back",
        -9.271103006247504
      ],
      [
        "ect",
        -9.271723484615013
      ],
      [
        "▁Bre",
        -9.27358831836256
      ],
      [
        "▁must",
        -9.274175746689764
      ],
      [
        "▁novel",
        -9.274210058971214
      ],
      [
        "vin",
        -9.275715025689426
      ],
      [
        "16",
        -9.275799397608871
      ],
      [
        "▁du",
        -9.276204912707506
      ],
      [
        "▁designed",
        -9.27642557398946
      ],
      [
        "▁features",
        -9.277876066130135
      ],
      [
        "▁guitar",
        -9.278215736192978
      ],
      [
        "▁1991",
        -9.2786436705789
      ],
      [
        "time",
        -9.278887514023944
      ],
      [
        "mb",
        -9.279766242173771
      ],
      [
        "lar",
        -9.27981236420871
      ],
      [
        "▁brother",
        -9.280103867198102
      ],
      [
        "▁Ge",
        -9.281321693293894
      ],
      [
        "▁Chi",
        -9.281465903081044
      ],
      [
        "▁Sal",
        -9.281586402256474
      ],
      [
        "▁originally",
        -9.2821311559972
      ],
      [
        "▁police",
        -9.282187503591262
      ],
      [
        "unt",
        -9.282854646894998
      ],
      [
        "▁allow",
        -9.283372110764835
      ],
      [
        "cc",
        -9.283525412896289
      ],
      [
        "22",
        -9.285378254149624
      ],
      [
        "ating",
        -9.285799284462694
      ],
      [
        "▁tournament",
        -9.286848093004023
      ],
      [
        "▁white",
        -9.28747881725386
      ],
      [
        "rie",
        -9.287618909162338
      ],
      [
        "cul",
        -9.288572649794538
      ],
      [
        "▁awarded",
        -9.289604718095529
      ],
      [
        "▁Is",
        -9.28990747723193
      ],
      [
        "gar",
        -9.291109047478232
      ],
      [
        "art",
        -9.29124316720515
      ],
      [
        "▁board",
        -9.29138949282884
      ],
      [
        "▁great",
        -9.29339592698436
      ],
      [
        "▁With",
        -9.293811535654909
      ],
      [
        "▁artists",
        -9.29432660086985
      ],
      [
        "\nE",
        -9.294492415127674
      ],
      [
        "▁find",
        -9.295066197799583
      ],
      [
        "▁featured",
        -9.295117159499942
      ],
      [
        "▁Virginia",
        -9.295174140218036
      ],
      [
        "▁once",
        -9.295389305461052
      ],
      [
        "▁Pan",
        -9.29545919358416
      ],
      [
        "▁tri",
        -9.296309672000683
      ],
      [
        "cre",
        -9.296790503559688
      ],
      [
        "▁remained",
        -9.29856998847315
      ],
      [
        "▁History",
        -9.299947087531663
      ],
      [
        "▁largest",
        -9.300476470177417
      ],
      [
        "▁includes",
        -9.301241678864235
      ],
      [
        "\nList",
        -9.302756523508814
      ],
      [
        "05",
        -9.305226621582865
      ],
      [
        "cy",
        -9.306214685775611
      ],
      [
        "▁you",
        -9.306556356390312
      ],
      [
        "▁artist",
        -9.306769230631494
      ],
      [
        "▁center",
        -9.306853468386366
      ],
      [
        "▁inter",
        -9.306871156001
      ],
      [
        "▁eight",
        -9.307245067597588
      ],
      [
        "▁sent",
        -9.30790374557637
      ],
      [
        "00",
        -9.307922705811386
      ],
      [
        "04",
        -9.308046280378123
      ],
      [
        "▁training",
        -9.30902277744182
      ],
      [
        "▁aircraft",
        -9.310233056910274
      ],
      [
        "▁Hu",
        -9.3121138605613
      ],
      [
        "▁\"S",
        -9.312154698008774
      ],
      [
        "▁good",
        -9.312679754674924
      ],
      [
        "27",
        -9.313439860934787
      ],
      [
        "ric",
        -9.315022060588388
      ],
      [
        "▁real",
        -9.315233998399943
      ],
      [
        "▁Col",
        -9.315268030385056
      ],
      [
        "▁Martin",
        -9.315483767922943
      ],
      [
        "▁Mexico",
        -9.316437621591763
      ],
      [
        "▁Com",
        -9.316907686341654
      ],
      [
        "s\"",
        -9.31969633461383
      ],
      [
        "▁Order",
        -9.319975335859407
      ],
      [
        "▁books",
        -9.320332093711023
      ],
      [
        "▁Smith",
        -9.321060894662168
      ],
      [
        "...",
        -9.322233712327622
      ],
      [
        "▁places",
        -9.3222780394914
      ],
      [
        "▁throughout",
        -9.323117615477882
      ],
      [
        "over",
        -9.323579197465111
      ],
      [
        "▁seen",
        -9.323876435256048
      ],
      [
        "03",
        -9.324527175080563
      ],
      [
        "▁forces",
        -9.324792857521253
      ],
      [
        "iv",
        -9.325156582154523
      ],
      [
        "bra",
        -9.32658735356013
      ],
      [
        "ves",
        -9.32671254393382
      ],
      [
        "▁shows",
        -9.326930790379963
      ],
      [
        "▁Sam",
        -9.328379330805785
      ],
      [
        "iz",
        -9.328715334637325
      ],
      [
        "▁Bra",
        -9.32916775364794
      ],
      [
        "▁serve",
        -9.329364650177505
      ],
      [
        "Q",
        -9.330137998186132
      ],
      [
        "▁players\n",
        -9.330502710183822
      ],
      [
        "mann",
        -9.331404994592178
      ],
      [
        "lic",
        -9.33170697738892
      ],
      [
        "▁Historic",
        -9.331754722857854
      ],
      [
        "▁trade",
        -9.331885311072384
      ],
      [
        "▁29",
        -9.33190471447404
      ],
      [
        "ue",
        -9.332263206903054
      ],
      [
        "usually",
        -9.333379559511483
      ],
      [
        "?",
        -9.33485050429336
      ],
      [
        "ose",
        -9.334954198589124
      ],
      [
        "▁Year",
        -9.335614325603055
      ],
      [
        "▁success",
        -9.335652625515875
      ],
      [
        "\nK",
        -9.336518273424716
      ],
      [
        "let",
        -9.337713952356657
      ],
      [
        "net",
        -9.338108672666111
      ],
      [
        "of",
        -9.34016050668624
      ],
      [
        "▁writer",
        -9.340353826853995
      ],
      [
        "▁college",
        -9.3406169978057
      ],
      [
        "ade",
        -9.341023051824198
      ],
      [
        "▁competition",
        -9.341232892400049
      ],
      [
        "▁railway",
        -9.34349419400074
      ],
      [
        "▁introduced",
        -9.343637083747735
      ],
      [
        "▁Navy",
        -9.345189428090375
      ],
      [
        "▁Che",
        -9.345773255008384
      ],
      [
        "ax",
        -9.34610631396282
      ],
      [
        "▁involved",
        -9.346280356516656
      ],
      [
        "▁countries",
        -9.346366950273492
      ],
      [
        "▁goal",
        -9.349124609548216
      ],
      [
        "99",
        -9.35039692172814
      ],
      [
        "▁battle",
        -9.35181619797885
      ],
      [
        "▁Day",
        -9.351867846179266
      ],
      [
        "-A",
        -9.351930236278848
      ],
      [
        "▁tour",
        -9.352087883837658
      ],
      [
        "Z",
        -9.352101927409034
      ],
      [
        "▁scored",
        -9.352233782157588
      ],
      [
        "▁Province",
        -9.352351586957528
      ],
      [
        "sky",
        -9.35300814263204
      ],
      [
        "▁Championships",
        -9.353485122451604
      ],
      [
        "ost",
        -9.353627582772104
      ],
      [
        "▁eventually",
        -9.353701665857528
      ],
      [
        "lor",
        -9.356105885493356
      ],
      [
        "▁1988",
        -9.356108876702972
      ],
      [
        "▁sea",
        -9.357781989279362
      ],
      [
        "▁replaced",
        -9.357946772518924
      ],
      [
        "▁studio",
        -9.358081536600762
      ],
      [
        "bin",
        -9.358893688197766
      ],
      [
        "ible",
        -9.35973261203512
      ],
      [
        "car",
        -9.360687220076413
      ],
      [
        "▁Italy",
        -9.362271915444104
      ],
      [
        "bre",
        -9.362610260068235
      ],
      [
        "According",
        -9.362761779952844
      ],
      [
        "▁1989",
        -9.36294509950824
      ],
      [
        "▁Mac",
        -9.363124790994396
      ],
      [
        "▁Sea",
        -9.36393006312828
      ],
      [
        "▁Ab",
        -9.36476473221246
      ],
      [
        "▁currently",
        -9.365098010588692
      ],
      [
        "▁culture",
        -9.365218698592775
      ],
      [
        "70",
        -9.365655466207825
      ],
      [
        "▁command",
        -9.366010704508804
      ],
      [
        "▁Chicago",
        -9.36622021369794
      ],
      [
        "▁Festival",
        -9.366675029998508
      ],
      [
        "\n|-",
        -9.366928925720412
      ],
      [
        "▁listed",
        -9.36722111144752
      ],
      [
        "for",
        -9.36745450265736
      ],
      [
        "ified",
        -9.367713593861636
      ],
      [
        "-1",
        -9.3681857569118
      ],
      [
        "▁health",
        -9.368500102243766
      ],
      [
        "qu",
        -9.369699811277917
      ],
      [
        "nes",
        -9.370202917431696
      ],
      [
        "28",
        -9.370336802092424
      ],
      [
        "▁Soviet",
        -9.37062928088733
      ],
      [
        "▁rights",
        -9.371194331495582
      ],
      [
        "▁(the",
        -9.371235581108024
      ],
      [
        "▁added",
        -9.371541282084468
      ],
      [
        "90",
        -9.37181423673344
      ],
      [
        "▁Committee",
        -9.372961828515184
      ],
      [
        "▁ground",
        -9.373240686546358
      ],
      [
        ".\n\nP",
        -9.37348634468121
      ],
      [
        "-B",
        -9.37357559894778
      ],
      [
        "▁change",
        -9.374108327115676
      ],
      [
        "▁previous",
        -9.374286076166191
      ],
      [
        "▁central",
        -9.374294983504024
      ],
      [
        "ile",
        -9.377221962557886
      ],
      [
        "▁50",
        -9.37787539767493
      ],
      [
        "og",
        -9.378305364217828
      ],
      [
        "▁Can",
        -9.378338658224296
      ],
      [
        "tri",
        -9.379064489995775
      ],
      [
        "\n\nA",
        -9.379472272488576
      ],
      [
        "▁least",
        -9.38084297615626
      ],
      [
        "war",
        -9.38097291683184
      ],
      [
        "▁degree",
        -9.381077684109508
      ],
      [
        "▁type",
        -9.381258026268412
      ],
      [
        "bar",
        -9.383020091326465
      ],
      [
        "▁Angeles",
        -9.383682367135574
      ],
      [
        "▁above",
        -9.383860625636013
      ],
      [
        "▁Tri",
        -9.383913938389988
      ],
      [
        "ix",
        -9.384877267971143
      ],
      [
        "▁basketball",
        -9.384919410835806
      ],
      [
        "qui",
        -9.385187920903846
      ],
      [
        "000",
        -9.38719326884409
      ],
      [
        "▁night",
        -9.387793829132438
      ],
      [
        "sch",
        -9.387977403371886
      ],
      [
        "▁interest",
        -9.388249274184547
      ],
      [
        "▁stated",
        -9.388585630937982
      ],
      [
        "\nI",
        -9.388714087567656
      ],
      [
        "▁Mount",
        -9.389108272464703
      ],
      [
        "▁Louis",
        -9.389711029521395
      ],
      [
        "ari",
        -9.391710275514
      ],
      [
        "tain",
        -9.391922942012444
      ],
      [
        "uff",
        -9.392139181966003
      ],
      [
        "▁Brown",
        -9.392371553907818
      ],
      [
        "▁data",
        -9.393790454086783
      ],
      [
        "▁Sir",
        -9.393958824343647
      ],
      [
        "▁website",
        -9.39498104394083
      ],
      [
        "\nO",
        -9.396981162674436
      ],
      [
        "▁either",
        -9.39728902850839
      ],
      [
        "▁Tu",
        -9.39732837115267
      ],
      [
        "cent",
        -9.39759129045572
      ],
      [
        "leading",
        -9.398243185865953
      ],
      [
        "\n|-\n|",
        -9.398275954859374
      ],
      [
        "res",
        -9.398846880578168
      ],
      [
        "▁(T",
        -9.39989166352592
      ],
      [
        "▁strong",
        -9.401058540386504
      ],
      [
        "tter",
        -9.401134870061425
      ],
      [
        "▁fourth",
        -9.401720616334796
      ],
      [
        "▁da",
        -9.403057596427235
      ],
      [
        "▁ex",
        -9.40322980870594
      ],
      [
        "▁Rock",
        -9.403360596173428
      ],
      [
        "29",
        -9.404524448457414
      ],
      [
        "▁writing",
        -9.406045074431688
      ],
      [
        "▁put",
        -9.40748420750971
      ],
      [
        "▁break",
        -9.407571116430624
      ],
      [
        "▁size",
        -9.408128923780712
      ],
      [
        "▁Arts",
        -9.409892380024765
      ],
      [
        "graph",
        -9.41011405879787
      ],
      [
        "▁Sha",
        -9.41056786056734
      ],
      [
        "▁(N",
        -9.410941018168062
      ],
      [
        "▁provided",
        -9.411550615524437
      ],
      [
        "▁Mark",
        -9.411753825232
      ],
      [
        "▁Science",
        -9.4125527230682
      ],
      [
        "▁unit",
        -9.412684421377142
      ],
      [
        "▁God",
        -9.41303424207957
      ],
      [
        "▁Sun",
        -9.414506233358992
      ],
      [
        "ros",
        -9.41497598499381
      ],
      [
        "▁Bu",
        -9.415839144660996
      ],
      [
        "▁capital",
        -9.417025615878911
      ],
      [
        "sta",
        -9.417470647738496
      ],
      [
        "▁Wales",
        -9.417544714328542
      ],
      [
        "▁Florida",
        -9.417756475401935
      ],
      [
        "▁travel",
        -9.418220045431854
      ],
      [
        "▁Carolina",
        -9.419439047851045
      ],
      [
        "cor",
        -9.420753121503628
      ],
      [
        "▁2,",
        -9.42138650790248
      ],
      [
        "▁science",
        -9.4222257828304
      ],
      [
        "▁Government",
        -9.422545135267304
      ],
      [
        "▁upon",
        -9.422712855804582
      ],
      [
        "▁via",
        -9.422841418702223
      ],
      [
        "▁access",
        -9.423234755504332
      ],
      [
        "mm",
        -9.425079212214412
      ],
      [
        "▁love",
        -9.425624539225876
      ],
      [
        "uc",
        -9.426586548029334
      ],
      [
        "▁person",
        -9.427703388830697
      ],
      [
        "ski",
        -9.4280673315831
      ],
      [
        "cu",
        -9.428892581896848
      ],
      [
        "▁action",
        -9.429877601366249
      ],
      [
        "▁units",
        -9.430553107172242
      ],
      [
        "▁plant",
        -9.431165704321758
      ],
      [
        "town",
        -9.431276393295402
      ],
      [
        "▁Town",
        -9.431363275010456
      ],
      [
        "▁wide",
        -9.432212245893808
      ],
      [
        "\nHe",
        -9.43251469531375
      ],
      [
        "ox",
        -9.432830368446682
      ],
      [
        "ography",
        -9.433152584474348
      ],
      [
        "▁Service",
        -9.433160165725392
      ],
      [
        "ious",
        -9.433886812694164
      ],
      [
        "▁(H",
        -9.435114067563385
      ],
      [
        "▁reached",
        -9.43587297411503
      ],
      [
        "▁writers",
        -9.435900622142434
      ],
      [
        "▁Bal",
        -9.437540587191585
      ],
      [
        "▁market",
        -9.43793840352852
      ],
      [
        "▁independent",
        -9.439111651392938
      ],
      [
        "▁1987",
        -9.439359683335372
      ],
      [
        "▁actor",
        -9.440520802840563
      ],
      [
        "▁missing",
        -9.44064880599551
      ],
      [
        "▁turn",
        -9.44088951722505
      ],
      [
        "ction",
        -9.441054717883407
      ],
      [
        "▁saw",
        -9.441492553654076
      ],
      [
        "▁Gra",
        -9.442395107335836
      ],
      [
        "mic",
        -9.44372871402835
      ],
      [
        "off",
        -9.443858593803553
      ],
      [
        "ip",
        -9.443990085195308
      ],
      [
        "▁score",
        -9.444086863460448
      ],
      [
        "45",
        -9.444537324282487
      ],
      [
        "▁rest",
        -9.446173838359629
      ],
      [
        "ette",
        -9.447095215800235
      ],
      [
        "▁Mary",
        -9.447494294774256
      ],
      [
        "idae",
        -9.448150557514762
      ],
      [
        "▁Sp",
        -9.449596221983194
      ],
      [
        "▁river",
        -9.450474893473242
      ],
      [
        "zo",
        -9.450892160969529
      ],
      [
        ":\n\n",
        -9.45200791411616
      ],
      [
        "▁far",
        -9.452148994128294
      ],
      [
        "▁provide",
        -9.453397218872222
      ],
      [
        "▁And",
        -9.453765652982424
      ],
      [
        "▁shot",
        -9.454675148232274
      ],
      [
        "▁Un",
        -9.455670504897196
      ],
      [
        "▁1st",
        -9.455923986515057
      ],
      [
        "tes",
        -9.456344605961752
      ],
      [
        "▁1980",
        -9.456690786160898
      ],
      [
        "▁31",
        -9.458173873307649
      ],
      [
        "▁division",
        -9.459152607677016
      ],
      [
        "▁centre",
        -9.459293492210818
      ],
      [
        "▁1986",
        -9.459344552373032
      ],
      [
        "▁placed",
        -9.459818554408008
      ],
      [
        ".\n\nCareer",
        -9.459956347119858
      ],
      [
        "\nM",
        -9.46020146843838
      ],
      [
        "▁deal",
        -9.460226130425534
      ],
      [
        "▁leader",
        -9.460640822661723
      ],
      [
        "▁1984",
        -9.460849902584636
      ],
      [
        "97",
        -9.461050293819907
      ],
      [
        "▁Pennsylvania",
        -9.461769136563364
      ],
      [
        "▁section",
        -9.463116487206992
      ],
      [
        "▁Director",
        -9.463737317423153
      ],
      [
        "▁economic",
        -9.46379140607507
      ],
      [
        "▁edition",
        -9.463882024018387
      ],
      [
        "▁force",
        -9.463903525888838
      ],
      [
        "▁\"B",
        -9.464267188985923
      ],
      [
        "01",
        -9.465248183718488
      ],
      [
        "\n21st-century",
        -9.467156554788236
      ],
      [
        "▁\"the",
        -9.46725470075111
      ],
      [
        "▁Russia",
        -9.467742522688289
      ],
      [
        "ku",
        -9.468486248677376
      ],
      [
        "▁decided",
        -9.469005034555313
      ],
      [
        "▁results",
        -9.46944888484234
      ],
      [
        "▁red",
        -9.469471051174867
      ],
      [
        "▁natural",
        -9.472532565494545
      ],
      [
        "▁Tom",
        -9.472579986612436
      ],
      [
        "ez",
        -9.472956153065404
      ],
      [
        "form",
        -9.473464925947924
      ],
      [
        "▁Yu",
        -9.473537411709458
      ],
      [
        "▁movement",
        -9.473689639594706
      ],
      [
        "▁singer",
        -9.474051888010727
      ],
      [
        "eastern",
        -9.474654708307169
      ],
      [
        "35",
        -9.474927367961532
      ],
      [
        "wan",
        -9.475220015493804
      ],
      [
        "▁Dan",
        -9.475524957594205
      ],
      [
        "26",
        -9.476006332796134
      ],
      [
        "▁Q",
        -9.477120502384414
      ],
      [
        "85",
        -9.478077985584893
      ],
      [
        "▁structure",
        -9.480397211848723
      ],
      [
        "rather",
        -9.48066868464736
      ],
      [
        "▁Hol",
        -9.480756004016142
      ],
      [
        "▁Bank",
        -9.481218556762853
      ],
      [
        "ett",
        -9.48146052854531
      ],
      [
        "shi",
        -9.481691024747096
      ],
      [
        "her",
        -9.482712891673923
      ],
      [
        "▁Min",
        -9.48310275644328
      ],
      [
        "▁organization",
        -9.483427272196574
      ],
      [
        "istic",
        -9.483502443579033
      ],
      [
        "▁\"A",
        -9.483655515070648
      ],
      [
        "▁network",
        -9.483958804200922
      ],
      [
        "\nD",
        -9.484457939377451
      ],
      [
        "pro",
        -9.484484818996336
      ],
      [
        "▁active",
        -9.484676531428462
      ],
      [
        "▁Land",
        -9.484784274488506
      ],
      [
        "▁week",
        -9.48567181379932
      ],
      [
        "▁Empire",
        -9.486002408627748
      ],
      [
        "▁Railway",
        -9.486292683061846
      ],
      [
        "▁Bur",
        -9.48648740825528
      ],
      [
        "▁states",
        -9.486627606256876
      ],
      [
        "▁decision",
        -9.486791133967987
      ],
      [
        "ory",
        -9.487376712379948
      ],
      [
        "ash",
        -9.48753009270926
      ],
      [
        "az",
        -9.487709187647642
      ],
      [
        "▁Ya",
        -9.488134516878365
      ],
      [
        "▁producer",
        -9.488230309648015
      ],
      [
        "▁Greek",
        -9.488434533428288
      ],
      [
        "▁attended",
        -9.488716283552009
      ],
      [
        "▁Irish",
        -9.490556494399202
      ],
      [
        "\nFilms",
        -9.49144422042084
      ],
      [
        "▁gold",
        -9.491768543672164
      ],
      [
        "31",
        -9.492767722955282
      ],
      [
        "▁hit",
        -9.493800265535002
      ],
      [
        "Although",
        -9.493835342169632
      ],
      [
        "▁outside",
        -9.494518910155284
      ],
      [
        "|",
        -9.495624501958618
      ],
      [
        "whose",
        -9.49572586934648
      ],
      [
        "▁Battle",
        -9.495856529790633
      ],
      [
        "▁1985",
        -9.49667747551021
      ],
      [
        "▁host",
        -9.498239725075816
      ],
      [
        "ram",
        -9.4992396124067
      ],
      [
        "66",
        -9.499263774363431
      ],
      [
        "▁instead",
        -9.499782285600348
      ],
      [
        "▁Life",
        -9.500751069718266
      ],
      [
        ").\n",
        -9.50084377570886
      ],
      [
        "▁Za",
        -9.501533570433477
      ],
      [
        "▁drama",
        -9.501941333145869
      ],
      [
        "▁cast",
        -9.50245944817115
      ],
      [
        "ella",
        -9.502751007781669
      ],
      [
        "▁park",
        -9.502845875802128
      ],
      [
        "88",
        -9.503173688541148
      ],
      [
        "▁Northern",
        -9.503266131769957
      ],
      [
        "▁Parliament",
        -9.50342798865029
      ],
      [
        "95",
        -9.503850766685686
      ],
      [
        "▁Register",
        -9.504207030895476
      ],
      [
        "▁Love",
        -9.504315095399145
      ],
      [
        "shire",
        -9.50458201511774
      ],
      [
        ".\n\nHistory",
        -9.504631561448628
      ],
      [
        "sia",
        -9.505002225011946
      ],
      [
        "▁previously",
        -9.505747066285055
      ],
      [
        "northern",
        -9.506924577911006
      ],
      [
        ".\n\nT",
        -9.507053054704883
      ],
      [
        "▁collection",
        -9.50776710186974
      ],
      [
        "▁practice",
        -9.507864193903556
      ],
      [
        "▁characters",
        -9.507999813396308
      ],
      [
        "▁Tour",
        -9.5081573242292
      ],
      [
        "▁winning",
        -9.508276556530276
      ],
      [
        "▁Board",
        -9.508471028125683
      ],
      [
        "▁Two",
        -9.508755974698284
      ],
      [
        "del",
        -9.50890062248608
      ],
      [
        "▁commercial",
        -9.509972383082992
      ],
      [
        "s)",
        -9.510170217908788
      ],
      [
        "▁Er",
        -9.510625878526664
      ],
      [
        ".\n\nAfter",
        -9.51066071575259
      ],
      [
        "▁Congress",
        -9.510872523078978
      ],
      [
        "▁lower",
        -9.51099196642964
      ],
      [
        "▁(\"",
        -9.512548262753535
      ],
      [
        "▁bi",
        -9.513499762730774
      ],
      [
        "▁Par",
        -9.513648967770491
      ],
      [
        "cho",
        -9.51382181997123
      ],
      [
        "▁(L",
        -9.514201767275576
      ],
      [
        "89",
        -9.514553224645104
      ],
      [
        "▁defeated",
        -9.515077871003236
      ],
      [
        "▁40",
        -9.5151633447959
      ],
      [
        "▁Old",
        -9.51590754900073
      ],
      [
        "ological",
        -9.51599262738719
      ],
      [
        "▁Don",
        -9.516296567704623
      ],
      [
        "▁musical",
        -9.516596401271055
      ],
      [
        "09",
        -9.51760253549776
      ],
      [
        "▁department",
        -9.51762816086378
      ],
      [
        "▁Space",
        -9.517751566561214
      ],
      [
        "Since",
        -9.518299842061715
      ],
      [
        "▁Ku",
        -9.518511810328592
      ],
      [
        "gue",
        -9.519431839940047
      ],
      [
        "▁southern",
        -9.519452709395228
      ],
      [
        "brought",
        -9.519792825111823
      ],
      [
        "▁seat",
        -9.520139730904775
      ],
      [
        "▁families",
        -9.520230600850182
      ],
      [
        "▁Other",
        -9.52056654964487
      ],
      [
        "yan",
        -9.520674105486266
      ],
      [
        "▁focus",
        -9.521449651499356
      ],
      [
        "ome",
        -9.521510261473074
      ],
      [
        "▁behind",
        -9.521750943889302
      ],
      [
        "▁Tra",
        -9.521907977473678
      ],
      [
        "▁M.",
        -9.522241023092237
      ],
      [
        "▁ca",
        -9.523138733871267
      ],
      [
        "▁Second",
        -9.523232518891106
      ],
      [
        "94",
        -9.52325734661716
      ],
      [
        "\t",
        -9.523666922408236
      ],
      [
        "led",
        -9.524138286133642
      ],
      [
        "▁Team",
        -9.524539083403711
      ],
      [
        "set",
        -9.526117626045025
      ],
      [
        "wo",
        -9.52724138808038
      ],
      [
        "▁individual",
        -9.527249599669547
      ],
      [
        "ctor",
        -9.527753817080288
      ],
      [
        "▁ma",
        -9.528300830249169
      ],
      [
        "▁Joseph",
        -9.528727958125254
      ],
      [
        "▁sports",
        -9.528802603004852
      ],
      [
        "tz",
        -9.529177748456044
      ],
      [
        ".\n\nEarly",
        -9.529664122748777
      ],
      [
        "▁You",
        -9.53104681085004
      ],
      [
        "▁successful",
        -9.531195512663537
      ],
      [
        "▁industry",
        -9.531523175828786
      ],
      [
        "02",
        -9.531863024044997
      ],
      [
        "▁possible",
        -9.532204794215875
      ],
      [
        "▁primary",
        -9.532542684377187
      ],
      [
        "bert",
        -9.533623559344656
      ],
      [
        "▁Assembly",
        -9.533836167521818
      ],
      [
        "\nV",
        -9.534070563206066
      ],
      [
        "lie",
        -9.534214901907308
      ],
      [
        "▁Men",
        -9.535426700692488
      ],
      [
        "▁beginning",
        -9.536657776833028
      ],
      [
        "▁Lord",
        -9.536936916293516
      ],
      [
        "▁child",
        -9.537962698979284
      ],
      [
        "▁Wood",
        -9.538554077215656
      ],
      [
        "▁Cal",
        -9.538757836088957
      ],
      [
        "▁attempt",
        -9.539298496438532
      ],
      [
        "08",
        -9.539878136072002
      ],
      [
        "ize",
        -9.540269804886698
      ],
      [
        "▁Awards",
        -9.540382731178294
      ],
      [
        "sti",
        -9.540588607955018
      ],
      [
        "ification",
        -9.540756758420564
      ],
      [
        "▁magazine",
        -9.54142165683166
      ],
      [
        "▁1983",
        -9.541643022216224
      ],
      [
        "▁Ki",
        -9.54165955972256
      ],
      [
        "ton,",
        -9.54174593843373
      ],
      [
        "▁date",
        -9.541765129496374
      ],
      [
        "93",
        -9.542046586126656
      ],
      [
        "von",
        -9.543576278347524
      ],
      [
        "\"\n",
        -9.544188659958971
      ],
      [
        "▁represented",
        -9.544221546232894
      ],
      [
        "▁past",
        -9.54433753221239
      ],
      [
        "son,",
        -9.544926021937052
      ],
      [
        "cher",
        -9.545992128699291
      ],
      [
        "▁union",
        -9.546511104474323
      ],
      [
        "▁Spain",
        -9.546920040664125
      ],
      [
        "-year",
        -9.548131479297382
      ],
      [
        "▁almost",
        -9.548583214401532
      ],
      [
        "▁Series",
        -9.548628480669624
      ],
      [
        "▁sister",
        -9.549114486743354
      ],
      [
        "▁fact",
        -9.54938666496006
      ],
      [
        "▁Lee",
        -9.54954626165088
      ],
      [
        "▁Education",
        -9.550028875133934
      ],
      [
        "ren",
        -9.550273819444136
      ],
      [
        "▁regular",
        -9.55067326765692
      ],
      [
        "▁Ju",
        -9.551471210611163
      ],
      [
        "cer",
        -9.551878694526524
      ],
      [
        "-based",
        -9.552277881024064
      ],
      [
        "▁others",
        -9.55277153207545
      ],
      [
        "▁length",
        -9.5528958157582
      ],
      [
        "▁defeat",
        -9.553730812842463
      ],
      [
        "ability",
        -9.554048393667696
      ],
      [
        "▁Line",
        -9.554244107559532
      ],
      [
        "especially",
        -9.554664601371558
      ],
      [
        "▁route",
        -9.554760309411105
      ],
      [
        "▁census",
        -9.555049604417574
      ],
      [
        ".\n\nC",
        -9.555668622318244
      ],
      [
        "▁island",
        -9.5565543538571
      ],
      [
        "len",
        -9.557898758576007
      ],
      [
        "▁Gar",
        -9.557923650547448
      ],
      [
        "▁Public",
        -9.5589937865163
      ],
      [
        "▁2.",
        -9.559223936932344
      ],
      [
        "nic",
        -9.559369871678443
      ],
      [
        "▁1982",
        -9.559621621031225
      ],
      [
        "▁Research",
        -9.56105400935694
      ],
      [
        "▁summer",
        -9.56120587204813
      ],
      [
        "▁Van",
        -9.56143139981268
      ],
      [
        "ada",
        -9.561645369908792
      ],
      [
        "▁Fort",
        -9.562330947273916
      ],
      [
        "▁Ph",
        -9.562427781961482
      ],
      [
        "▁plays",
        -9.562484626255932
      ],
      [
        "mis",
        -9.563114625542129
      ],
      [
        "\nSt",
        -9.563134862228466
      ],
      [
        "▁Chief",
        -9.563947579763694
      ],
      [
        "ara",
        -9.564537851327872
      ],
      [
        "rap",
        -9.56457420999769
      ],
      [
        "use",
        -9.565924999334626
      ],
      [
        "rit",
        -9.56598265493331
      ],
      [
        "col",
        -9.566229847543976
      ],
      [
        "tar",
        -9.566345413378462
      ],
      [
        "ries",
        -9.566765208986004
      ],
      [
        "ken",
        -9.567623485936046
      ],
      [
        "▁A.",
        -9.56775916945422
      ],
      [
        "cra",
        -9.568222922668662
      ],
      [
        "91",
        -9.568310065400873
      ],
      [
        "▁Je",
        -9.568517454852946
      ],
      [
        "▁footballer",
        -9.568655071447896
      ],
      [
        "98",
        -9.569031733277493
      ],
      [
        "▁(17",
        -9.569748828816753
      ],
      [
        "▁closed",
        -9.570779823490788
      ],
      [
        "par",
        -9.571240512533402
      ],
      [
        "▁changed",
        -9.571738342414656
      ],
      [
        "tle",
        -9.572295326599573
      ],
      [
        "78",
        -9.57342089729999
      ],
      [
        "▁numer",
        -9.573745681044718
      ],
      [
        "▁Port",
        -9.574122478424966
      ],
      [
        "▁allowed",
        -9.574358837422034
      ],
      [
        ".5",
        -9.574394624053983
      ],
      [
        "▁Ye",
        -9.574781723953665
      ],
      [
        "ris",
        -9.574865268245192
      ],
      [
        "87",
        -9.576047478292608
      ],
      [
        "86",
        -9.576113114694245
      ],
      [
        "▁sound",
        -9.5764678326392
      ],
      [
        "▁studies",
        -9.576815433700125
      ],
      [
        "light",
        -9.577518979216128
      ],
      [
        "▁food",
        -9.57876027754991
      ],
      [
        "▁1972",
        -9.580638085889651
      ],
      [
        "▁plan",
        -9.581686504981464
      ],
      [
        "▁significant",
        -9.582024776141886
      ],
      [
        "▁1979",
        -9.58260674660626
      ],
      [
        "62",
        -9.582758575468455
      ],
      [
        "nny",
        -9.582935243431477
      ],
      [
        "ments",
        -9.583001804951778
      ],
      [
        "▁personal",
        -9.583010645157506
      ],
      [
        "ever",
        -9.583037137525
      ],
      [
        "▁clear",
        -9.583945312980845
      ],
      [
        "▁traditional",
        -9.584056394572317
      ],
      [
        "gon",
        -9.584322680921952
      ],
      [
        "▁Valley",
        -9.585170932203154
      ],
      [
        "61",
        -9.58536716512138
      ],
      [
        "77",
        -9.585373618428433
      ],
      [
        "и",
        -9.58718297234441
      ],
      [
        "ple",
        -9.588499050168917
      ],
      [
        "▁ended",
        -9.588956308895206
      ],
      [
        "▁But",
        -9.589221625703118
      ],
      [
        "▁Edward",
        -9.59110773658931
      ],
      [
        "▁taking",
        -9.59158734745648
      ],
      [
        "▁links\n\n",
        -9.591710647033658
      ],
      [
        "▁runs",
        -9.591906534552336
      ],
      [
        "▁increase",
        -9.592197354023618
      ],
      [
        "head",
        -9.593100066690402
      ],
      [
        "▁launched",
        -9.59477088925297
      ],
      [
        "▁below",
        -9.594969492963932
      ],
      [
        "▁approximately",
        -9.59522483047873
      ],
      [
        "▁Frank",
        -9.595578492247457
      ],
      [
        "▁Cross",
        -9.59626742601853
      ],
      [
        "▁manager",
        -9.597757958273238
      ],
      [
        "▁review",
        -9.597867384241356
      ],
      [
        "eng",
        -9.59804663447583
      ],
      [
        "63",
        -9.59808488044639
      ],
      [
        "76",
        -9.59817060457754
      ],
      [
        "▁Home",
        -9.598732672914796
      ],
      [
        "\")",
        -9.5991648096032
      ],
      [
        "lam",
        -9.599335950765736
      ],
      [
        "▁according",
        -9.59947620414111
      ],
      [
        "uch",
        -9.6010058155652
      ],
      [
        "▁staff",
        -9.601072521219772
      ],
      [
        "▁Bill",
        -9.601656075300262
      ],
      [
        "▁create",
        -9.60203889512245
      ],
      [
        "▁influence",
        -9.60241123264342
      ],
      [
        "%",
        -9.602488195594203
      ],
      [
        "▁itself",
        -9.602689857238673
      ],
      [
        "▁Pat",
        -9.60278627055365
      ],
      [
        "▁Young",
        -9.602948976387234
      ],
      [
        "▁systems",
        -9.602971741421072
      ],
      [
        "▁matches",
        -9.6034698542357
      ],
      [
        "▁Inter",
        -9.603847147971647
      ],
      [
        "▁standard",
        -9.603868934711004
      ],
      [
        "▁1976",
        -9.60406373201937
      ],
      [
        "▁officer",
        -9.604221021978352
      ],
      [
        "▁Han",
        -9.604595234997
      ],
      [
        "des",
        -9.60469039481024
      ],
      [
        "▁F.C.",
        -9.604865128710404
      ],
      [
        "ban",
        -9.60597401871562
      ],
      [
        "serv",
        -9.60654769847035
      ],
      [
        "▁future",
        -9.606558565644182
      ],
      [
        "07",
        -9.607452659430962
      ],
      [
        "▁complex",
        -9.607977248663303
      ],
      [
        "84",
        -9.608183049247533
      ],
      [
        "▁goals",
        -9.608244891904564
      ],
      [
        "▁Ser",
        -9.60890463205644
      ],
      [
        "72",
        -9.609097684904718
      ],
      [
        "▁Vo",
        -9.60941575664573
      ],
      [
        "▁1970",
        -9.609752417614091
      ],
      [
        "▁operations",
        -9.609980395106614
      ],
      [
        "▁singles",
        -9.6104115404052
      ],
      [
        "▁read",
        -9.612325892654829
      ],
      [
        "▁cases",
        -9.612364335323242
      ],
      [
        "mat",
        -9.612404470656696
      ],
      [
        "▁woman",
        -9.61243215114879
      ],
      [
        "▁Radio",
        -9.612713138450948
      ],
      [
        "▁1981",
        -9.613058691968217
      ],
      [
        "▁owned",
        -9.613347700885658
      ],
      [
        "▁Civil",
        -9.61349239841202
      ],
      [
        "ria",
        -9.61354779096365
      ],
      [
        "▁my",
        -9.6145296075975
      ],
      [
        "▁Times",
        -9.615027463285102
      ],
      [
        "65",
        -9.615420072583628
      ],
      [
        "mor",
        -9.615597106846952
      ],
      [
        "dic",
        -9.61594920099863
      ],
      [
        "55",
        -9.616793346772978
      ],
      [
        "▁Gold",
        -9.618180776936036
      ],
      [
        "▁army",
        -9.618330203494642
      ],
      [
        "▁little",
        -9.618912947597474
      ],
      [
        "▁low",
        -9.619105609955634
      ],
      [
        "▁Governor",
        -9.619139854128983
      ],
      [
        "\nRe",
        -9.61962487209374
      ],
      [
        "96",
        -9.619640999147745
      ],
      [
        "▁label",
        -9.619994762049648
      ],
      [
        "▁opening",
        -9.62019060093085
      ],
      [
        "▁\"I",
        -9.620404323801663
      ],
      [
        "+",
        -9.620491932950936
      ],
      [
        "av",
        -9.621022546439454
      ],
      [
        "▁Mal",
        -9.62131817997004
      ],
      [
        "▁student",
        -9.621604666052706
      ],
      [
        "ica",
        -9.621772908005813
      ],
      [
        "ore",
        -9.621963023268217
      ],
      [
        "ux",
        -9.622450466314802
      ],
      [
        "▁Queen",
        -9.622668168979558
      ],
      [
        "▁civil",
        -9.6229936576286
      ],
      [
        "▁multiple",
        -9.623135346934868
      ],
      [
        "▁soon",
        -9.623791674140074
      ],
      [
        "▁chief",
        -9.624323102710688
      ],
      [
        "▁higher",
        -9.624338066933792
      ],
      [
        "▁required",
        -9.62464651791219
      ],
      [
        "▁Britain",
        -9.625431154606456
      ],
      [
        "my",
        -9.625595192140498
      ],
      [
        "▁senior",
        -9.625993911864391
      ],
      [
        "▁Cu",
        -9.626293976723328
      ],
      [
        "▁appearance",
        -9.626462661477987
      ],
      [
        "▁(G",
        -9.626747453166317
      ],
      [
        "ers,",
        -9.62733052895348
      ],
      [
        "▁Commission",
        -9.627507984304334
      ],
      [
        "79",
        -9.628600736661417
      ],
      [
        "▁Cre",
        -9.629001184126563
      ],
      [
        "▁vocals",
        -9.629064437365187
      ],
      [
        "▁related",
        -9.629493146017992
      ],
      [
        ");",
        -9.630104338701717
      ],
      [
        "▁1968",
        -9.630720406186844
      ],
      [
        "▁award",
        -9.631005934114242
      ],
      [
        "ura",
        -9.631572780925993
      ],
      [
        "▁face",
        -9.632665296074176
      ],
      [
        "▁seasons",
        -9.632878631885784
      ],
      [
        "▁test",
        -9.632902890857093
      ],
      [
        "▁prior",
        -9.63316595423762
      ],
      [
        "ida",
        -9.633512141362877
      ],
      [
        "▁money",
        -9.633625829935902
      ],
      [
        "▁Fi",
        -9.633931709100812
      ],
      [
        "▁medal",
        -9.634175230299268
      ],
      [
        "▁Southern",
        -9.635151417702826
      ],
      [
        "▁Democratic",
        -9.635454424821576
      ],
      [
        "▁1978",
        -9.635562577311482
      ],
      [
        "68",
        -9.636150628536742
      ],
      [
        "▁Ohio",
        -9.636267070491742
      ],
      [
        "▁Big",
        -9.636521981272152
      ],
      [
        "▁Asia",
        -9.636568232984526
      ],
      [
        "67",
        -9.63676823413433
      ],
      [
        "▁color",
        -9.637698023363974
      ],
      [
        "▁(E",
        -9.637743748514923
      ],
      [
        "hal",
        -9.637817835685627
      ],
      [
        "\n\nReferences\n\n",
        -9.637977307073736
      ],
      [
        "ral",
        -9.638189234954394
      ],
      [
        "47",
        -9.638251863704454
      ],
      [
        "kh",
        -9.638322406783592
      ],
      [
        "▁1974",
        -9.638739726953222
      ],
      [
        "▁need",
        -9.63975352209162
      ],
      [
        "\n\nB",
        -9.640033379930658
      ],
      [
        "▁(F",
        -9.640374849211488
      ],
      [
        "▁1945",
        -9.640688597527916
      ],
      [
        "var",
        -9.640789186928874
      ],
      [
        "):",
        -9.640829579688267
      ],
      [
        "▁Michigan",
        -9.640995746883506
      ],
      [
        "▁Mer",
        -9.6411701911004
      ],
      [
        "ug",
        -9.64164839916539
      ],
      [
        "▁Pen",
        -9.642314080006098
      ],
      [
        "▁ever",
        -9.642634706073228
      ],
      [
        "▁III",
        -9.642705776575976
      ],
      [
        "\n\nC",
        -9.64280218757172
      ],
      [
        "81",
        -9.642957623132304
      ],
      [
        "82",
        -9.643785652013417
      ],
      [
        "39",
        -9.644056913679703
      ],
      [
        "83",
        -9.644789343387068
      ],
      [
        "tch",
        -9.646593284470969
      ],
      [
        "▁pass",
        -9.646980239285282
      ],
      [
        "ual",
        -9.64766123366736
      ],
      [
        "▁property",
        -9.647737380652991
      ],
      [
        "▁bank",
        -9.64787539408667
      ],
      [
        "-M",
        -9.648313903711829
      ],
      [
        "▁Poland",
        -9.648534370853808
      ],
      [
        "man,",
        -9.649085065597609
      ],
      [
        "▁thought",
        -9.649261526579712
      ],
      [
        "▁view",
        -9.649521804243296
      ],
      [
        "74",
        -9.650004059463544
      ],
      [
        "▁Asian",
        -9.650443060693188
      ],
      [
        "▁location",
        -9.650460337835275
      ],
      [
        "▁county",
        -9.650720729606498
      ],
      [
        "▁legal",
        -9.650753275876424
      ],
      [
        "▁means",
        -9.650763718949351
      ],
      [
        "▁C.",
        -9.651656307735378
      ],
      [
        "▁genus",
        -9.65193741154633
      ],
      [
        "▁Ch",
        -9.652794379291784
      ],
      [
        "dar",
        -9.652909723952687
      ],
      [
        "▁1975",
        -9.654139192218535
      ],
      [
        "▁lived",
        -9.654316130073829
      ],
      [
        "▁hospital",
        -9.654745202035574
      ],
      [
        "▁cover",
        -9.655117950022191
      ],
      [
        "▁issues",
        -9.655136422632603
      ],
      [
        "ust",
        -9.65604047373464
      ],
      [
        "rus",
        -9.656902231716115
      ],
      [
        ".\n\nReferences\n\n",
        -9.657094061080988
      ],
      [
        "▁cost",
        -9.658221168680598
      ],
      [
        "92",
        -9.658735181195354
      ],
      [
        "▁Jersey",
        -9.659253029365702
      ],
      [
        "▁interview",
        -9.659996201488672
      ],
      [
        "▁surface",
        -9.660020320662172
      ],
      [
        "additional",
        -9.661261783346095
      ],
      [
        "▁highest",
        -9.66184764005902
      ],
      [
        "▁contains",
        -9.661942595091558
      ],
      [
        "▁Long",
        -9.6620067441215
      ],
      [
        "▁Dutch",
        -9.662015717129623
      ],
      [
        "▁move",
        -9.662138681344384
      ],
      [
        "eau",
        -9.662970118122905
      ],
      [
        "48",
        -9.66329036053652
      ],
      [
        "▁co-",
        -9.664447205498089
      ],
      [
        "▁course",
        -9.664604933682217
      ],
      [
        "▁Most",
        -9.664804024585706
      ],
      [
        "▁\"C",
        -9.665022418252017
      ],
      [
        "▁Ram",
        -9.665364587724603
      ],
      [
        "▁loss",
        -9.665469399908917
      ],
      [
        "▁Republican",
        -9.665696063382295
      ],
      [
        "▁(R",
        -9.666783805925572
      ],
      [
        "▁Gal",
        -9.66737547754498
      ],
      [
        ".\n\nF",
        -9.667476791420995
      ],
      [
        "ign",
        -9.667659881386571
      ],
      [
        "▁certain",
        -9.668369826280925
      ],
      [
        "▁parts",
        -9.668371325451782
      ],
      [
        "▁ab",
        -9.669770896859085
      ],
      [
        "▁subject",
        -9.670131685281506
      ],
      [
        "sur",
        -9.670432169272807
      ],
      [
        "▁super",
        -9.671014998712138
      ],
      [
        "▁1977",
        -9.672068481400276
      ],
      [
        "▁3,",
        -9.672267807271854
      ],
      [
        "▁broadcast",
        -9.672388984964735
      ],
      [
        "▁Open",
        -9.672419786340924
      ],
      [
        "▁sometimes",
        -9.672713754750742
      ],
      [
        "▁Scotland",
        -9.67294866154592
      ],
      [
        "▁(in",
        -9.673059401791324
      ],
      [
        "▁2nd",
        -9.673270846413024
      ],
      [
        "▁earlier",
        -9.673413324669513
      ],
      [
        "-2",
        -9.673656081118644
      ],
      [
        "▁feature",
        -9.67366375978978
      ],
      [
        "▁associated",
        -9.674062245191234
      ],
      [
        "▁running",
        -9.674389965757715
      ],
      [
        "ag",
        -9.674445866542635
      ],
      [
        "▁Theatre",
        -9.67475668166695
      ],
      [
        "▁Pacific",
        -9.675518609060669
      ],
      [
        "69",
        -9.675703980403972
      ],
      [
        "rat",
        -9.676037339063598
      ],
      [
        "ess",
        -9.677129596473034
      ],
      [
        "▁Ed",
        -9.677729233842026
      ],
      [
        "ale",
        -9.67783975656098
      ],
      [
        "xi",
        -9.678039156511767
      ],
      [
        "ient",
        -9.67851953507064
      ],
      [
        "cade",
        -9.679082370188905
      ],
      [
        "▁material",
        -9.67911931959596
      ],
      [
        "▁report",
        -9.680135107233411
      ],
      [
        "▁1973",
        -9.680349192634738
      ],
      [
        "zz",
        -9.680389416212993
      ],
      [
        "men's",
        -9.680764528837438
      ],
      [
        "▁generally",
        -9.68078570908184
      ],
      [
        "vent",
        -9.680927250346134
      ],
      [
        "qua",
        -9.680963874495184
      ],
      [
        "▁Illinois",
        -9.681570427598896
      ],
      [
        "▁Prince",
        -9.682895363851028
      ],
      [
        "▁Conference",
        -9.682898580233308
      ],
      [
        "\nMembers",
        -9.682915710977769
      ],
      [
        "tel",
        -9.683962782168466
      ],
      [
        "▁issue",
        -9.683974140240656
      ],
      [
        "▁thus",
        -9.683986612481332
      ],
      [
        "▁management",
        -9.684220025098956
      ],
      [
        "▁activities",
        -9.684513951688452
      ],
      [
        "mal",
        -9.684651055921073
      ],
      [
        "▁separate",
        -9.685043878408544
      ],
      [
        "▁vote",
        -9.685155961904192
      ],
      [
        "▁Qu",
        -9.685165948917026
      ],
      [
        "wer",
        -9.68563412032973
      ],
      [
        "▁studied",
        -9.685719396464382
      ],
      [
        "▁Ve",
        -9.685725156969628
      ],
      [
        "oth",
        -9.686011509824128
      ],
      [
        "▁years.",
        -9.686318431239366
      ],
      [
        "work",
        -9.68635992930732
      ],
      [
        "▁entire",
        -9.686665326404748
      ],
      [
        "▁professor",
        -9.686670075203493
      ],
      [
        "▁honor",
        -9.686730956426114
      ],
      [
        "▁1971",
        -9.687543639164508
      ],
      [
        "64",
        -9.6882236330881
      ],
      [
        "▁(1",
        -9.688777371914163
      ],
      [
        "SA",
        -9.688847676360671
      ],
      [
        "AC",
        -9.689149949788412
      ],
      [
        "36",
        -9.690485539706776
      ],
      [
        "▁Time",
        -9.69094489266166
      ],
      [
        "▁editor",
        -9.69138160748921
      ],
      [
        "▁lack",
        -9.691387254534682
      ],
      [
        "\nMa",
        -9.691449676722558
      ],
      [
        "▁entered",
        -9.692209216062444
      ],
      [
        "▁medical",
        -9.69251262052045
      ],
      [
        "-C",
        -9.693095596511062
      ],
      [
        "▁\"M",
        -9.69365865740516
      ],
      [
        "▁H.",
        -9.695236771399935
      ],
      [
        "now",
        -9.695816330585217
      ],
      [
        "▁FC",
        -9.69693574755662
      ],
      [
        "▁victory",
        -9.697300130041729
      ],
      [
        "75",
        -9.697311274574565
      ],
      [
        "▁husband",
        -9.697397714011162
      ],
      [
        "▁Middle",
        -9.697460752035482
      ],
      [
        "▁Places",
        -9.697477698650829
      ],
      [
        "▁selected",
        -9.698085982889577
      ],
      [
        "▁engine",
        -9.698969668913955
      ],
      [
        "stan",
        -9.69908425026394
      ],
      [
        "▁Library",
        -9.69941341261354
      ],
      [
        "▁response",
        -9.699796151784552
      ],
      [
        "\nAn",
        -9.700619770147226
      ],
      [
        "\nEnglish",
        -9.701584320263846
      ],
      [
        "71",
        -9.701659383210416
      ],
      [
        "▁hard",
        -9.701740194967488
      ],
      [
        "▁retired",
        -9.70280289917778
      ],
      [
        "▁S.",
        -9.703312071017852
      ],
      [
        "▁fl",
        -9.703469468741222
      ],
      [
        "▁Massachusetts",
        -9.703495333241657
      ],
      [
        "▁1969",
        -9.704466304036403
      ],
      [
        "▁origin",
        -9.70465833123632
      ],
      [
        "▁Water",
        -9.704705095579412
      ],
      [
        "▁fight",
        -9.705935021499894
      ],
      [
        "59",
        -9.706820304754707
      ],
      [
        "king",
        -9.70757760898084
      ],
      [
        "vel",
        -9.707608443708658
      ],
      [
        "▁Health",
        -9.70765557843266
      ],
      [
        "-D",
        -9.708091506083653
      ],
      [
        "▁already",
        -9.708125316937972
      ],
      [
        "bel",
        -9.708283674019754
      ],
      [
        "▁increased",
        -9.708408796859189
      ],
      [
        "▁Bel",
        -9.708443175839385
      ],
      [
        "▁\"L",
        -9.70885524518988
      ],
      [
        "▁train",
        -9.709371564338609
      ],
      [
        "▁flow",
        -9.709691776507738
      ],
      [
        "▁camp",
        -9.709918911676526
      ],
      [
        "06",
        -9.709971818899536
      ],
      [
        "73",
        -9.710098376924796
      ],
      [
        "▁Ol",
        -9.710179964840444
      ],
      [
        "▁Book",
        -9.710381483523356
      ],
      [
        "44",
        -9.710420824820394
      ],
      [
        "▁structures",
        -9.71250767076995
      ],
      [
        "ith",
        -9.712886597253997
      ],
      [
        "▁ships",
        -9.713277073877894
      ],
      [
        "becoming",
        -9.713429679084552
      ],
      [
        "stone",
        -9.713722546882414
      ],
      [
        "-L",
        -9.71384199230052
      ],
      [
        "▁western",
        -9.715466080835592
      ],
      [
        "▁season.",
        -9.715931206798194
      ],
      [
        "▁relative",
        -9.7162191066942
      ],
      [
        "▁tax",
        -9.716816641408244
      ],
      [
        "ull",
        -9.71751349631472
      ],
      [
        "▁Georgia",
        -9.717937178086686
      ],
      [
        "▁Blue",
        -9.717987656167056
      ],
      [
        "ich",
        -9.718396291806014
      ],
      [
        "▁annual",
        -9.718581414992492
      ],
      [
        "ace",
        -9.718622442460816
      ],
      [
        "ew",
        -9.719610077012296
      ],
      [
        "▁complete",
        -9.71966578020156
      ],
      [
        "part",
        -9.719865270640842
      ],
      [
        "▁(I",
        -9.72029525542694
      ],
      [
        "▁Centre",
        -9.720456408112522
      ],
      [
        "▁re-",
        -9.720657947744982
      ],
      [
        "\nAl",
        -9.721095340720971
      ],
      [
        "lum",
        -9.721145646222006
      ],
      [
        "▁prevent",
        -9.721364263450512
      ],
      [
        "illa",
        -9.721875676774404
      ],
      [
        "▁Kong",
        -9.722885696285813
      ],
      [
        "▁border",
        -9.722992120406555
      ],
      [
        "▁ran",
        -9.723740909320378
      ],
      [
        "57",
        -9.723871578060288
      ],
      [
        "ington",
        -9.724267853135338
      ],
      [
        "▁concept",
        -9.724522107387
      ],
      [
        "▁act",
        -9.724563192029995
      ],
      [
        "▁That",
        -9.725935143372586
      ],
      [
        "▁stop",
        -9.726546109510846
      ],
      [
        "ena",
        -9.726618615603511
      ],
      [
        "▁better",
        -9.726874935676946
      ],
      [
        "▁Far",
        -9.72721330220584
      ],
      [
        "gin",
        -9.727511256700552
      ],
      [
        "▁cut",
        -9.72765498440934
      ],
      [
        "bot",
        -9.727869285683353
      ],
      [
        "ju",
        -9.727923117196628
      ],
      [
        "▁1967",
        -9.728042712190309
      ],
      [
        "kar",
        -9.728158990352169
      ],
      [
        "ants",
        -9.728576408290085
      ],
      [
        "▁3:",
        -9.72874780083922
      ],
      [
        "▁1964",
        -9.729029031653228
      ],
      [
        "▁voice",
        -9.729433599807146
      ],
      [
        "▁Jan",
        -9.72977392651112
      ],
      [
        "▁Under",
        -9.729840819940604
      ],
      [
        "▁noted",
        -9.730305640756804
      ],
      [
        "▁Francisco",
        -9.731215658313062
      ],
      [
        "nie",
        -9.731577131133236
      ],
      [
        "▁relationship",
        -9.731656022679392
      ],
      [
        "▁operated",
        -9.7317494781424
      ],
      [
        "burg",
        -9.7317865721499
      ],
      [
        "ture",
        -9.731865361946316
      ],
      [
        "▁Dr.",
        -9.73219522254452
      ],
      [
        "▁Jones",
        -9.732870950414704
      ],
      [
        "▁pay",
        -9.733046537274207
      ],
      [
        "▁federal",
        -9.733213594805669
      ],
      [
        "win",
        -9.733688007310018
      ],
      [
        "54",
        -9.73393562416092
      ],
      [
        "▁evidence",
        -9.733939811685373
      ],
      [
        "▁Fu",
        -9.73397166961404
      ],
      [
        "▁championship",
        -9.733995015251455
      ],
      [
        "rad",
        -9.734111004043616
      ],
      [
        "38",
        -9.73442757340295
      ],
      [
        "▁majority",
        -9.734675713977872
      ],
      [
        "pper",
        -9.73476795199734
      ],
      [
        "▁Jewish",
        -9.735052934617087
      ],
      [
        "▁Bas",
        -9.735485848191448
      ],
      [
        "▁perform",
        -9.735508305808183
      ],
      [
        "ised",
        -9.736844392159725
      ],
      [
        "▁nine",
        -9.738125591223572
      ],
      [
        "▁account",
        -9.738461028198582
      ],
      [
        "▁Vol",
        -9.73852799070799
      ],
      [
        "▁religious",
        -9.738944053305657
      ],
      [
        "▁meet",
        -9.739037934000445
      ],
      [
        "▁Journal",
        -9.740406021363814
      ],
      [
        ".1",
        -9.741026991916716
      ],
      [
        "\nMar",
        -9.74116183453746
      ],
      [
        "56",
        -9.741397575242214
      ],
      [
        "ola",
        -9.742944638227996
      ],
      [
        "▁Office",
        -9.743801008860723
      ],
      [
        "dge",
        -9.74389908346648
      ],
      [
        "▁competed",
        -9.743989993295438
      ],
      [
        "pet",
        -9.74411949460507
      ],
      [
        "rum",
        -9.744781838593426
      ],
      [
        "ib",
        -9.744940518842188
      ],
      [
        "▁trans",
        -9.74598265434792
      ],
      [
        "gy",
        -9.746011794352256
      ],
      [
        "37",
        -9.746503061643828
      ],
      [
        "▁1960",
        -9.746553719972622
      ],
      [
        "▁Will",
        -9.746705188168592
      ],
      [
        "▁friend",
        -9.74700212232002
      ],
      [
        ".\n\nM",
        -9.747076572415288
      ],
      [
        "▁particular",
        -9.747698210152882
      ],
      [
        "own",
        -9.748426763110452
      ],
      [
        "▁financial",
        -9.748668200233878
      ],
      [
        "och",
        -9.748824171911592
      ],
      [
        "ami",
        -9.748871627449546
      ],
      [
        "tation",
        -9.749031848668643
      ],
      [
        "▁king",
        -9.749192996160906
      ],
      [
        "▁elections",
        -9.74927508641781
      ],
      [
        "▁municipality",
        -9.749985408906458
      ],
      [
        "▁comedy",
        -9.750005006732136
      ],
      [
        "▁Foundation",
        -9.750300420370634
      ],
      [
        "initially",
        -9.751097598948904
      ],
      [
        ".\n\nIt",
        -9.751454347657049
      ],
      [
        "▁give",
        -9.751821821056264
      ],
      [
        "▁Em",
        -9.752294418783244
      ],
      [
        "▁Dis",
        -9.753067892628348
      ],
      [
        "▁Pu",
        -9.753335621500463
      ],
      [
        "▁Night",
        -9.75337762703606
      ],
      [
        "lit",
        -9.753423625853287
      ],
      [
        "▁Mil",
        -9.753759493317151
      ],
      [
        "▁Ste",
        -9.75393004603126
      ],
      [
        "▁approach",
        -9.754135072165145
      ],
      [
        "▁Scottish",
        -9.75433115338231
      ],
      [
        "expatriate",
        -9.754473953440009
      ],
      [
        "▁changes",
        -9.75498019173852
      ],
      [
        "▁text",
        -9.755401343656338
      ],
      [
        "▁Cat",
        -9.755445654440807
      ],
      [
        "try",
        -9.755501617376703
      ],
      [
        "▁executive",
        -9.75559655100602
      ],
      [
        "▁Kar",
        -9.755963982784962
      ],
      [
        "amp",
        -9.75642496220662
      ],
      [
        "▁Para",
        -9.756446868949258
      ],
      [
        "mit",
        -9.756503469880816
      ],
      [
        "▁Jack",
        -9.757004062420345
      ],
      [
        "▁direct",
        -9.757316258292152
      ],
      [
        "▁politicians",
        -9.757398660975069
      ],
      [
        "▁Sta",
        -9.757515669460789
      ],
      [
        "caused",
        -9.758735957282711
      ],
      [
        "▁terms",
        -9.75901370961586
      ],
      [
        "51",
        -9.759176989676437
      ],
      [
        "\n\nT",
        -9.759346860617752
      ],
      [
        "▁engineer",
        -9.759514969720003
      ],
      [
        "▁word",
        -9.759565276352244
      ],
      [
        "▁fa",
        -9.759860894000198
      ],
      [
        "ene",
        -9.759889988792647
      ],
      [
        "die",
        -9.760209641329906
      ],
      [
        "uck",
        -9.760847870610997
      ],
      [
        "▁Boston",
        -9.761142888063985
      ],
      [
        "▁recording",
        -9.761511184149883
      ],
      [
        "ates",
        -9.762049545507452
      ],
      [
        "-up",
        -9.76214823025708
      ],
      [
        "arch",
        -9.76221801829658
      ],
      [
        "cen",
        -9.762350269944756
      ],
      [
        "▁university",
        -9.762925936585257
      ],
      [
        "ular",
        -9.764021270699203
      ],
      [
        "▁serving",
        -9.764148376551187
      ],
      [
        "▁R.",
        -9.764573379902677
      ],
      [
        "▁del",
        -9.764626736319457
      ],
      [
        "fu",
        -9.764789947904484
      ],
      [
        "52",
        -9.76483591875386
      ],
      [
        "▁hockey",
        -9.765010745961815
      ],
      [
        "▁Eastern",
        -9.765626896952831
      ],
      [
        "bal",
        -9.765847482377154
      ],
      [
        "▁Corps",
        -9.76612956412704
      ],
      [
        "▁Oxford",
        -9.766160446461935
      ],
      [
        "▁limited",
        -9.766229685414077
      ],
      [
        "MA",
        -9.766240393959558
      ],
      [
        "▁table",
        -9.766496768688562
      ],
      [
        "▁Columbia",
        -9.76665360788636
      ],
      [
        "▁self-",
        -9.766923706147171
      ],
      [
        "▁produce",
        -9.766977683075744
      ],
      [
        "53",
        -9.767231578534924
      ],
      [
        "▁income",
        -9.767544108328078
      ],
      [
        "▁W.",
        -9.76891090288112
      ],
      [
        "ili",
        -9.768934667679138
      ],
      [
        "46",
        -9.76906600425356
      ],
      [
        "gal",
        -9.769183762851725
      ],
      [
        "▁Creek",
        -9.76983789748724
      ],
      [
        "▁Field",
        -9.769966545646136
      ],
      [
        "▁Va",
        -9.770673739888718
      ],
      [
        "▁Free",
        -9.77074319315062
      ],
      [
        "▁#",
        -9.771224830780708
      ],
      [
        "-H",
        -9.77169597023045
      ],
      [
        "▁(W",
        -9.771947497072835
      ],
      [
        "▁represent",
        -9.772016802831716
      ],
      [
        "▁\"P",
        -9.772405499525831
      ],
      [
        "▁listing",
        -9.77254427737175
      ],
      [
        "▁status",
        -9.772617497543578
      ],
      [
        "▁computer",
        -9.772885245717548
      ],
      [
        "▁Station",
        -9.773131832168191
      ],
      [
        "▁Op",
        -9.774002378347712
      ],
      [
        "▁meeting",
        -9.774049353291153
      ],
      [
        "ret",
        -9.774095336585006
      ],
      [
        "▁passed",
        -9.77454687073797
      ],
      [
        "pin",
        -9.775279541942446
      ],
      [
        "▁communities",
        -9.776014905881327
      ],
      [
        "ado",
        -9.77667381360178
      ],
      [
        "▁visit",
        -9.776701542925784
      ],
      [
        "▁Up",
        -9.776741022147132
      ],
      [
        "▁actors",
        -9.776841884155054
      ],
      [
        "▁Carl",
        -9.777066546613108
      ],
      [
        "▁Major",
        -9.777391314377155
      ],
      [
        "ky",
        -9.778095635456175
      ],
      [
        "▁speed",
        -9.778143368608456
      ],
      [
        "▁coast",
        -9.778188537488669
      ],
      [
        "▁Hi",
        -9.77819648049821
      ],
      [
        "▁imp",
        -9.778629199444175
      ],
      [
        "cus",
        -9.778740637523574
      ],
      [
        "-P",
        -9.779711473781008
      ],
      [
        "▁1965",
        -9.7797895604475
      ],
      [
        "▁wood",
        -9.779973959822362
      ],
      [
        "▁example",
        -9.78028531700006
      ],
      [
        "▁famous",
        -9.780864448950128
      ],
      [
        "ng",
        -9.781896934442363
      ],
      [
        "▁policy",
        -9.78241654420551
      ],
      [
        "water",
        -9.783439730892184
      ],
      [
        "top",
        -9.78377741493867
      ],
      [
        "ident",
        -9.783974383576664
      ],
      [
        "▁key",
        -9.784674491938755
      ],
      [
        "ress",
        -9.784713146666007
      ],
      [
        "▁function",
        -9.785069867518628
      ],
      [
        "ute",
        -9.78567712810829
      ],
      [
        ".2",
        -9.78590123892326
      ],
      [
        "▁native",
        -9.78593016827235
      ],
      [
        "women's",
        -9.785943715283956
      ],
      [
        "▁1966",
        -9.786151464548478
      ],
      [
        "▁names",
        -9.786458991246985
      ],
      [
        "burn",
        -9.786660486386497
      ],
      [
        "▁hours",
        -9.786770247987471
      ],
      [
        "▁council",
        -9.786852913815837
      ],
      [
        "▁minor",
        -9.787806831963715
      ],
      [
        "particularly",
        -9.787814223966809
      ],
      [
        "▁care",
        -9.788306548770478
      ],
      [
        "▁farm",
        -9.7890149697558
      ],
      [
        "right",
        -9.789281204144393
      ],
      [
        "▁claimed",
        -9.789497582818171
      ],
      [
        "▁effect",
        -9.789577494574916
      ],
      [
        "43",
        -9.790462792061204
      ],
      [
        "▁Johnson",
        -9.79223019189658
      ],
      [
        "▁Latin",
        -9.792481219801584
      ],
      [
        "▁minutes",
        -9.792839643205856
      ],
      [
        "s\n\n",
        -9.793273296090405
      ],
      [
        "▁Coast",
        -9.793313109727194
      ],
      [
        "ska",
        -9.79335205870746
      ],
      [
        "hor",
        -9.793681481889807
      ],
      [
        "▁remains",
        -9.793702208080822
      ],
      [
        "▁Pol",
        -9.795069531911745
      ],
      [
        "Following",
        -9.79511255581074
      ],
      [
        "▁chart",
        -9.79521985575231
      ],
      [
        "▁(K",
        -9.795704149601908
      ],
      [
        "referred",
        -9.795856495495048
      ],
      [
        "▁Show",
        -9.796193533703216
      ],
      [
        "\"\n|",
        -9.796231864240248
      ],
      [
        "▁com",
        -9.796387791716366
      ],
      [
        "▁programs",
        -9.796460496638788
      ],
      [
        "▁shown",
        -9.796814419764658
      ],
      [
        "▁murder",
        -9.7969122271201
      ],
      [
        "▁block",
        -9.797092007062131
      ],
      [
        "▁rate",
        -9.797097197905362
      ],
      [
        "▁marriage",
        -9.797159604929924
      ],
      [
        "▁Ber",
        -9.797422305097456
      ],
      [
        "s;",
        -9.797776894985985
      ],
      [
        "▁going",
        -9.79792391294923
      ],
      [
        "ball",
        -9.79807989093848
      ],
      [
        "▁1944",
        -9.799043438008038
      ],
      [
        "▁star",
        -9.799204941103657
      ],
      [
        "▁Its",
        -9.80042605483244
      ],
      [
        "▁bass",
        -9.800500941333766
      ],
      [
        "▁supported",
        -9.800848319171102
      ],
      [
        "ray",
        -9.801126303538464
      ],
      [
        "▁energy",
        -9.802539740324422
      ],
      [
        "▁Berlin",
        -9.802968961449409
      ],
      [
        "▁mostly",
        -9.803073235619744
      ],
      [
        "▁Cla",
        -9.803123026262371
      ],
      [
        "▁4,",
        -9.803160777345678
      ],
      [
        "▁Sc",
        -9.803405291183267
      ],
      [
        "▁join",
        -9.803524759703228
      ],
      [
        "▁subsequently",
        -9.803980003134098
      ],
      [
        "▁Scott",
        -9.8047302850299
      ],
      [
        "▁call",
        -9.804786916771576
      ],
      [
        "▁raised",
        -9.805041939366
      ],
      [
        "▁foreign",
        -9.805384850171546
      ],
      [
        "▁CD",
        -9.806169291225332
      ],
      [
        "▁technology",
        -9.806206857903934
      ],
      [
        "▁peak",
        -9.806500082740744
      ],
      [
        "not",
        -9.80656423623084
      ],
      [
        "▁presented",
        -9.807010854616951
      ],
      [
        "▁uses",
        -9.807160086690295
      ],
      [
        "▁Williams",
        -9.807385316523252
      ],
      [
        "▁historical",
        -9.807583285152994
      ],
      [
        "▁overall",
        -9.808001331033688
      ],
      [
        "▁Light",
        -9.808653192085368
      ],
      [
        "composed",
        -9.808665063071162
      ],
      [
        "▁meaning",
        -9.808705392982574
      ],
      [
        "\n\nP",
        -9.80872786053055
      ],
      [
        "struct",
        -9.809475312144317
      ],
      [
        "lav",
        -9.80969093586273
      ],
      [
        "▁source",
        -9.80977828229995
      ],
      [
        "ste",
        -9.80993231779008
      ],
      [
        "▁Mel",
        -9.8101274131744
      ],
      [
        "ery",
        -9.81012860685796
      ],
      [
        "▁Hospital",
        -9.810347171716527
      ],
      [
        "more",
        -9.810500530841958
      ],
      [
        "▁transport",
        -9.810515850540462
      ],
      [
        "▁Cho",
        -9.810863236433995
      ],
      [
        "earned",
        -9.81099887992504
      ],
      [
        "▁month",
        -9.811017743550329
      ],
      [
        "▁McC",
        -9.811369275636162
      ],
      [
        "▁Good",
        -9.812617145049083
      ],
      [
        "▁academic",
        -9.812691311379602
      ],
      [
        "▁Jean",
        -9.812716456903429
      ],
      [
        "▁descent",
        -9.813486043133771
      ],
      [
        "▁Post",
        -9.814303729001502
      ],
      [
        "▁theory",
        -9.814472450816089
      ],
      [
        "▁Polish",
        -9.814635560262609
      ],
      [
        "\nH",
        -9.81498106671625
      ],
      [
        "ire",
        -9.815384001913896
      ],
      [
        "\nNational",
        -9.815679503848644
      ],
      [
        "▁middle",
        -9.81579340836608
      ],
      [
        "▁Regiment",
        -9.816377420683128
      ],
      [
        "▁Women's",
        -9.816417468885684
      ],
      [
        "featuring",
        -9.8169384776256
      ],
      [
        "CC",
        -9.817728047345293
      ],
      [
        "▁Israel",
        -9.818058582625712
      ],
      [
        "▁personnel",
        -9.818351356600669
      ],
      [
        "▁reading",
        -9.818768858232623
      ],
      [
        "▁longer",
        -9.81881140984246
      ],
      [
        "▁pick",
        -9.818878951960032
      ],
      [
        "▁(2",
        -9.819303844282686
      ],
      [
        "▁firm",
        -9.819329477219512
      ],
      [
        "▁arch",
        -9.819401202304473
      ],
      [
        "ration",
        -9.820049013002684
      ],
      [
        "▁officers",
        -9.820305907859064
      ],
      [
        "▁Ban",
        -9.820521681565886
      ],
      [
        "▁regional",
        -9.820661743813965
      ],
      [
        "▁Dar",
        -9.821003839760785
      ],
      [
        "▁port",
        -9.82111292615298
      ],
      [
        "▁value",
        -9.82329765736437
      ],
      [
        "ition",
        -9.823531390305114
      ],
      [
        "mun",
        -9.823857678212104
      ],
      [
        "▁Tro",
        -9.823976063094278
      ],
      [
        "▁Out",
        -9.824172903059438
      ],
      [
        "▁Olympic",
        -9.824300482079934
      ],
      [
        "▁tell",
        -9.82481191143428
      ],
      [
        "▁Alexander",
        -9.825071814158912
      ],
      [
        "-century",
        -9.825253209610016
      ],
      [
        "▁Maria",
        -9.825339091140211
      ],
      [
        "▁E.",
        -9.825575151804811
      ],
      [
        "▁box",
        -9.825834963814236
      ],
      [
        "las",
        -9.82658685571428
      ],
      [
        ".\n\nRe",
        -9.826728628776468
      ],
      [
        "▁Final",
        -9.826870483332533
      ],
      [
        "ets",
        -9.828167418717957
      ],
      [
        "kan",
        -9.8281773449209
      ],
      [
        "ement",
        -9.828206288359354
      ],
      [
        "▁flight",
        -9.828361466290094
      ],
      [
        "▁cause",
        -9.828813900362745
      ],
      [
        "▁Senate",
        -9.829235769697933
      ],
      [
        "iya",
        -9.829441303424709
      ],
      [
        "▁Ash",
        -9.829565792998098
      ],
      [
        "▁Tre",
        -9.829905169425258
      ],
      [
        "▁Hong",
        -9.82995272672454
      ],
      [
        "▁appears",
        -9.830692367243342
      ],
      [
        "s\nAmerican",
        -9.830720453431674
      ],
      [
        "▁movie",
        -9.830746227207504
      ],
      [
        "▁clubs",
        -9.830894134628863
      ],
      [
        "▁amount",
        -9.830952286248944
      ],
      [
        "32",
        -9.831245488839183
      ],
      [
        "▁Bridge",
        -9.831632921946351
      ],
      [
        "▁Sh",
        -9.832491760511427
      ],
      [
        "mil",
        -9.832996981580552
      ],
      [
        "▁larger",
        -9.833384981660112
      ],
      [
        "dia",
        -9.834126321096782
      ],
      [
        "▁Victoria",
        -9.834630406691204
      ],
      [
        "mes",
        -9.835525386864113
      ],
      [
        "▁association",
        -9.83620377296673
      ],
      [
        "\nNew",
        -9.836304158948847
      ],
      [
        "▁\"T",
        -9.83656958598196
      ],
      [
        "ston",
        -9.83673925627564
      ],
      [
        "▁Official",
        -9.837071042441815
      ],
      [
        "▁room",
        -9.837203928663271
      ],
      [
        "thi",
        -9.837349816606825
      ],
      [
        "▁Press",
        -9.837695661261426
      ],
      [
        "▁failed",
        -9.8378524331626
      ],
      [
        "▁Premier",
        -9.838642186121238
      ],
      [
        ")\n\n",
        -9.838742990789727
      ],
      [
        "▁leaving",
        -9.839313744738744
      ],
      [
        "▁actress",
        -9.839355076826708
      ],
      [
        "▁quarter",
        -9.839952469283938
      ],
      [
        "▁Fo",
        -9.84030203813468
      ],
      [
        "▁Top",
        -9.841134390561557
      ],
      [
        "\nL",
        -9.84115154637558
      ],
      [
        "\nYear",
        -9.841335517977932
      ],
      [
        "old",
        -9.841609933320813
      ],
      [
        "▁seem",
        -9.84202297900288
      ],
      [
        "nda",
        -9.842947050947297
      ],
      [
        "forced",
        -9.84315187943589
      ],
      [
        "▁crew",
        -9.843286618974844
      ],
      [
        "▁square",
        -9.843305437184124
      ],
      [
        "hat",
        -9.843490888958843
      ],
      [
        "▁believed",
        -9.843886448161289
      ],
      [
        "char",
        -9.844263088529685
      ],
      [
        "▁parents",
        -9.84469216242873
      ],
      [
        "▁code",
        -9.844809579700712
      ],
      [
        "▁Bell",
        -9.84497704207036
      ],
      [
        "▁acquired",
        -9.84529776468504
      ],
      [
        "\nBritish",
        -9.845320157246915
      ],
      [
        ".\n\nE",
        -9.845874316332592
      ],
      [
        "▁themselves",
        -9.846180159309146
      ],
      [
        "bri",
        -9.84625329753547
      ],
      [
        "vest",
        -9.84676758656176
      ],
      [
        "▁Secretary",
        -9.846935435600685
      ],
      [
        "law",
        -9.847734414248311
      ],
      [
        "▁Little",
        -9.84788804230932
      ],
      [
        "▁Val",
        -9.847963762110556
      ],
      [
        "▁Mus",
        -9.848063215551347
      ],
      [
        "nce",
        -9.848087623474845
      ],
      [
        "▁Mill",
        -9.848177043929836
      ],
      [
        "▁Later",
        -9.84878573085211
      ],
      [
        "▁Earth",
        -9.84897188666965
      ],
      [
        "33",
        -9.849057046439608
      ],
      [
        "▁got",
        -9.84932837948652
      ],
      [
        "ule",
        -9.849517065106182
      ],
      [
        "▁Mag",
        -9.850390713652144
      ],
      [
        "▁Christ",
        -9.851247777703952
      ],
      [
        "▁bus",
        -9.851436849243484
      ],
      [
        "▁winner",
        -9.852108452575468
      ],
      [
        "rac",
        -9.852518892802149
      ],
      [
        "matic",
        -9.85287920007296
      ],
      [
        "ble",
        -9.852969606516774
      ],
      [
        "▁gas",
        -9.853403395643106
      ],
      [
        ")\n|",
        -9.853641937340862
      ],
      [
        "▁cities",
        -9.854591770386287
      ],
      [
        "▁weeks",
        -9.85563633664046
      ],
      [
        "▁faculty",
        -9.85579705795612
      ],
      [
        "▁machine",
        -9.856702131425836
      ],
      [
        "▁Korea",
        -9.85734096418623
      ],
      [
        "▁im",
        -9.857736772890927
      ],
      [
        "▁troops",
        -9.858105349949088
      ],
      [
        "tori",
        -9.858390028283337
      ],
      [
        "▁ob",
        -9.858545750182204
      ],
      [
        "dal",
        -9.858725453100607
      ],
      [
        "▁remaining",
        -9.858743592230896
      ],
      [
        "ree",
        -9.859168129045877
      ],
      [
        "los",
        -9.859667996292378
      ],
      [
        "▁carried",
        -9.85995870687473
      ],
      [
        "▁Jr.",
        -9.860148756395176
      ],
      [
        "hen",
        -9.86140877238368
      ],
      [
        "▁example,",
        -9.861546881590131
      ],
      [
        "▁appearances",
        -9.86273658117195
      ],
      [
        "\n\nM",
        -9.863125615005886
      ],
      [
        "▁1963",
        -9.863495485869564
      ],
      [
        "▁potential",
        -9.863515191764796
      ],
      [
        "bro",
        -9.863532166013826
      ],
      [
        "▁para",
        -9.863688189616765
      ],
      [
        "s.\n",
        -9.863952960737771
      ],
      [
        "▁1962",
        -9.864331804279129
      ],
      [
        "▁youth",
        -9.864667608463035
      ],
      [
        "▁(3",
        -9.865162101255972
      ],
      [
        "ula",
        -9.865199335470868
      ],
      [
        "о",
        -9.865213291125537
      ],
      [
        "▁Daniel",
        -9.865979665573532
      ],
      [
        "▁news",
        -9.86607695197674
      ],
      [
        "pre",
        -9.86635559408798
      ],
      [
        "▁experience",
        -9.866641981663417
      ],
      [
        "▁Rome",
        -9.866925856561094
      ],
      [
        "▁If",
        -9.867338171485247
      ],
      [
        "▁article",
        -9.867614158057195
      ],
      [
        "▁Development",
        -9.868720523408212
      ],
      [
        "rent",
        -9.868772870578326
      ],
      [
        "avi",
        -9.868790239729368
      ],
      [
        "▁oil",
        -9.869518727619337
      ],
      [
        "▁offered",
        -9.869618208061764
      ],
      [
        "▁newspaper",
        -9.86964401162221
      ],
      [
        "▁look",
        -9.870133717923304
      ],
      [
        "tern",
        -9.870322066625
      ],
      [
        "▁Police",
        -9.870743354533362
      ],
      [
        "▁Game",
        -9.871119776809108
      ],
      [
        "▁society",
        -9.871249128998825
      ],
      [
        "▁Jose",
        -9.871288238720958
      ],
      [
        "▁mo",
        -9.87131154782606
      ],
      [
        "▁heavy",
        -9.871387416342538
      ],
      [
        "\nDe",
        -9.87170730219273
      ],
      [
        "▁province",
        -9.872174945129872
      ],
      [
        "▁1942",
        -9.872490109766208
      ],
      [
        "▁Jackson",
        -9.874047465121976
      ],
      [
        "▁baseball",
        -9.874072872607329
      ],
      [
        "vers",
        -9.874721552595071
      ],
      [
        "▁operation",
        -9.875773577662407
      ],
      [
        "▁Joe",
        -9.876008488797304
      ],
      [
        "unk",
        -9.876242990986652
      ],
      [
        "▁latter",
        -9.876617515003836
      ],
      [
        "oli",
        -9.876715099927935
      ],
      [
        "▁Andrew",
        -9.876916763792822
      ],
      [
        "▁always",
        -9.87715647419198
      ],
      [
        "▁mis",
        -9.87742709202868
      ],
      [
        "▁Band",
        -9.87761156605605
      ],
      [
        "▁proposed",
        -9.878196815183507
      ],
      [
        "ott",
        -9.878216711302947
      ],
      [
        "▁today",
        -9.87841180515825
      ],
      [
        "ature",
        -9.87861522448501
      ],
      [
        "34",
        -9.879300395317404
      ],
      [
        "▁variety",
        -9.879445733489993
      ],
      [
        "▁se",
        -9.87952091668109
      ],
      [
        "cker",
        -9.879840028898103
      ],
      [
        "ero",
        -9.880235911276229
      ],
      [
        "arm",
        -9.88052242761206
      ],
      [
        "▁Justice",
        -9.88052629363708
      ],
      [
        "ole",
        -9.880891318074402
      ],
      [
        "▁promoted",
        -9.881190093649751
      ],
      [
        "▁Korean",
        -9.88204148613005
      ],
      [
        "mus",
        -9.88222356069813
      ],
      [
        "▁comp",
        -9.882505129866136
      ],
      [
        "▁lines",
        -9.883025776204422
      ],
      [
        "▁metal",
        -9.883151924936795
      ],
      [
        "ese",
        -9.883399173619738
      ],
      [
        "▁organizations",
        -9.883617581288846
      ],
      [
        "▁awards",
        -9.883629800267949
      ],
      [
        "▁Prize",
        -9.883655252244472
      ],
      [
        "▁Special",
        -9.883992723414735
      ],
      [
        "uri",
        -9.884637179064562
      ],
      [
        "▁floor",
        -9.8847616880268
      ],
      [
        "-G",
        -9.885066843937771
      ],
      [
        ".\"\n",
        -9.885212932522752
      ],
      [
        "zy",
        -9.886287286603224
      ],
      [
        "▁Th",
        -9.8870667681183
      ],
      [
        "▁assistant",
        -9.88786438543596
      ],
      [
        "▁Ly",
        -9.888251083741425
      ],
      [
        "▁Kan",
        -9.888355935616916
      ],
      [
        "▁blue",
        -9.88851370080879
      ],
      [
        "▁Boy",
        -9.888749422586503
      ],
      [
        "ele",
        -9.889954438167448
      ],
      [
        "▁try",
        -9.889972396378775
      ],
      [
        "gent",
        -9.890471191505664
      ],
      [
        "ult",
        -9.890654964278871
      ],
      [
        ".\n\nG",
        -9.890683098516776
      ],
      [
        "\nRo",
        -9.891277262024015
      ],
      [
        "AS",
        -9.892176700330744
      ],
      [
        "lock",
        -9.89240297999159
      ],
      [
        "ped",
        -9.892474031392789
      ],
      [
        "▁Shi",
        -9.892549444774447
      ],
      [
        "▁direction",
        -9.892875588739924
      ],
      [
        "mont",
        -9.893171656301336
      ],
      [
        "▁Medal",
        -9.893493145850556
      ],
      [
        "▁bridge",
        -9.893577863783008
      ],
      [
        "▁Os",
        -9.894097527658204
      ],
      [
        "gh",
        -9.894371303450315
      ],
      [
        "▁online",
        -9.89437365037954
      ],
      [
        "▁Sydney",
        -9.895230003164382
      ],
      [
        "▁van",
        -9.895246275900018
      ],
      [
        "▁poor",
        -9.89578082040526
      ],
      [
        "es.",
        -9.896578527151531
      ],
      [
        "▁BBC",
        -9.89667775995107
      ],
      [
        "▁Prime",
        -9.896966290657414
      ],
      [
        "-T",
        -9.897212056832418
      ],
      [
        "▁cultural",
        -9.897461703788183
      ],
      [
        "might",
        -9.897536515192046
      ],
      [
        "\n\nFurther",
        -9.897619977663933
      ],
      [
        "▁Airport",
        -9.898198810170548
      ],
      [
        "6\n|",
        -9.898362221516877
      ],
      [
        "▁specific",
        -9.898576301161436
      ],
      [
        "nia",
        -9.898679910127534
      ],
      [
        "▁$1",
        -9.899781515489776
      ],
      [
        "▁Cam",
        -9.899789717345612
      ],
      [
        "sey",
        -9.899911500054143
      ],
      [
        "\nAssociation",
        -9.899971039520924
      ],
      [
        "▁cell",
        -9.900738629577877
      ],
      [
        "▁brief",
        -9.900780450607432
      ],
      [
        "rick",
        -9.900817975458288
      ],
      [
        "nor",
        -9.901216111432074
      ],
      [
        "vol",
        -9.901229961749785
      ],
      [
        "▁Press,",
        -9.901534300090322
      ],
      [
        "▁appear",
        -9.901560983561918
      ],
      [
        "▁Of",
        -9.902180764015895
      ],
      [
        "▁des",
        -9.902400129074682
      ],
      [
        "bury",
        -9.902731335684408
      ],
      [
        "▁founder",
        -9.90274970979016
      ],
      [
        "▁Mid",
        -9.902798478397903
      ],
      [
        "▁dance",
        -9.904153222195932
      ],
      [
        "▁positive",
        -9.90470851466332
      ],
      [
        "aka",
        -9.905618459373772
      ],
      [
        "▁Bishop",
        -9.905870192728592
      ],
      [
        "itz",
        -9.906072619067697
      ],
      [
        "play",
        -9.906320990125678
      ],
      [
        "▁format",
        -9.906516383271828
      ],
      [
        "er's",
        -9.906682630673238
      ],
      [
        "▁poet",
        -9.906786007550124
      ],
      [
        "▁demand",
        -9.90691988337464
      ],
      [
        "49",
        -9.907085900974254
      ],
      [
        "▁Im",
        -9.907380528066565
      ],
      [
        "ars",
        -9.9074286651086
      ],
      [
        "&",
        -9.907714627929904
      ],
      [
        "vit",
        -9.90779254658353
      ],
      [
        "▁1943",
        -9.908300911077312
      ],
      [
        "▁B.",
        -9.908425156879533
      ],
      [
        "aries",
        -9.9084293583366
      ],
      [
        "▁1948",
        -9.908873668316048
      ],
      [
        "▁spen",
        -9.909674775653531
      ],
      [
        "▁graduated",
        -9.90999889819554
      ],
      [
        "vic",
        -9.910142318948658
      ],
      [
        "▁candidate",
        -9.910416795117488
      ],
      [
        "▁Peak",
        -9.91122046799008
      ],
      [
        "▁Angel",
        -9.911224349478482
      ],
      [
        "ians",
        -9.91136529962036
      ],
      [
        "▁Ci",
        -9.911811158229838
      ],
      [
        "▁1961",
        -9.9126113338856
      ],
      [
        "\nN",
        -9.912639897770465
      ],
      [
        "▁Ken",
        -9.912718584799308
      ],
      [
        "▁1940",
        -9.912731292466834
      ],
      [
        "▁gun",
        -9.91306111318646
      ],
      [
        "aff",
        -9.913519967633816
      ],
      [
        "whom",
        -9.913673415247445
      ],
      [
        "▁deep",
        -9.913846232813349
      ],
      [
        "▁Over",
        -9.913870065595525
      ],
      [
        "▁Ontario",
        -9.913997708802912
      ],
      [
        "▁app",
        -9.91405938263602
      ],
      [
        "\nCh",
        -9.91410822904166
      ],
      [
        "▁Bri",
        -9.914232606326738
      ],
      [
        "despite",
        -9.914278401373103
      ],
      [
        "▁done",
        -9.91476298767714
      ],
      [
        "▁silver",
        -9.914862547561189
      ],
      [
        "▁Lin",
        -9.915155873249963
      ],
      [
        "▁rule",
        -9.915646274471523
      ],
      [
        "▁Win",
        -9.915785610226102
      ],
      [
        "rian",
        -9.91618942226772
      ],
      [
        "▁draw",
        -9.916247737473563
      ],
      [
        "▁Santa",
        -9.91628997994008
      ],
      [
        "▁Professor",
        -9.91645985970301
      ],
      [
        "▁parties",
        -9.91649132109558
      ],
      [
        "▁Cambridge",
        -9.91761322662221
      ],
      [
        "ping",
        -9.917641014225916
      ],
      [
        "told",
        -9.917757962915132
      ],
      [
        "▁Bro",
        -9.918876312237348
      ],
      [
        "\nUniversity",
        -9.919513390484909
      ],
      [
        "▁Sub",
        -9.919653166856069
      ],
      [
        "▁tracks",
        -9.92023917276244
      ],
      [
        "IS",
        -9.920258310290343
      ],
      [
        "▁administrative",
        -9.920544362407856
      ],
      [
        "▁conference",
        -9.920912671875543
      ],
      [
        "▁Gen",
        -9.921422542399668
      ],
      [
        "▁whole",
        -9.921473046867124
      ],
      [
        "▁200",
        -9.921646549384617
      ],
      [
        "▁fall",
        -9.921694761850022
      ],
      [
        "▁want",
        -9.92216541442826
      ],
      [
        "\nLe",
        -9.92253398947583
      ],
      [
        "▁mass",
        -9.922692513608013
      ],
      [
        "▁ice",
        -9.922922807370512
      ],
      [
        "▁estate",
        -9.923502724217368
      ],
      [
        "met",
        -9.923852549324865
      ],
      [
        "▁1956",
        -9.924472898165403
      ],
      [
        "а",
        -9.924797804342289
      ],
      [
        "ttle",
        -9.925044827071956
      ],
      [
        "tus",
        -9.925122499041436
      ],
      [
        "mark",
        -9.925209418080776
      ],
      [
        "s.\n\n",
        -9.925220899194269
      ],
      [
        "▁content",
        -9.925453220818357
      ],
      [
        "▁Live",
        -9.925629810088042
      ],
      [
        "▁fifth",
        -9.9258883469899
      ],
      [
        "▁conditions",
        -9.925911410821572
      ],
      [
        "▁20th",
        -9.92625947321453
      ],
      [
        "▁Part",
        -9.926418030928868
      ],
      [
        "▁provides",
        -9.92691933321853
      ],
      [
        "▁responsible",
        -9.927189561477713
      ],
      [
        "asked",
        -9.927488523725106
      ],
      [
        "gle",
        -9.927528238192222
      ],
      [
        "▁year.",
        -9.927761681429956
      ],
      [
        "dom",
        -9.927803001653857
      ],
      [
        "▁Cap",
        -9.928122197710673
      ],
      [
        "yard",
        -9.928284193364378
      ],
      [
        "▁Tar",
        -9.930598918621827
      ],
      [
        "▁time.",
        -9.93063797872384
      ],
      [
        "▁Pra",
        -9.930669097567142
      ],
      [
        "▁paper",
        -9.93100648931758
      ],
      [
        "▁records",
        -9.93120623267004
      ],
      [
        "▁Brazil",
        -9.931353185537828
      ],
      [
        "▁(or",
        -9.931421530314632
      ],
      [
        "▁keep",
        -9.93189614101912
      ],
      [
        "▁leave",
        -9.932242009955718
      ],
      [
        "▁\"H",
        -9.932293895365149
      ],
      [
        "ert",
        -9.93230752168004
      ],
      [
        "▁Duke",
        -9.93270396170008
      ],
      [
        "▁episodes",
        -9.932826438370556
      ],
      [
        "▁fish",
        -9.932912364217762
      ],
      [
        "▁Power",
        -9.933234802035466
      ],
      [
        "▁stories",
        -9.933282536523386
      ],
      [
        "▁sc",
        -9.933296351414366
      ],
      [
        "mel",
        -9.933444262088932
      ],
      [
        ".\n\nD",
        -9.933832686162466
      ],
      [
        "▁regard",
        -9.93394777804593
      ],
      [
        "eff",
        -9.934184790153438
      ],
      [
        "final",
        -9.934237789984929
      ],
      [
        "AA",
        -9.934728126971075
      ],
      [
        "▁build",
        -9.935125461251609
      ],
      [
        "▁recent",
        -9.935605090772553
      ],
      [
        "▁map",
        -9.935809534475409
      ],
      [
        "▁Ren",
        -9.935829791996918
      ],
      [
        "▁receive",
        -9.936008103069872
      ],
      [
        "▁individuals",
        -9.936146446336164
      ],
      [
        "▁5,",
        -9.936207075375773
      ],
      [
        ".\n\nAs",
        -9.93620738090256
      ],
      [
        "rim",
        -9.936210829808044
      ],
      [
        "▁stone",
        -9.93695262863699
      ],
      [
        "▁1941",
        -9.937191040582354
      ],
      [
        "cl",
        -9.937526858136325
      ],
      [
        "▁Dor",
        -9.93781919131814
      ],
      [
        "▁era",
        -9.938044931401306
      ],
      [
        "E9E9E9",
        -9.938078495659523
      ],
      [
        "cket",
        -9.938104330914626
      ],
      [
        "▁issued",
        -9.938218659778531
      ],
      [
        "aya",
        -9.938457617332118
      ],
      [
        "chen",
        -9.938469075468571
      ],
      [
        "▁extended",
        -9.938474378338157
      ],
      [
        "▁Ten",
        -9.939487840302126
      ],
      [
        "▁brand",
        -9.940152299335448
      ],
      [
        "▁nature",
        -9.941014764334662
      ],
      [
        "position",
        -9.941130361091504
      ],
      [
        "▁finish",
        -9.941150229550066
      ],
      [
        "turned",
        -9.942066521366405
      ],
      [
        "cia",
        -9.942175468016352
      ],
      [
        "58",
        -9.942742148071826
      ],
      [
        "▁forms",
        -9.942917886421492
      ],
      [
        "▁class=\"",
        -9.942944470576553
      ],
      [
        "▁prominent",
        -9.943856921245978
      ],
      [
        "▁60",
        -9.944240564083694
      ],
      [
        "▁fellow",
        -9.944253065031983
      ],
      [
        "▁\"a",
        -9.94485792401999
      ],
      [
        "tent",
        -9.945448399488653
      ],
      [
        "watch",
        -9.945676863630515
      ],
      [
        "pri",
        -9.946104989465516
      ],
      [
        "BC",
        -9.946265997092173
      ],
      [
        "▁houses",
        -9.946410088314078
      ],
      [
        "▁Avenue",
        -9.947085050747782
      ],
      [
        "pen",
        -9.947416176262209
      ],
      [
        "▁USA",
        -9.948194648236944
      ],
      [
        "▁Str",
        -9.948229354796537
      ],
      [
        "jan",
        -9.948595963927922
      ],
      [
        "▁transferred",
        -9.94870680728004
      ],
      [
        "bor",
        -9.94886730030693
      ],
      [
        "▁D.",
        -9.94886884895574
      ],
      [
        "▁treatment",
        -9.949091496101582
      ],
      [
        "sure",
        -9.949166210377667
      ],
      [
        "dale",
        -9.949224605419774
      ],
      [
        "track",
        -9.949279666541168
      ],
      [
        "▁discovered",
        -9.950631633180665
      ],
      [
        "▁\"D",
        -9.950777424161084
      ],
      [
        "ancient",
        -9.950806565488795
      ],
      [
        "▁News",
        -9.95111782312274
      ],
      [
        "print",
        -9.951944436634363
      ],
      [
        "rid",
        -9.952030115649611
      ],
      [
        "▁method",
        -9.95226663738108
      ],
      [
        "▁3rd",
        -9.952662690136515
      ],
      [
        "pic",
        -9.953086021840232
      ],
      [
        "▁1958",
        -9.953134327104843
      ],
      [
        "▁Mas",
        -9.953155723459991
      ],
      [
        "▁nearby",
        -9.953646853118244
      ],
      [
        "▁Many",
        -9.953734625751483
      ],
      [
        "42",
        -9.954706217576591
      ],
      [
        "41",
        -9.955213877805903
      ],
      [
        "▁arrived",
        -9.955561424999347
      ],
      [
        "▁1950",
        -9.955571343688677
      ],
      [
        "▁problems",
        -9.955663136274223
      ],
      [
        "▁saying",
        -9.956112873573176
      ],
      [
        "▁elements",
        -9.956421956926592
      ],
      [
        "▁Sports",
        -9.957246236452423
      ],
      [
        "▁1946",
        -9.957659455394452
      ],
      [
        "wing",
        -9.95767262692237
      ],
      [
        "▁19th",
        -9.957872806356022
      ],
      [
        "▁master",
        -9.958061398537474
      ],
      [
        "▁Islands",
        -9.958207513699898
      ],
      [
        "lands",
        -9.958228658912978
      ],
      [
        "rel",
        -9.958493455536823
      ],
      [
        "▁scene",
        -9.958502199311372
      ],
      [
        "press",
        -9.95884675396526
      ],
      [
        "▁Ministry",
        -9.958851122223148
      ],
      [
        "▁1959",
        -9.959081332616872
      ],
      [
        "▁Supreme",
        -9.959124632403572
      ],
      [
        "▁solo",
        -9.959426664905786
      ],
      [
        "▁enough",
        -9.95980674767374
      ],
      [
        "▁Tim",
        -9.960405065310551
      ],
      [
        "▁...",
        -9.960499136051276
      ],
      [
        "iet",
        -9.960949134673331
      ],
      [
        "▁cap",
        -9.96113151861038
      ],
      [
        "lus",
        -9.961470991802267
      ],
      [
        "▁Song",
        -9.96177214171363
      ],
      [
        "▁agreement",
        -9.962399706494574
      ],
      [
        "▁mountain",
        -9.962503957884612
      ],
      [
        "▁Mad",
        -9.96271530787321
      ],
      [
        "▁channel",
        -9.963038393853452
      ],
      [
        "ties",
        -9.96403369409831
      ],
      [
        "living",
        -9.964394881319828
      ],
      [
        "▁1.",
        -9.964440372267363
      ],
      [
        "▁Del",
        -9.964447939812471
      ],
      [
        "▁managed",
        -9.96499472477889
      ],
      [
        "▁soldiers",
        -9.965516836531377
      ],
      [
        "▁Ali",
        -9.965837201195193
      ],
      [
        "\nLa",
        -9.965972287310734
      ],
      [
        "▁Au",
        -9.966021374441112
      ],
      [
        "TV",
        -9.966463136642506
      ],
      [
        "▁rugby",
        -9.966518463179646
      ],
      [
        "▁Social",
        -9.967146448508538
      ],
      [
        "stor",
        -9.967480377367073
      ],
      [
        "s.\n\nThe",
        -9.967529968354771
      ],
      [
        "kov",
        -9.96759860766375
      ],
      [
        "▁Route",
        -9.967773470626032
      ],
      [
        "▁anti-",
        -9.968647258569376
      ],
      [
        "▁develop",
        -9.96873673121829
      ],
      [
        "▁35",
        -9.969457945567184
      ],
      [
        "▁constructed",
        -9.9697555146633
      ],
      [
        "▁Federal",
        -9.969916784906609
      ],
      [
        "▁Chris",
        -9.96994328113602
      ],
      [
        "▁products",
        -9.969944024366637
      ],
      [
        "ches",
        -9.970002597506548
      ],
      [
        "▁1939",
        -9.970435589252242
      ],
      [
        "▁pair",
        -9.970487008690178
      ],
      [
        "CO",
        -9.970525768345992
      ],
      [
        "▁heart",
        -9.970618820938544
      ],
      [
        "▁Es",
        -9.97097171870265
      ],
      [
        "▁covered",
        -9.970983326522044
      ],
      [
        "▁address",
        -9.97141915292545
      ],
      [
        "nna",
        -9.9714554691608
      ],
      [
        "sse",
        -9.971822318821204
      ],
      [
        "▁cur",
        -9.972022480983256
      ],
      [
        "mini",
        -9.972187890438098
      ],
      [
        "▁equal",
        -9.972722481706612
      ],
      [
        "▁initial",
        -9.972860514389591
      ],
      [
        "▁Hy",
        -9.97295347049589
      ],
      [
        "lot",
        -9.97316734045177
      ],
      [
        "tsu",
        -9.973547750302592
      ],
      [
        "▁65",
        -9.974257755019964
      ],
      [
        "▁architecture",
        -9.974708052420516
      ],
      [
        "▁Corporation",
        -9.974764013325837
      ],
      [
        "▁Region",
        -9.975165962509362
      ],
      [
        "duc",
        -9.97543179297485
      ],
      [
        ".com",
        -9.975956560772731
      ],
      [
        "▁directly",
        -9.97602119206718
      ],
      [
        "▁plans",
        -9.976203568986872
      ],
      [
        "dra",
        -9.976576094535236
      ],
      [
        "▁Trans",
        -9.976957468964503
      ],
      [
        "▁Francis",
        -9.977542602448889
      ],
      [
        "▁residents",
        -9.978312674922488
      ],
      [
        "▁renamed",
        -9.97835947606848
      ],
      [
        "▁Kal",
        -9.978706476792222
      ],
      [
        "▁Elizabeth",
        -9.979080872357263
      ],
      [
        "\nOlympic",
        -9.979636211357134
      ],
      [
        "whether",
        -9.980214488432098
      ],
      [
        "primarily",
        -9.98027744120356
      ],
      [
        "pol",
        -9.980493253040272
      ],
      [
        "▁likely",
        -9.980499619864188
      ],
      [
        "▁Township",
        -9.980724940792664
      ],
      [
        "▁administration",
        -9.98077017076473
      ],
      [
        "▁Tal",
        -9.982158786006282
      ],
      [
        "▁dead",
        -9.982474787041143
      ],
      [
        "▁know",
        -9.983144841177838
      ],
      [
        "▁Toronto",
        -9.983453965875244
      ],
      [
        "giving",
        -9.983573644130864
      ],
      [
        "▁L.",
        -9.983632740278692
      ],
      [
        "▁Ham",
        -9.983667405337384
      ],
      [
        "▁1957",
        -9.983853437445342
      ],
      [
        "▁Sol",
        -9.98433998675162
      ],
      [
        "▁musicians",
        -9.984659667097992
      ],
      [
        "rest",
        -9.985266973163348
      ],
      [
        "bit",
        -9.985298563806005
      ],
      [
        "(with",
        -9.985616021094405
      ],
      [
        "▁letter",
        -9.985659260739643
      ],
      [
        "▁Earl",
        -9.986141760944422
      ],
      [
        "▁operate",
        -9.986370479700255
      ],
      [
        "▁Jim",
        -9.986462369478453
      ],
      [
        "gr",
        -9.987426594793856
      ],
      [
        "ged",
        -9.987653999616896
      ],
      [
        "lla",
        -9.98788344085493
      ],
      [
        "▁protect",
        -9.988024058439525
      ],
      [
        "alongside",
        -9.988872739172905
      ],
      [
        "▁security",
        -9.989015620957392
      ],
      [
        "pos",
        -9.989357385967594
      ],
      [
        "▁rural",
        -9.99007352000877
      ],
      [
        "▁Nor",
        -9.990317372648803
      ],
      [
        "▁Winter",
        -9.99036620344256
      ],
      [
        "eth",
        -9.991498319160174
      ],
      [
        "▁1952",
        -9.992112462551413
      ],
      [
        "▁champion",
        -9.99247233411548
      ],
      [
        "▁Bab",
        -9.99247526725689
      ],
      [
        "▁Char",
        -9.992809462978284
      ],
      [
        "▁1947",
        -9.993031322500524
      ],
      [
        "ensis",
        -9.993406047986
      ],
      [
        "▁Kitt",
        -9.99380139401614
      ],
      [
        "list",
        -9.994203746327797
      ],
      [
        "bound",
        -9.995065668885909
      ],
      [
        "▁participated",
        -9.995345331684357
      ],
      [
        "cat",
        -9.995523416689178
      ],
      [
        "▁share",
        -9.995700777951816
      ],
      [
        "▁Son",
        -9.995800488935656
      ],
      [
        "500",
        -9.995910207833395
      ],
      [
        "▁wanted",
        -9.996114160712713
      ],
      [
        "▁guest",
        -9.996415852305931
      ],
      [
        "umb",
        -9.997087854378702
      ],
      [
        "gel",
        -9.997167719362004
      ],
      [
        "▁reform",
        -9.997238479684285
      ],
      [
        "▁Netherlands",
        -9.997337871126776
      ],
      [
        "▁Kh",
        -9.998308663658715
      ],
      [
        "▁Nations",
        -9.99858021954856
      ],
      [
        "pl",
        -9.99961595005737
      ],
      [
        "\nRa",
        -9.99968559688326
      ],
      [
        "▁32",
        -9.999792383638912
      ],
      [
        "EC",
        -10.000104340473737
      ],
      [
        "▁0.",
        -10.000217968243865
      ],
      [
        "_",
        -10.00108588708168
      ],
      [
        "▁conflict",
        -10.00112963489656
      ],
      [
        "e's",
        -10.001479935304696
      ],
      [
        "pon",
        -10.001824965702054
      ],
      [
        "▁piano",
        -10.001905028603767
      ],
      [
        "ia,",
        -10.00190833102704
      ],
      [
        "▁Albert",
        -10.00225786401665
      ],
      [
        "▁revealed",
        -10.002667317556655
      ],
      [
        "▁Technology",
        -10.002735679130678
      ],
      [
        "gli",
        -10.00332401373382
      ],
      [
        "▁Bob",
        -10.003368709016796
      ],
      [
        "▁store",
        -10.00359594357468
      ],
      [
        "–17",
        -10.005343355490126
      ],
      [
        "▁reach",
        -10.005599954312444
      ],
      [
        "▁parish",
        -10.00566988935576
      ],
      [
        "▁Ak",
        -10.006167514258824
      ],
      [
        "pec",
        -10.006567183396466
      ],
      [
        "ova",
        -10.006842953743384
      ],
      [
        "▁idea",
        -10.006905071960931
      ],
      [
        "▁minister",
        -10.006935872622371
      ],
      [
        "stra",
        -10.006937630100335
      ],
      [
        "▁website\n",
        -10.00709831228692
      ],
      [
        "▁kind",
        -10.007261468031524
      ],
      [
        "▁surname",
        -10.007546915063829
      ],
      [
        "▁pilot",
        -10.007606287500668
      ],
      [
        "▁double",
        -10.007634726981008
      ],
      [
        "uni",
        -10.007685894508525
      ],
      [
        "▁Stadium",
        -10.00779864402105
      ],
      [
        "▁Stephen",
        -10.008151842359448
      ],
      [
        "▁Ven",
        -10.008207198710933
      ],
      [
        "\nU",
        -10.008302676867364
      ],
      [
        "als",
        -10.00872317443985
      ],
      [
        "▁(J",
        -10.008944111752012
      ],
      [
        "▁bring",
        -10.009127101604156
      ],
      [
        "mas",
        -10.00941786658407
      ],
      [
        "▁mission",
        -10.009422740436666
      ],
      [
        "▁impact",
        -10.009542945360453
      ],
      [
        "▁\"F",
        -10.010107292585223
      ],
      [
        "▁45",
        -10.010309522873818
      ],
      [
        "ark",
        -10.01031745857669
      ],
      [
        "mainly",
        -10.01032361308865
      ],
      [
        "grew",
        -10.010832090062303
      ],
      [
        "r.",
        -10.011001881931527
      ],
      [
        "aki",
        -10.01100301424094
      ],
      [
        "▁bo",
        -10.011265082620849
      ],
      [
        "▁branch",
        -10.013149749402748
      ],
      [
        "▁medalists",
        -10.013387190956946
      ],
      [
        "▁continue",
        -10.013463312379988
      ],
      [
        "▁Pakistan",
        -10.01419053763451
      ],
      [
        "▁Swedish",
        -10.014336483686426
      ],
      [
        "starting",
        -10.01470133908547
      ],
      [
        "view",
        -10.015352586753773
      ],
      [
        "lia",
        -10.0154673402606
      ],
      [
        "▁distance",
        -10.015745078132802
      ],
      [
        "▁Human",
        -10.01580193928466
      ],
      [
        "room",
        -10.016521574836638
      ],
      [
        "▁winners",
        -10.01658687838453
      ],
      [
        "lat",
        -10.016634090705962
      ],
      [
        "▁BC",
        -10.016687344244282
      ],
      [
        "▁1955",
        -10.017062282563684
      ],
      [
        "Despite",
        -10.017402404895298
      ],
      [
        "▁Tor",
        -10.017434497648622
      ],
      [
        "▁Luc",
        -10.018009036742423
      ],
      [
        "▁Minnesota",
        -10.018144275779909
      ],
      [
        "▁P.",
        -10.018196964868013
      ],
      [
        "▁officially",
        -10.01839970795934
      ],
      [
        "▁Three",
        -10.01841383599877
      ],
      [
        "gre",
        -10.018444533650596
      ],
      [
        "▁governor",
        -10.019151230432705
      ],
      [
        "ving",
        -10.019575051948262
      ],
      [
        "▁Sand",
        -10.019638028835011
      ],
      [
        "▁literature",
        -10.019729758588904
      ],
      [
        "▁committee",
        -10.020023589401768
      ],
      [
        "▁suggest",
        -10.020182908282411
      ],
      [
        "▁Philip",
        -10.020306214668953
      ],
      [
        "▁target",
        -10.020521959820249
      ],
      [
        "▁promotion",
        -10.020773097653128
      ],
      [
        "▁Sur",
        -10.020989985399964
      ],
      [
        "▁product",
        -10.021110515183002
      ],
      [
        "▁Ce",
        -10.021133178249755
      ],
      [
        ".\n\nW",
        -10.021614823620943
      ],
      [
        "▁Network",
        -10.02194071800904
      ],
      [
        "▁conducted",
        -10.02220958949552
      ],
      [
        "▁Master",
        -10.022289701076724
      ],
      [
        "▁+",
        -10.022387770197092
      ],
      [
        "▁opera",
        -10.022507631582757
      ],
      [
        "▁Mike",
        -10.02267850691883
      ],
      [
        "–1",
        -10.023124652134436
      ],
      [
        "titled",
        -10.02400494098707
      ],
      [
        "▁ball",
        -10.024655351266317
      ],
      [
        "▁words",
        -10.0248968298569
      ],
      [
        "▁Nu",
        -10.024980761060045
      ],
      [
        "▁notable",
        -10.025503360542483
      ],
      [
        "▁architect",
        -10.02559006971481
      ],
      [
        "▁situation",
        -10.02608370729914
      ],
      [
        "tta",
        -10.026244918819728
      ],
      [
        "▁Bat",
        -10.026475931608909
      ],
      [
        "▁Both",
        -10.026747023566138
      ],
      [
        "▁6,",
        -10.026957405398385
      ],
      [
        "▁simpl",
        -10.027591154107249
      ],
      [
        "▁Dr",
        -10.027878723421146
      ],
      [
        "ister",
        -10.02868320087542
      ],
      [
        "▁dark",
        -10.02900486235517
      ],
      [
        "▁Yo",
        -10.029120908571798
      ],
      [
        "▁Cro",
        -10.029459520316044
      ],
      [
        "▁Arm",
        -10.029567198843182
      ],
      [
        "rate",
        -10.02985349285005
      ],
      [
        "▁friends",
        -10.030968945417763
      ],
      [
        "ici",
        -10.031849672627366
      ],
      [
        "NA",
        -10.032354156027298
      ],
      [
        "▁Sk",
        -10.032444541630984
      ],
      [
        "▁Ze",
[...]
