{"version":"1.0","truncation":null,"padding":null,"added_tokens":[{"id":0,"special":true,"content":"[PAD]","single_word":false,"lstrip":false,"rstrip":false,"normalized":false},{"id":1,"special":true,"content":"[UNK]","single_word":false,"lstrip":false,"rstrip":false,"normalized":false},{"id":2,"special":true,"content":"[MASK]","single_word":false,"lstrip":false,"rstrip":false,"normalized":false}],"normalizer":{"type":"Sequence","normalizers":[{"type":"Replace","pattern":{"String":"<br />"},"content":" "},{"type":"NFD"},{"type":"Lowercase"},{"type":"StripAccents"}]},"pre_tokenizer":{"type":"Whitespace"},"post_processor":null,"decoder":{"type":"WordPiece","prefix":"##","cleanup":true},"model":{"type":"WordPiece","unk_token":"[UNK]","continuing_subword_prefix":"##","max_input_chars_per_word":100,"vocab":{"[PAD]":0,"[UNK]":1,"[MASK]":2,"\b":3,"\u0010":4,"!":5,"\"":6,"#":7,"$":8,"%":9,"&":10,"'":11,"(":12,")":13,"*":14,"+":15,",":16,"-":17,".":18,"/":19,"0":20,"1":21,"2":22,"3":23,"4":24,"5":25,"6":26,"7":27,"8":28,"9":29,":":30,";":31,"<":32,"=":33,">":34,"?":35,"@":36,"[":37,"\\":38,"]":39,"^":40,"_":41,"`":42,"a":43,"b":44,"c":45,"d":46,"e":47,"f":48,"g":49,"h":50,"i":51,"j":52,"k":53,"l":54,"m":55,"n":56,"o":57,"p":58,"q":59,"r":60,"s":61,"t":62,"u":63,"v":64,"w":65,"x":66,"y":67,"z":68,"{":69,"|":70,"}":71,"~":72,"":73,"":74,"":75,"":76,"":77,"":78,"":79,"":80,"":81,"":82,"¡":83,"¢":84,"£":85,"¤":86,"¦":87,"§":88,"¨":89,"«":90,"­":91,"®":92,"°":93,"³":94,"´":95,"·":96,"º":97,"»":98,"½":99,"¾":100,"¿":101,"ß":102,"æ":103,"ð":104,"ø":105,"–":106,"‘":107,"’":108,"“":109,"”":110,"…":111,"₤":112,"":113,"##n":114,"##s":115,"##u":116,"##l":117,"##i":118,"##e":119,"##d":120,"##h":121,"##m":122,"##a":123,"##z":124,"##o":125,"##w":126,"##r":127,"##c":128,"##v":129,"##t":130,"##p":131,"##g":132,"##f":133,"##.":134,"##y":135,"##k":136,"##x":137,"##9":138,"##b":139,"##3":140,"##q":141,"##'":142,"##@":143,"##j":144,"##-":145,"##\"":146,"##0":147,"##1":148,"##6":149,"##4":150,"##?":151,"##!":152,"##7":153,"##[":154,"##)":155,"##;":156,"##_":157,"##~":158,"##5":159,"##*":160,"##2":161,"##,":162,"##(":163,"###":164,"##/":165,"##8":166,"##:":167,"##£":168,"##>":169,"##\b":170,"##¨":171,"##%":172,"##&":173,"##æ":174,"##=":175,"##$":176,"##^":177,"##]":178,"##{":179,"##ø":180,"##":181,"##`":182,"##¤":183,"##+":184,"##":185,"##}":186,"##…":187,"##\\":188,"##<":189,"##§":190,"##¦":191,"##¿":192,"##ß":193,"##":194,"##ð":195,"##":196,"##¡":197,"##’":198,"##½":199,"th":200,"the":201,"##er":202,"##in":203,"##nd":204,"##at":205,"##es":206,"##or":207,"##en":208,"##ing":209,"##is":210,"##ou":211,"##on":212,"##ed":213,"and":214,"##ar":215,"to":216,"##ll":217,"of":218,"##an":219,"##it":220,"##re":221,"in":222,"##as":223,"is":224,"##om":225,"it":226,"##ic":227,"##le":228,"##ot":229,"wh":230,"##al":231,"be":232,"##ut":233,"##ct":234,"##il":235,"##ie":236,"##ly":237,"##st":238,"on":239,"this":240,"##ov":241,"that":242,"re":243,"st":244,"##ow":245,"##ent":246,"##ad":247,"##ve":248,"##ch":249,"##ion":250,"##et":251,"##ay":252,"##gh":253,"##se":254,"mov":255,"for":256,"as":257,"was":258,"an":259,"##ith":260,"##im":261,"sh":262,"##id":263,"fil":264,"film":265,"se":266,"##all":267,"with":268,"##oo":269,"##ce":270,"##ver":271,"##am":272,"##ld":273,"you":274,"he":275,"##ir":276,"movie":277,"but":278,"ch":279,"ha":280,"##ke":281,"##ur":282,"##ter":283,"li":284,"not":285,"##ill":286,"##her":287,"##ally":288,"##ers":289,"fr":290,"his":291,"##ess":292,"##ck":293,"at":294,"su":295,"pr":296,"are":297,"##est":298,"##ome":299,"##em":300,"##ri":301,"##ra":302,"##pe":303,"##ould":304,"##ul":305,"so":306,"al":307,"sc":308,"we":309,"have":310,"her":311,"##ght":312,"do":313,"de":314,"one":315,"##ust":316,"act":317,"all":318,"ma":319,"ex":320,"who":321,"##un":322,"pl":323,"ab":324,"##ore":325,"com":326,"##out":327,"##op":328,"##ood":329,"##ab":330,"ne":331,"##ol":332,"##act":333,"they":334,"by":335,"##ant":336,"##el":337,"##art":338,"##ies":339,"##ain":340,"##us":341,"##ge":342,"wor":343,"like":344,"or":345,"some":346,"##pp":347,"from":348,"con":349,"##ous":350,"##ere":351,"out":352,"##ist":353,"en":354,"##os":355,"##ast":356,"there":357,"##th":358,"di":359,"##one":360,"##ost":361,"##ven":362,"##od":363,"just":364,"un":365,"##ight":366,"##ation":367,"me":368,"##ough":369,"##um":370,"le":371,"##ate":372,"##au":373,"char":374,"##ich":375,"##fe":376,"about":377,"has":378,"tim":379,"can":380,"if":381,"##ery":382,"##atch":383,"man":384,"what":385,"##ory":386,"##and":387,"##ind":388,"##ard":389,"##ive":390,"##ack":391,"##..":392,"##pt":393,"tr":394,"my":395,"##ort":396,"good":397,"any":398,"ever":399,"she":400,"up":401,"##ud":402,"##ook":403,"##reat":404,"charact":405,"no":406,"when":407,"##ak":408,"more":409,"watch":410,"fe":411,"int":412,"get":413,"very":414,"see":415,"##ong":416,"##ig":417,"would":418,"##ity":419,"go":420,"br":421,"cl":422,"##ob":423,"story":424,"bec":425,"##ound":426,"even":427,"how":428,"##ite":429,"time":430,"ar":431,"am":432,"##ame":433,"##ff":434,"per":435,"##ther":436,"##able":437,"which":438,"only":439,"##oy":440,"really":441,"had":442,"##hing":443,"##og":444,"other":445,"show":446,"##ag":447,"their":448,"scen":449,"##ious":450,"##ue":451,"than":452,"were":453,"well":454,"##itt":455,"him":456,"te":457,"...":458,"pe":459,"will":460,"kn":461,"sp":462,"##ap":463,"##ure":464,"##ink":465,"##ick":466,"did":467,"im":468,"##ful":469,"end":470,"does":471,"them":472,"##ine":473,"mu":474,"##ars":475,"over":476,"##ond":477,"##our":478,"great":479,"##man":480,"##ays":481,"bad":482,"##ade":483,"##ence":484,"bet":485,"look":486,"bl":487,"qu":488,"##so":489,"##ci":490,"lov":491,"ad":492,"##ment":493,"##rect":494,"af":495,"##ause":496,"most":497,"much":498,"fa":499,"cr":500,"tw":501,"fir":502,"thr":503,"##ish":504,"don":505,"could":506,"us":507,"peop":508,"##pl":509,"##ice":510,"every":511,"dis":512,"pre":513,"been":514,"people":515,"po":516,"direct":517,"sa":518,"first":519,"also":520,"into":521,"##int":522,"##iv":523,"because":524,"too":525,"know":526,"think":527,"ag":528,"##ose":529,"##ple":530,"##ide":531,"off":532,"##lf":533,"##ble":534,"part":535,"wr":536,"real":537,"##age":538,"##other":539,"##ass":540,"##per":541,"made":542,"way":543,"##oll":544,"make":545,"thing":546,"car":547,"its":548,"after":549,"##ors":550,"then":551,"##for":552,"gu":553,"ye":554,"fun":555,"mak":556,"##ile":557,"##ict":558,"fl":559,"##pr":560,"##te":561,"##ry":562,"movies":563,"##ull":564,"seem":565,"##ated":566,"##gin":567,"inter":568,"work":569,"##ces":570,"##ty":571,"ser":572,"gr":573,"character":574,"##ary":575,"ro":576,"##cc":577,"##ually":578,"##ical":579,"play":580,"##ans":581,"aw":582,"##own":583,"##iew":584,"characters":585,"##ep":586,"##ance":587,"plot":588,"##qu":589,"love":590,"two":591,"films":592,"##pect":593,"##ach":594,"your":595,"never":596,"##fect":597,"being":598,"dr":599,"##iz":600,"##tain":601,"##ber":602,"seen":603,"##self":604,"many":605,"life":606,"where":607,"want":608,").":609,"som":610,"des":611,"##ny":612,"jo":613,"##ittle":614,"acting":615,"best":616,"hor":617,"little":618,"somet":619,"##ves":620,"say":621,"##ens":622,"back":623,"##nder":624,"through":625,"##urn":626,"##ip":627,"##wn":628,"##oc":629,"rem":630,"##ving":631,"##get":632,"##ath":633,"##ang":634,"##ark":635,"19":636,"may":637,"##ake":638,"##ents":639,"##ily":640,"##oss":641,"sl":642,"##ne":643,"ve":644,"spe":645,"##ather":646,"rec":647,"##ild":648,"here":649,"##ult":650,"still":651,"better":652,"##ise":653,"##we":654,"),":655,"str":656,"##ire":657,"##ace":658,"##ions":659,"##ph":660,"ke":661,"##ian":662,"should":663,"perfor":664,"##ia":665,"##ual":666,"min":667,"again":668,"find":669,"bel":670,"kill":671,"these":672,"att":673,"scene":674,"under":675,"new":676,"old":677,"##augh":678,"why":679,"while":680,"feel":681,"prob":682,"##thing":683,"##ase":684,"res":685,"##igh":686,"##ought":687,"inc":688,"now":689,"scenes":690,"sim":691,"##ting":692,"em":693,"such":694,"something":695,"##ater":696,"gen":697,"##iend":698,"10":699,"cast":700,"##oth":701,"happ":702,"##ning":703,"interest":704,"##odu":705,"ap":706,"fam":707,"hum":708,"##ably":709,"##ac":710,"sur":711,"gir":712,"lot":713,"##ree":714,"##are":715,"point":716,"tra":717,"mus":718,"##if":719,"##me":720,"ev":721,"##ating":722,"##ason":723,"##ever":724,"fin":725,"scre":726,"--":727,"cont":728,"performan":729,"##fore":730,"wom":731,"those":732,"##alk":733,"##ense":734,"##arly":735,"##ations":736,"##oun":737,"watching":738,"##be":739,"##less":740,"es":741,"doesn":742,"director":743,"though":744,"dec":745,"##ying":746,"down":747,"years":748,"set":749,"actors":750,"##ng":751,"che":752,"big":753,"##li":754,"sm":755,"ob":756,"##ror":757,"##joy":758,"didn":759,"before":760,"enjoy":761,"id":762,"##ect":763,"##ial":764,"guy":765,"another":766,"view":767,"young":768,"ter":769,"nothing":770,"funny":771,"##vel":772,"comed":773,"tak":774,"start":775,"fact":776,"actually":777,"high":778,"makes":779,"long":780,"ori":781,"mis":782,"exce":783,"belie":784,"##ock":785,"produ":786,"comp":787,"war":788,"going":789,"mar":790,"##av":791,"few":792,"rel":793,"tri":794,"girl":795,"pret":796,"##erson":797,"same":798,"world":799,"origin":800,"##ute":801,"got":802,"turn":803,"supp":804,"##az":805,"ind":806,"app":807,"##ience":808,"ho":809,"##ash":810,"hard":811,"diff":812,"##ub":813,"sub":814,"bit":815,"sec":816,"own":817,"##ool":818,"sin":819,"##cial":820,"ph":821,"##ible":822,"thought":823,"##aw":824,"el":825,"##ript":826,"inv":827,"friend":828,"##ft":829,"##der":830,"wond":831,"far":832,"ed":833,"quite":834,"laugh":835,"screen":836,"stu":837,"comple":838,"things":839,"pretty":840,"bu":841,"need":842,"right":843,"##eric":844,"##ffect":845,"ins":846,"kid":847,"bas":848,"##aut":849,"seems":850,"##les":851,"around":852,"horror":853,"##iting":854,"bor":855,"original":856,"##ction":857,"wonder":858,"effect":859,"take":860,"##ib":861,"however":862,"cam":863,"acc":864,"person":865,"inst":866,"##ings":867,"hel":868,"script":869,"enough":870,"##ave":871,"##ways":872,"##ved":873,"cra":874,"##ced":875,"series":876,"##ween":877,"enter":878,"both":879,"##arr":880,"##ention":881,"##ons":882,"class":883,"between":884,"action":885,"give":886,"##ically":887,"americ":888,"child":889,"kind":890,"##ately":891,"must":892,"appe":893,"sex":894,"op":895,"mom":896,"read":897,"beaut":898,"tell":899,"cons":900,"come":901,"##ness":902,"without":903,"comedy":904,"let":905,"times":906,"always":907,"ep":908,"##inem":909,"alm":910,"hand":911,"music":912,"saw":913,"last":914,"reason":915,"put":916,"rev":917,"##ell":918,"gets":919,"family":920,"isn":921,"cinem":922,"interesting":923,"role":924,"##ug":925,"##ead":926,"co":927,"##utes":928,"##ale":929,"almost":930,"##vious":931,"art":932,"##icul":933,"##ouse":934,"least":935,"sure":936,"whole":937,"done":938,"aud":939,"par":940,"mon":941,"shot":942,"ll":943,"lead":944,"sound":945,"book":946,"##ward":947,"might":948,"##its":949,"expect":950,"differ":951,"cle":952,"##ody":953,"##ines":954,"##ully":955,"sch":956,"\".":957,"##press":958,"##ner":959,"expl":960,"##ks":961,"ide":962,"\",":963,"##ount":964,"making":965,"worth":966,"##app":967,"##!!":968,"##ress":969,"anything":970,"minutes":971,"gl":972,"run":973,"##raph":974,"cour":975,"complete":976,"begin":977,"since":978,"main":979,"call":980,"super":981,"performance":982,"night":983,"##hn":984,"##oot":985,"##over":986,"day":987,"##ently":988,"##ane":989,"woman":990,"pol":991,"boy":992,"probably":993,"##rible":994,"help":995,"entertain":996,"yet":997,"care":998,"##ord":999,"##uring":1000,"##son":1001,"tv":1002,"john":1003,"away":1004,"chr":1005,"ext":1006,"ste":1007,"##lem":1008,"rob":1009,"imp":1010,"add":1011,"##cially":1012,"mean":1013,"rather":1014,"##stand":1015,"worst":1016,"mat":1017,"##ail":1018,"##oney":1019,"##red":1020,"ty":1021,"abs":1022,"found":1023,"sequ":1024,"our":1025,"##xt":1026,"comm":1027,"##ign":1028,"##alog":1029,"pres":1030,"##ism":1031,"##ative":1032,"poor":1033,"vers":1034,"gi":1035,"ent":1036,"miss":1037,"##ures":1038,"##ition":1039,"##als":1040,"##isod":1041,"anyone":1042,"episod":1043,"##istic":1044,"mind":1045,"ac":1046,"less":1047,"def":1048,"##ives":1049,"played":1050,"bo":1051,"each":1052,"##mend":1053,"##apt":1054,"star":1055,"happen":1056,"cre":1057,"##ange":1058,"dialog":1059,"mur":1060,"alth":1061,"espe":1062,"having":1063,"##ady":1064,"although":1065,"especially":1066,"pro":1067,"##osed":1068,"anim":1069,"keep":1070,"hal":1071,"##ember":1072,"bud":1073,"##umb":1074,"lik":1075,"believe":1076,"course":1077,"unf":1078,"##ert":1079,"job":1080,"second":1081,"surpr":1082,"sk":1083,"ey":1084,"##led":1085,"comes":1086,"looking":1087,"##ten":1088,"trying":1089,"##wood":1090,"##ling":1091,"##**":1092,"rest":1093,"##aster":1094,"dv":1095,"place":1096,"##ject":1097,"house":1098,".\"":1099,"goes":1100,"year":1101,"stand":1102,"port":1103,"sense":1104,"gra":1105,"##00":1106,"black":1107,"##ither":1108,"##ollow":1109,"perfect":1110,"conf":1111,"looks":1112,"##olly":1113,"dvd":1114,"different":1115,"##ife":1116,"dram":1117,"actor":1118,"##ograph":1119,"##ingly":1120,"money":1121,"dan":1122,"problem":1123,"ending":1124,"true":1125,"##ret":1126,"head":1127,"maybe":1128,"##here":1129,"##ertain":1130,"someone":1131,"vis":1132,"##empt":1133,"wasn":1134,"once":1135,"cou":1136,"prov":1137,"fan":1138,"everything":1139,"##ates":1140,"##lud":1141,"pa":1142,"low":1143,"creat":1144,"##iter":1145,"short":1146,"##ney":1147,"##ank":1148,"nice":1149,"##ah":1150,"shows":1151,"##ics":1152,"men":1153,"pow":1154,"dra":1155,"##hip":1156,"follow":1157,"recom":1158,"##oint":1159,"three":1160,"##iful":1161,"ann":1162,"recommend":1163,"##ues":1164,"half":1165,"talk":1166,"american":1167,"fall":1168,"mor":1169,"imag":1170,"##ments":1171,"fav":1172,"dre":1173,"cor":1174,"certain":1175,"sing":1176,"##iece":1177,"toget":1178,"together":1179,"eng":1180,"poss":1181,"death":1182,"det":1183,"##ider":1184,"rom":1185,"watched":1186,"obvious":1187,"ele":1188,"nor":1189,"##aps":1190,"special":1191,"father":1192,"everyone":1193,"sy":1194,"plays":1195,"##ality":1196,"exper":1197,"effects":1198,"later":1199,"audience":1200,"said":1201,"takes":1202,"excell":1203,"instead":1204,"review":1205,"home":1206,"form":1207,"top":1208,"##ilar":1209,"beautiful":1210,"dead":1211,"hour":1212,"sit":1213,"left":1214,"himself":1215,"ple":1216,"version":1217,"tit":1218,"christ":1219,"##ortun":1220,"else":1221,"wife":1222,"##ences":1223,"##cing":1224,"heart":1225,"rele":1226,"understand":1227,"during":1228,"##ames":1229,"sus":1230,"simp":1231,"camer":1232,"##ern":1233,"exc":1234,"##sy":1235,"sty":1236,"##ray":1237,"friends":1238,"##ollywood":1239,"seeing":1240,"##land":1241,"##way":1242,"red":1243,"tal":1244,"dist":1245,"lu":1246,"##ier":1247,"bre":1248,"came":1249,"excellent":1250,"##atic":1251,"##ted":1252,"##omb":1253,"##ro":1254,"entire":1255,"##ited":1256,"fight":1257,"use":1258,"defin":1259,"col":1260,"idea":1261,"##ists":1262,"sad":1263,"disc":1264,"serious":1265,"ass":1266,"tot":1267,"##pid":1268,"##ird":1269,"feat":1270,"##uth":1271,"tru":1272,"##0s":1273,"includ":1274,"beh":1275,"##ional":1276,"remember":1277,"hist":1278,"vi":1279,"pict":1280,"##itch":1281,"##arn":1282,"##fully":1283,"unt":1284,"##ren":1285,"##day":1286,"ang":1287,"invol":1288,"bra":1289,"##gg":1290,"stud":1291,"##ime":1292,"human":1293,"##ides":1294,"wa":1295,"simply":1296,"mem":1297,"line":1298,"ref":1299,"##ton":1300,"##ix":1301,"song":1302,"vide":1303,"budget":1304,"disapp":1305,"##vin":1306,"##io":1307,"##ster":1308,"attempt":1309,"stupid":1310,"hollywood":1311,"gener":1312,"lack":1313,"disappoint":1314,"wrong":1315,"##dd":1316,"##ised":1317,"##ets":1318,"dark":1319,"##ented":1320,"ir":1321,"mess":1322,"hero":1323,"ret":1324,"open":1325,"completely":1326,"full":1327,"cop":1328,"hope":1329,"supposed":1330,"used":1331,"eas":1332,"##ared":1333,"##ann":1334,"along":1335,"nat":1336,"either":1337,"dep":1338,"absol":1339,"##ired":1340,"try":1341,"except":1342,"sw":1343,"given":1344,"word":1345,"ra":1346,"##ru":1347,"count":1348,"kids":1349,"mod":1350,"absolute":1351,"loc":1352,"win":1353,"classic":1354,"conc":1355,"small":1356,"performances":1357,"women":1358,"amaz":1359,"school":1360,"particul":1361,"boring":1362,"##cy":1363,"bat":1364,"pain":1365,"##ied":1366,"light":1367,"##oon":1368,"fail":1369,"coll":1370,"won":1371,"##itten":1372,"ok":1373,"production":1374,"##tle":1375,"adv":1376,"dou":1377,"blood":1378,"until":1379,"camera":1380,"##cept":1381,"consider":1382,"exam":1383,"##ize":1384,"pass":1385,"##ew":1386,"dri":1387,"awful":1388,"emot":1389,"##ography":1390,"stars":1391,"viol":1392,"bar":1393,"hu":1394,"rich":1395,"mid":1396,"##ters":1397,"murder":1398,"sat":1399,"truly":1400,"##ys":1401,"video":1402,"jack":1403,"##illi":1404,"becom":1405,"favor":1406,"sort":1407,"reg":1408,"couple":1409,"mr":1410,"next":1411,"ge":1412,"##vers":1413,"spo":1414,"##elt":1415,"##oice":1416,"mich":1417,"cut":1418,"av":1419,"god":1420,"name":1421,"##velop":1422,"brother":1423,"definite":1424,"##haps":1425,"##wh":1426,"power":1427,"gre":1428,"##sc":1429,"perhaps":1430,"cred":1431,"##que":1432,"##ities":1433,"face":1434,"portray":1435,"rid":1436,"##ote":1437,"slow":1438,"sever":1439,"flick":1440,"cur":1441,"yes":1442,"moments":1443,"##oles":1444,"##aring":1445,"episode":1446,"wonderful":1447,"##gr":1448,"##iness":1449,"live":1450,"walk":1451,"##air":1452,"##olog":1453,"desp":1454,"sn":1455,"dem":1456,"terrible":1457,"##ott":1458,"cent":1459,"playing":1460,"fant":1461,"##ric":1462,"getting":1463,"mother":1464,"##sel":1465,"humor":1466,"##ories":1467,"written":1468,"##ased":1469,"##lish":1470,"har":1471,"##rib":1472,"early":1473,"doing":1474,"master":1475,"often":1476,"style":1477,"##ins":1478,"develop":1479,"others":1480,"pop":1481,"##ility":1482,"actress":1483,"definitely":1484,"gives":1485,"brilli":1486,"dav":1487,"unfortun":1488,"##mer":1489,"guess":1490,"mag":1491,"##unch":1492,"itself":1493,"stop":1494,"##amp":1495,"lines":1496,"case":1497,"lost":1498,"##ief":1499,"##ler":1500,"become":1501,"dialogue":1502,"piece":1503,"##ison":1504,"trans":1505,"finally":1506,"##ork":1507,"felt":1508,"strong":1509,"quest":1510,"white":1511,"capt":1512,"impress":1513,"##enn":1514,"cinema":1515,"##ized":1516,"oh":1517,"liked":1518,",\"":1519,"thrill":1520,"##ming":1521,"val":1522,"##kes":1523,"children":1524,"##cum":1525,"##med":1526,"couldn":1527,"side":1528,"##ined":1529,"son":1530,"extre":1531,"##ident":1532,"title":1533,"##body":1534,"close":1535,"pur":1536,"##ibly":1537,"..":1538,"picture":1539,"absolutely":1540,"went":1541,"cann":1542,"##ael":1543,"##ows":1544,"##ush":1545,"uni":1546,"##ony":1547,"against":1548,"unc":1549,"##ouch":1550,"evil":1551,"waste":1552,"worse":1553,"certainly":1554,"mention":1555,"vict":1556,"past":1557,"##ont":1558,"succ":1559,"killer":1560,"nov":1561,"deli":1562,"brilliant":1563,"support":1564,"town":1565,"entertaining":1566,"hit":1567,"##oid":1568,"overall":1569,"contr":1570,"##ley":1571,"adm":1572,"fans":1573,"called":1574,"based":1575,"relations":1576,"loved":1577,"rock":1578,"beginning":1579,"fair":1580,"spoil":1581,"extreme":1582,"several":1583,"stre":1584,"##illy":1585,"hon":1586,"##imes":1587,"##arth":1588,"pet":1589,"drama":1590,"##my":1591,"et":1592,"##ump":1593,"##ular":1594,"list":1595,"lives":1596,"pred":1597,"##ract":1598,"pat":1599,"##ready":1600,"##ured":1601,"direction":1602,"##used":1603,"dev":1604,"psy":1605,"wood":1606,"already":1607,"becomes":1608,"la":1609,"del":1610,"psych":1611,"##ams":1612,"med":1613,"inf":1614,"example":1615,"michael":1616,"##yn":1617,"success":1618,"break":1619,"##rif":1620,"despite":1621,"##selves":1622,"seemed":1623,"fine":1624,"zomb":1625,"throughout":1626,"##orn":1627,"##eng":1628,"unfortunately":1629,"wanted":1630,"vill":1631,"##ision":1632,"##tern":1633,"je":1634,"##aughter":1635,"stra":1636,"final":1637,"self":1638,"history":1639,"writing":1640,"##amed":1641,"##line":1642,"relationship":1643,"game":1644,"touch":1645,"amazing":1646,"tech":1647,"##ms":1648,"##osp":1649,"##ior":1650,"##king":1651,"rep":1652,"fem":1653,"200":1654,"totally":1655,"num":1656,"guys":1657,"##play":1658,"quality":1659,"cult":1660,"ant":1661,"annoy":1662,"pick":1663,"fre":1664,"soon":1665,"occ":1666,"works":1667,"wants":1668,"gun":1669,"tre":1670,"##ement":1671,"sci":1672,"behind":1673,"deser":1674,"lar":1675,"tom":1676,"##ove":1677,"prom":1678,"tries":1679,"mot":1680,"##oup":1681,"cost":1682,"##ister":1683,"##orge":1684,"ben":1685,"days":1686,"mark":1687,"##ided":1688,"maj":1689,"foot":1690,"##uss":1691,"viewer":1692,"able":1693,"eff":1694,"comment":1695,"appar":1696,"##riend":1697,"manag":1698,"genre":1699,"stuff":1700,"##ains":1701,"mad":1702,"##ape":1703,"turns":1704,"swe":1705,"!!!":1706,"##ged":1707,"enjoyed":1708,"today":1709,"shoot":1710,"deal":1711,".)":1712,"novel":1713,"prop":1714,"docum":1715,"wish":1716,"sol":1717,"##cess":1718,"prof":1719,"favorite":1720,"late":1721,"eyes":1722,"##ination":1723,"hell":1724,"techn":1725,"import":1726,"fig":1727,"##ts":1728,"crit":1729,"contin":1730,"etc":1731,"learn":1732,"age":1733,"sle":1734,"##unk":1735,"##ude":1736,"starts":1737,"met":1738,"##iss":1739,"sometimes":1740,"gave":1741,"incred":1742,"lea":1743,"appear":1744,"bur":1745,"bus":1746,"typ":1747,"##ese":1748,"girls":1749,"susp":1750,"city":1751,"level":1752,"##ger":1753,"directed":1754,"moment":1755,"##ution":1756,"horrible":1757,"##by":1758,"intell":1759,"##itive":1760,"exact":1761,"parts":1762,"speak":1763,"situ":1764,"##ards":1765,"const":1766,"inde":1767,"themselves":1768,"stories":1769,"thinking":1770,"##ific":1771,"robert":1772,"du":1773,"##ench":1774,"##using":1775,"major":1776,"return":1777,"hot":1778,"opp":1779,"musical":1780,"event":1781,"voice":1782,"cinemat":1783,"type":1784,"document":1785,"group":1786,"room":1787,"obviously":1788,"brit":1789,"##etic":1790,"decent":1791,"bab":1792,"plan":1793,"##iving":1794,"hop":1795,"non":1796,"paul":1797,"##vable":1798,"writer":1799,"##astic":1800,"bro":1801,"matter":1802,"highly":1803,"myself":1804,"##ural":1805,"mil":1806,"##yp":1807,"feeling":1808,"daughter":1809,"hus":1810,"rent":1811,"##iet":1812,"teen":1813,"##old":1814,"four":1815,"hilar":1816,"ridicul":1817,"chang":1818,"ger":1819,"##band":1820,"anyway":1821,"##ered":1822,"##where":1823,"effort":1824,"mill":1825,"weak":1826,"roles":1827,"##ung":1828,"tele":1829,"heard":1830,"killed":1831,"king":1832,"says":1833,"marri":1834,"convin":1835,"leave":1836,"police":1837,"husband":1838,"!!":1839,"james":1840,"hold":1841,"##antly":1842,"!)":1843,"##ising":1844,"##like":1845,"took":1846,"....":1847,"predict":1848,"cannot":1849,"ridiculous":1850,"rating":1851,"##ipp":1852,"strange":1853,"violence":1854,"air":1855,"##dle":1856,"fut":1857,"living":1858,"##ma":1859,"bring":1860,"mel":1861,"gar":1862,"shock":1863,"stay":1864,"known":1865,"happens":1866,"cool":1867,"##ross":1868,"##gan":1869,"##dy":1870,"particularly":1871,"mart":1872,"##antic":1873,"involved":1874,"happened":1875,"season":1876,"chance":1877,"##up":1878,"crap":1879,"step":1880,"##ax":1881,"gore":1882,"none":1883,"wouldn":1884,"extremely":1885,"##els":1886,"check":1887,"esc":1888,"##gn":1889,"camp":1890,"var":1891,"er":1892,"told":1893,"coming":1894,"polit":1895,"##ien":1896,"alone":1897,"hilarious":1898,"##eless":1899,"opin":1900,"experience":1901,"##ering":1902,"order":1903,"david":1904,"cheap":1905,"law":1906,"pot":1907,"pay":1908,"result":1909,"including":1910,"country":1911,"clich":1912,"please":1913,"deep":1914,"pos":1915,"body":1916,"sil":1917,"##he":1918,"ru":1919,"quick":1920,"cat":1921,"land":1922,"simple":1923,"desc":1924,"lou":1925,"##gu":1926,"##right":1927,"honest":1928,"ten":1929,"##lt":1930,"sum":1931,"dest":1932,"spir":1933,"ago":1934,"forget":1935,"score":1936,"##zy":1937,"jap":1938,"##mak":1939,"##ik":1940,"##urb":1941,"save":1942,"##ett":1943,"phot":1944,"##iest":1945,"foc":1946,"english":1947,"ill":1948,"osc":1949,"##iff":1950,"earth":1951,"number":1952,"japan":1953,"##lling":1954,"##ential":1955,"looked":1956,"fill":1957,"sent":1958,"##ether":1959,"frank":1960,"career":1961,"huge":1962,"myst":1963,"##cer":1964,"##ek":1965,"suff":1966,"seriously":1967,"##esh":1968,"##owing":1969,"fur":1970,"##vision":1971,"possible":1972,"annoying":1973,"treat":1974,"##use":1975,"##arch":1976,"similar":1977,"sor":1978,"exactly":1979,"##bo":1980,"shown":1981,"apart":1982,"avoid":1983,"running":1984,"##ational":1985,"##akes":1986,"sym":1987,"scary":1988,"taken":1989,"yourself":1990,"198":1991,"##outh":1992,"reality":1993,"mist":1994,"whose":1995,"secret":1996,"released":1997,"cinematography":1998,"near":1999,"ends":2000,"mc":2001,"##uck":2002,"dam":2003,"usually":2004,"##co":2005,"hours":2006,"prem":2007,"jokes":2008,"opening":2009,"ult":2010,"straight":2011,"post":2012,"##ances":2013,"ones":2014,"dog":2015,"modern":2016,"##side":2017,"197":2018,"ear":2019,"sam":2020,"wes":2021,"across":2022,"##nded":2023,"##enty":2024,"middle":2025,"##br":2026,"willi":2027,"##what":2028,"##nds":2029,"usual":2030,"opinion":2031,"somewhat":2032,"gold":2033,"happy":2034,"talent":2035,"##ustr":2036,"doub":2037,"change":2038,"pull":2039,"ut":2040,"cla":2041,"started":2042,"!\"":2043,"##itting":2044,"narr":2045,"##ina":2046,"filmmak":2047,"eye":2048,"\")":2049,"single":2050,"##ram":2051,"##ino":2052,"##ground":2053,"##iety":2054,"##wards":2055,"***":2056,"taking":2057,"talking":2058,"##bel":2059,"documentary":2060,"fi":2061,"build":2062,"##ator":2063,"gh":2064,"odd":2065,"exist":2066,"##ival":2067,"##ians":2068,"finds":2069,"shots":2070,"among":2071,"prot":2072,"saying":2073,"female":2074,"ask":2075,"intr":2076,"mostly":2077,"cart":2078,"sold":2079,"episodes":2080,"richard":2081,"fast":2082,"jer":2083,"subject":2084,"suspense":2085,"bill":2086,"five":2087,"sign":2088,"meet":2089,"important":2090,"##ec":2091,"##ield":2092,"exp":2093,"turned":2094,"##ones":2095,"##otic":2096,"##ugg":2097,"##anger":2098,"deliver":2099,"##sh":2100,"inn":2101,"respect":2102,"apparently":2103,"disappointed":2104,"##lic":2105,"due":2106,"aren":2107,"##form":2108,"creep":2109,"local":2110,"20":2111,"remind":2112,"vir":2113,"atm":2114,"events":2115,"box":2116,"songs":2117,"emb":2118,"intellig":2119,"attention":2120,"basically":2121,"atmosp":2122,"comic":2123,"television":2124,"space":2125,"future":2126,"jud":2127,"knows":2128,"british":2129,"##ubb":2130,"bey":2131,"199":2132,"clearly":2133,"romantic":2134,"supporting":2135,"knew":2136,"##ball":2137,"thriller":2138,"cap":2139,"##ald":2140,"##ants":2141,"compl":2142,"easily":2143,"stun":2144,"dream":2145,"silly":2146,"adult":2147,"lo":2148,"pub":2149,"present":2150,"problems":2151,"free":2152,"words":2153,"##iction":2154,"##eth":2155,"detail":2156,"pleas":2157,"##iel":2158,"##rack":2159,"tells":2160,"##ises":2161,"entertainment":2162,"gang":2163,"##ike":2164,"appre":2165,"die":2166,"team":2167,"ham":2168,"forg":2169,"sequence":2170,"den":2171,"sexual":2172,"hands":2173,"lady":2174,"dull":2175,"##ital":2176,"##ished":2177,"beyond":2178,"mater":2179,"norm":2180,"george":2181,"##iod":2182,"attack":2183,"grand":2184,"##ats":2185,"##lly":2186,"##ili":2187,"oscar":2188,"##ox":2189,"unlike":2190,"upon":2191,"##usion":2192,"fell":2193,"question":2194,"whether":2195,"suck":2196,"theat":2197,"moving":2198,"predictable":2199,"##ental":2200,"aspect":2201,"appreci":2202,"hate":2203,"prog":2204,"twist":2205,"sets":2206,"york":2207,"falls":2208,"##rop":2209,"explain":2210,"mystery":2211,"cover":2212,"##orable":2213,"##ury":2214,"fire":2215,"##ky":2216,"mer":2217,"period":2218,"german":2219,"material":2220,"van":2221,"enjoyable":2222,"##how":2223,"needs":2224,"appears":2225,"hun":2226,"giving":2227,"los":2228,"lee":2229,"##ots":2230,"match":2231,"##oul":2232,"adapt":2233,"previous":2234,"feature":2235,"stri":2236,"##asy":2237,"within":2238,"##ension":2239,"french":2240,"actual":2241,"##gy":2242,"comb":2243,"ultim":2244,"message":2245,"##den":2246,"theater":2247,"##oof":2248,"trou":2249,"path":2250,"animation":2251,"wind":2252,"tar":2253,"sister":2254,"##asc":2255,"joe":2256,"prin":2257,"##arely":2258,"insp":2259,"bunch":2260,"pac":2261,"above":2262,"sequel":2263,"clear":2264,"##path":2265,"victim":2266,"theme":2267,"wait":2268,"##wise":2269,"nearly":2270,"surv":2271,"haven":2272,"points":2273,"ways":2274,"easy":2275,"herself":2276,"flaw":2277,"doubt":2278,"est":2279,"feels":2280,"setting":2281,"superb":2282,"ca":2283,"release":2284,"aff":2285,"hall":2286,"truth":2287,"##nding":2288,"storyline":2289,"slight":2290,"hom":2291,"lots":2292,"named":2293,"surprised":2294,"using":2295,"visual":2296,"fantastic":2297,"##ires":2298,"##ices":2299,"clim":2300,"third":2301,"advent":2302,"'.":2303,"begins":2304,"working":2305,"ine":2306,"##ength":2307,"personal":2308,"##dden":2309,"?)":2310,"roll":2311,"minute":2312,"famous":2313,"jim":2314,"tale":2315,"##essed":2316,"western":2317,"##ctor":2318,"sudden":2319,"weird":2320,"viewers":2321,"buy":2322,"##sw":2323,"general":2324,"##icult":2325,"elements":2326,"large":2327,"reve":2328,"disney":2329,"accept":2330,"##track":2331,"dumb":2332,"##ps":2333,"hear":2334,"deb":2335,"comments":2336,"drug":2337,"##ining":2338,"##aught":2339,"soundtrack":2340,"typical":2341,"##ana":2342,"##imin":2343,"showing":2344,"editing":2345,"lat":2346,"difficult":2347,"wall":2348,"sugg":2349,"obs":2350,"tried":2351,"peter":2352,"##res":2353,"express":2354,"sorry":2355,"suggest":2356,"pal":2357,"auth":2358,"wild":2359,"flash":2360,"aver":2361,"##light":2362,"##uses":2363,"filmed":2364,"contain":2365,"figure":2366,"catch":2367,"##iters":2368,"decided":2369,"parents":2370,"means":2371,"crime":2372,"front":2373,"fly":2374,"mix":2375,"vamp":2376,"realistic":2377,"compan":2378,"cal":2379,"##omin":2380,"oper":2381,"somehow":2382,"park":2383,"##ope":2384,"stage":2385,"exec":2386,"profess":2387,"gone":2388,"',":2389,"lame":2390,"project":2391,"water":2392,"##ening":2393,"##onic":2394,"kept":2395,"viewing":2396,"leads":2397,"?\"":2398,"utter":2399,"soc":2400,"dance":2401,"business":2402,"street":2403,"une":2404,"greatest":2405,"zombie":2406,"195":2407,"##na":2408,"##alian":2409,"atmosphere":2410,"note":2411,"brought":2412,"meaning":2413,"beat":2414,"##opp":2415,"imagine":2416,"##omp":2417,"whate":2418,"introdu":2419,"pure":2420,"##ceed":2421,"whatever":2422,"shame":2423,"move":2424,"ghost":2425,"lim":2426,"liter":2427,"male":2428,"particular":2429,"band":2430,"iss":2431,"heav":2432,"america":2433,"sequences":2434,"conne":2435,"##ially":2436,"average":2437,"sens":2438,"revol":2439,"indeed":2440,"background":2441,"baby":2442,"eventually":2443,"eur":2444,"##lin":2445,"reviews":2446,"hy":2447,"spirit":2448,"jump":2449,"surprise":2450,"japanese":2451,"okay":2452,"##db":2453,"poorly":2454,"fu":2455,"##back":2456,"nature":2457,"premise":2458,"believable":2459,"##oose":2460,"##ively":2461,"193":2462,"strugg":2463,"possibly":2464,"sleep":2465,"wit":2466,"girlf":2467,"chees":2468,"sweet":2469,"expected":2470,"earli":2471,"jane":2472,"tast":2473,"teach":2474,"imdb":2475,"phil":2476,"##bers":2477,"public":2478,"##head":2479,"ver":2480,"starr":2481,"forward":2482,"##ously":2483,"masterp":2484,"became":2485,"thank":2486,"appeal":2487,"##ored":2488,"screenplay":2489,"killing":2490,"commun":2491,"romance":2492,"further":2493,"hur":2494,"clos":2495,"terrif":2496,"stick":2497,"costum":2498,"rand":2499,"##uted":2500,"scott":2501,"ball":2502,"##mas":2503,"##zz":2504,"reading":2505,"girlfriend":2506,"mach":2507,"jul":2508,"##com":2509,"needed":2510,"leaves":2511,"lang":2512,"ach":2513,"conv":2514,"fasc":2515,"##iences":2516,"villain":2517,"jour":2518,"trad":2519,"##bert":2520,"mass":2521,"meets":2522,"directors":2523,"society":2524,"mo":2525,"sick":2526,"enc":2527,"unless":2528,"credits":2529,"##ogn":2530,"write":2531,"bored":2532,"prison":2533,"otherwise":2534,"battle":2535,"fran":2536,"uns":2537,"situation":2538,"meant":2539,"##....":2540,"resp":2541,"dramatic":2542,"luck":2543,"refer":2544,"bother":2545,"da":2546,"##key":2547,"design":2548,"##hood":2549,"##ges":2550,"monster":2551,"memorable":2552,"emotion":2553,"unique":2554,"burn":2555,"##ages":2556,"badly":2557,"flat":2558,"earlier":2559,"##emy":2560,"writers":2561,"clever":2562,"##overs":2563,"forced":2564,"emotional":2565,"acted":2566,"hair":2567,"laughs":2568,"##inc":2569,"inte":2570,"crazy":2571,"pu":2572,"social":2573,"older":2574,"##ai":2575,"##bs":2576,"beauty":2577,"disturb":2578,"total":2579,"realize":2580,"mir":2581,"##gs":2582,"##rap":2583,"fantasy":2584,"30":2585,"##cers":2586,"interested":2587,"##ding":2588,"##roy":2589,"fred":2590,"footage":2591,"stere":2592,"##pend":2593,"trash":2594,"concept":2595,"rad":2596,"und":2597,"impr":2598,"popular":2599,"gay":2600,"sal":2601,"##rit":2602,"allow":2603,"ale":2604,"##por":2605,"whom":2606,"plus":2607,"sounds":2608,"##lie":2609,"##oph":2610,"directing":2611,"##isf":2612,"features":2613,"development":2614,"cartoon":2615,"##uct":2616,"keeps":2617,"##rupt":2618,"ble":2619,"nud":2620,"cond":2621,"##uc":2622,"##fer":2623,"repr":2624,"colle":2625,"doctor":2626,"196":2627,"quickly":2628,"creepy":2629,"towards":2630,"##aked":2631,"perfectly":2632,"histor":2633,"##aking":2634,"green":2635,"mac":2636,"worked":2637,"??":2638,"cheesy":2639,"##row":2640,"brings":2641,"##cessary":2642,"rate":2643,"plenty":2644,"imm":2645,"cir":2646,"##view":2647,"occas":2648,"##ula":2649,"christmas":2650,"incredibly":2651,"answ":2652,"collect":2653,"innoc":2654,"dad":2655,"##ara":2656,"repe":2657,"les":2658,"##ived":2659,"joke":2660,"kick":2661,"##ius":2662,"casting":2663,"ign":2664,"leading":2665,"discover":2666,"##iliar":2667,"bed":2668,"##gest":2669,"##ites":2670,"sun":2671,"admit":2672,"desper":2673,"brain":2674,"powerful":2675,"potential":2676,"era":2677,"boys":2678,"william":2679,"##real":2680,"##ague":2681,"ess":2682,"copy":2683,"fest":2684,"##ches":2685,"telling":2686,"stereot":2687,"appro":2688,"hardly":2689,"masterpiece":2690,"cas":2691,"##ero":2692,"track":2693,"create":2694,"mary":2695,"##olf":2696,"political":2697,"recogn":2698,"various":2699,"##str":2700,"attract":2701,"fighting":2702,"purp":2703,"agree":2704,"invest":2705,"fails":2706,"langu":2707,"80":2708,"neg":2709,"cru":2710,"##ken":2711,"scient":2712,"##inger":2713,"portrayed":2714,"log":2715,"plain":2716,"cold":2717,"pie":2718,"island":2719,"inside":2720,"extra":2721,"color":2722,"bull":2723,"outside":2724,"nudity":2725,"##venge":2726,"##let":2727,"reasons":2728,"claim":2729,"phys":2730,"ideas":2731,"crew":2732,"relig":2733,"missing":2734,"ce":2735,"stat":2736,"fear":2737,"amount":2738,"##ips":2739,"broad":2740,"positive":2741,"mas":2742,"deserves":2743,"doll":2744,"married":2745,"##more":2746,"trail":2747,"cry":2748,"##ivid":2749,"expecting":2750,"fairly":2751,"##lect":2752,"talented":2753,"15":2754,"ur":2755,"##bor":2756,"sympath":2757,"embarr":2758,"react":2759,"##ology":2760,"cute":2761,"remake":2762,"attempts":2763,"spoilers":2764,"manages":2765,"##ills":2766,"194":2767,"fat":2768,"##--":2769,"ident":2770,"embarrass":2771,"sand":2772,"scar":2773,"recently":2774,"##itty":2775,"##belie":2776,"achie":2777,"##ene":2778,"offic":2779,"##berg":2780,"danger":2781,"fit":2782,"##wart":2783,"sadly":2784,"wrote":2785,"bri":2786,"##ishing":2787,"subtle":2788,"ri":2789,"mood":2790,"porn":2791,"tur":2792,"##...":2793,"myster":2794,"familiar":2795,"hol":2796,"remark":2797,"depth":2798,"soul":2799,"##asher":2800,"destroy":2801,"reveal":2802,"biz":2803,"rap":2804,"office":2805,"##arre":2806,"chem":2807,"lege":2808,"arr":2809,"##itted":2810,"following":2811,"detect":2812,"filmmakers":2813,"unbelie":2814,"accident":2815,"missed":2816,"##istry":2817,"mentioned":2818,"delight":2819,"requ":2820,"incredible":2821,"kar":2822,"ram":2823,"##aces":2824,"cross":2825,"record":2826,"medi":2827,"common":2828,"reach":2829,"wasted":2830,"lab":2831,"brief":2832,"funn":2833,"control":2834,"90":2835,"din":2836,"##off":2837,"angel":2838,"members":2839,"brothers":2840,"escape":2841,"europe":2842,"intri":2843,"ended":2844,"caught":2845,"##gar":2846,"revenge":2847,"amb":2848,"produced":2849,"ber":2850,"pace":2851,"##friend":2852,"draw":2853,"fash":2854,"##lu":2855,"##go":2856,"scream":2857,"approach":2858,"##ders":2859,"##alth":2860,"idi":2861,"filled":2862,"immed":2863,"party":2864,"chann":2865,"science":2866,"##agon":2867,"complex":2868,"waiting":2869,"victor":2870,"cand":2871,"credit":2872,"##lusion":2873,"decides":2874,"solid":2875,"##oe":2876,"considering":2877,"bes":2878,"tension":2879,"##ient":2880,"##iny":2881,"immedi":2882,"(\"":2883,"rece":2884,"haun":2885,"comput":2886,"pointless":2887,"created":2888,"mere":2889,"##izing":2890,"slightly":2891,"crimin":2892,"uses":2893,"slasher":2894,"sees":2895,"intern":2896,"travel":2897,"regard":2898,"convincing":2899,"compared":2900,"imposs":2901,"former":2902,"suddenly":2903,"breat":2904,"cause":2905,"tough":2906,"##ey":2907,"neither":2908,"spent":2909,"numb":2910,"force":2911,"magic":2912,"anti":2913,"intelligent":2914,"road":2915,"state":2916,"##erv":2917,"##rage":2918,"glad":2919,"entirely":2920,"forgot":2921,"six":2922,"##ral":2923,"##ades":2924,"dancing":2925,"language":2926,"gover":2927,"##ned":2928,"##eem":2929,"italian":2930,"moves":2931,"choice":2932,"kills":2933,"wer":2934,"search":2935,"##oop":2936,"##acy":2937,"store":2938,"laughing":2939,"century":2940,"trouble":2941,"##work":2942,"##ibility":2943,"##esome":2944,"basic":2945,"value":2946,"bizarre":2947,"manner":2948,"successful":2949,"tony":2950,"witch":2951,"##itation":2952,"violent":2953,"satisf":2954,"heavy":2955,"tort":2956,"##par":2957,"week":2958,"ultimately":2959,"dim":2960,"singing":2961,"exciting":2962,"harr":2963,"##urs":2964,"suspect":2965,"test":2966,"##gic":2967,"zombies":2968,"ground":2969,"news":2970,"studio":2971,"natural":2972,"##orm":2973,"suit":2974,"##ries":2975,"key":2976,"smith":2977,"animated":2978,"company":2979,"stereotyp":2980,"ran":2981,"west":2982,"arri":2983,"faith":2984,"genu":2985,"biggest":2986,"accent":2987,"fol":2988,"trip":2989,"continu":2990,"mal":2991,"##lict":2992,"died":2993,"terror":2994,"runs":2995,"pack":2996,"##uit":2997,"##uce":2998,"effective":2999,"ted":3000,"##isingly":3001,"recent":3002,"spend":3003,"adventure":3004,"amusing":3005,"focus":3006,"fashion":3007,"bomb":3008,"##wr":3009,"fort":3010,"##iment":3011,"compe":3012,"##aging":3013,"portrayal":3014,"critic":3015,"hid":3016,"rated":3017,"brut":3018,"planet":3019,"appreciate":3020,"genuine":3021,"shar":3022,"concern":3023,"milit":3024,"repres":3025,"books":3026,"bond":3027,"lad":3028,"ray":3029,"ii":3030,"south":3031,"alien":3032,"younger":3033,"##iers":3034,"##inary":3035,"##pped":3036,"awesome":3037,"drag":3038,"##rew":3039,"stan":3040,"fascin":3041,"tone":3042,"##come":3043,"##ilt":3044,"impressive":3045,"opportun":3046,"alex":3047,"govern":3048,"squ":3049,"##la":3050,"##ze":3051,"explo":3052,"follows":3053,"gri":3054,"##ened":3055,"depress":3056,"legend":3057,"50":3058,"seg":3059,"spot":3060,"college":3061,"wal":3062,"afric":3063,"culture":3064,"impossible":3065,"##iced":3066,"carry":3067,"pract":3068,"fool":3069,"hen":3070,"smo":3071,"product":3072,"magn":3073,"##oved":3074,"##standing":3075,"producers":3076,"depict":3077,"weren":3078,"thanks":3079,"makers":3080,"conclusion":3081,"chemistry":3082,"dir":3083,"tor":3084,"##une":3085,"showed":3086,"recommended":3087,"##ring":3088,"##bage":3089,"amate":3090,"##ribly":3091,"loud":3092,"taste":3093,"pers":3094,"exception":3095,"situations":3096,"starring":3097,"que":3098,"rain":3099,"##rated":3100,"compet":3101,"favour":3102,"door":3103,"disturbing":3104,"ast":3105,"hang":3106,"##ried":3107,"leg":3108,"flo":3109,"steve":3110,"considered":3111,"proper":3112,"changed":3113,"barely":3114,"##ager":3115,"minor":3116,"failed":3117,"purpose":3118,"##ron":3119,"##ette":3120,"somewhere":3121,"decide":3122,"leaving":3123,"million":3124,"boss":3125,"repl":3126,"pictures":3127,"author":3128,"vo":3129,"##ensive":3130,"##aced":3131,"questions":3132,"shooting":3133,"disg":3134,"longer":3135,"lif":3136,"##ppy":3137,"100":3138,"equ":3139,"fiction":3140,"audiences":3141,"bott":3142,"pan":3143,"fake":3144,"assum":3145,"normal":3146,"fox":3147,"aside":3148,"neigh":3149,"nightm":3150,"dick":3151,"russ":3152,"##bl":3153,"addition":3154,"computer":3155,"cow":3156,"tem":3157,"##xic":3158,"##ode":3159,"##ounter":3160,"stewart":3161,"images":3162,"wise":3163,"##ha":3164,"##sters":3165,"wee":3166,"charming":3167,"ups":3168,"##ological":3169,"mi":3170,"##ham":3171,"club":3172,"harry":3173,"pathetic":3174,"lond":3175,"##de":3176,"##att":3177,"throw":3178,"award":3179,"##ization":3180,"generally":3181,"stunning":3182,"literally":3183,"##fort":3184,"##arily":3185,"grant":3186,"values":3187,"journey":3188,"proc":3189,"indian":3190,"likes":3191,"surprisingly":3192,"redeem":3193,"alive":3194,"involving":3195,"jeff":3196,"london":3197,"##ka":3198,"noir":3199,"##izes":3200,"humour":3201,"affect":3202,"cliche":3203,"channel":3204,"yeah":3205,"grade":3206,"mysterious":3207,"immediately":3208,"military":3209,"sar":3210,"length":3211,"train":3212,"motion":3213,"garbage":3214,"unex":3215,"detective":3216,"##ee":3217,"finish":3218,"bought":3219,"fresh":3220,"drive":3221,"random":3222,"chur":3223,"amateur":3224,"mouth":3225,"smart":3226,"impression":3227,"hey":3228,"##ille":3229,"ability":3230,"##aged":3231,"remain":3232,"christian":3233,"honestly":3234,"##boy":3235,"##urd":3236,"army":3237,"##aper":3238,"serv":3239,"genius":3240,"##ifully":3241,"standard":3242,"barb":3243,"adaptation":3244,"utterly":3245,"investig":3246,"suc":3247,"nobody":3248,"indust":3249,"complain":3250,"spect":3251,"##aa":3252,"##lla":3253,"##sey":3254,"bob":3255,"mult":3256,"sitting":3257,"notice":3258,"demon":3259,"appearance":3260,"tradition":3261,"bi":3262,"rare":3263,"inform":3264,"blond":3265,"serial":3266,"insult":3267,"succeed":3268,"11":3269,"chase":3270,"##opher":3271,"##anna":3272,"climax":3273,"bottom":3274,"70":3275,"knowing":3276,"##while":3277,"rog":3278,"##min":3279,"##to":3280,"personally":3281,"graph":3282,"naked":3283,"sexy":3284,"jes":3285,"chris":3286,"wow":3287,"thin":3288,"nowhere":3289,"absurd":3290,"gem":3291,"blue":3292,"##ified":3293,"edge":3294,"der":3295,"paris":3296,"##room":3297,"threat":3298,"added":3299,"silent":3300,"pil":3301,"##idence":3302,"charlie":3303,"remains":3304,"comedies":3305,"walking":3306,"gag":3307,"##ging":3308,"##rel":3309,"date":3310,"##vey":3311,"twists":3312,"thinks":3313,"producer":3314,"curr":3315,"18":3316,"##die":3317,"##ops":3318,"beautifully":3319,"dreams":3320,"##ena":3321,"sell":3322,"charm":3323,"##lessly":3324,"touching":3325,"terrific":3326,"unbelievable":3327,"mild":3328,"##wor":3329,"batman":3330,"witness":3331,"eq":3332,"##mon":3333,"terms":3334,"boyfriend":3335,"##ases":3336,"##sequ":3337,"arch":3338,"breath":3339,"equally":3340,"ring":3341,"##erous":3342,"init":3343,"fore":3344,"ash":3345,"chall":3346,"##appe":3347,"interview":3348,"surr":3349,"compar":3350,"accur":3351,"government":3352,"##cast":3353,"##ores":3354,"##stem":3355,"kelly":3356,"drawn":3357,"##rey":3358,"bal":3359,"##ped":3360,"sher":3361,"spl":3362,"##cif":3363,"##rick":3364,"##ify":3365,"month":3366,"steph":3367,"connect":3368,"church":3369,"boo":3370,"fully":3371,"ju":3372,"joy":3373,"ride":3374,"##ios":3375,"mistake":3376,"base":3377,"cg":3378,"defe":3379,"drunk":3380,"conflict":3381,"managed":3382,"narrative":3383,"##cious":3384,"##aly":3385,"lovely":3386,"laughable":3387,"element":3388,"system":3389,"pieces":3390,"intrigu":3391,"##mark":3392,"##icious":3393,"##anda":3394,"themes":3395,"vampire":3396,"##vent":3397,"likely":3398,"block":3399,"passion":3400,"soldiers":3401,"##uster":3402,"disappointing":3403,"cele":3404,"rac":3405,"##men":3406,"thus":3407,"chick":3408,"##unt":3409,"##ropri":3410,"##itions":3411,"excuse":3412,"avail":3413,"issues":3414,"##gen":3415,"##ica":3416,"##iring":3417,"outstanding":3418,"justice":3419,"painful":3420,"spoiler":3421,"costumes":3422,"##aven":3423,"##gl":3424,"surely":3425,"marriage":3426,"affair":3427,"flashback":3428,"innocent":3429,"aut":3430,"bon":3431,"host":3432,"jones":3433,"na":3434,"moral":3435,"christopher":3436,"constantly":3437,"##vert":3438,"arg":3439,"presented":3440,"central":3441,"respons":3442,"trick":3443,"prep":3444,"lord":3445,"##isc":3446,"individ":3447,"cinematic":3448,"##uff":3449,"everybody":3450,"slowly":3451,"jew":3452,"places":3453,"influ":3454,"contains":3455,"##oes":3456,"shall":3457,"charles":3458,"offer":3459,"presence":3460,"animals":3461,"details":3462,"medioc":3463,"besides":3464,"##vir":3465,"thrown":3466,"jean":3467,"historical":3468,"moon":3469,"##ched":3470,"woods":3471,"round":3472,"allen":3473,"trust":3474,"scenery":3475,"loves":3476,"steal":3477,"hoping":3478,"escap":3479,"photography":3480,"program":3481,"henry":3482,"surf":3483,"buff":3484,"independ":3485,"##aine":3486,"##oughly":3487,"disappointment":3488,"speaking":3489,"nast":3490,"page":3491,"##ole":3492,"expectations":3493,"developed":3494,"arth":3495,"numbers":3496,"rip":3497,"sight":3498,"thor":3499,"soft":3500,"##ability":3501,"div":3502,"buck":3503,"double":3504,"pen":3505,"roy":3506,"impact":3507,"commer":3508,"ahead":3509,"##imp":3510,"fright":3511,"sport":3512,"univers":3513,"40":3514,"eight":3515,"names":3516,"##verse":3517,"behav":3518,"festival":3519,"arm":3520,"suppose":3521,"stands":3522,"critics":3523,"hotel":3524,"describ":3525,"aspects":3526,"opera":3527,"loose":3528,"##mm":3529,"##arsh":3530,"lover":3531,"fascinating":3532,"dies":3533,"anth":3534,"##irth":3535,"impl":3536,"##itude":3537,"heaven":3538,"crow":3539,"feelings":3540,"subst":3541,"discuss":3542,"building":3543,"eat":3544,"##kn":3545,"##ki":3546,"forever":3547,"held":3548,"acts":3549,"ener":3550,"intense":3551,"clean":3552,"kr":3553,"filming":3554,"bruce":3555,"mainly":3556,"opportunity":3557,"ug":3558,"##icated":3559,"ship":3560,"student":3561,"surround":3562,"##uous":3563,"prim":3564,"cloth":3565,"##ford":3566,"hosp":3567,"drink":3568,"individual":3569,"zero":3570,"##oud":3571,"##icide":3572,"##eter":3573,"resem":3574,"sky":3575,"emotions":3576,"hurt":3577,"gorge":3578,"ros":3579,"traged":3580,"intended":3581,"available":3582,"12":3583,"san":3584,"object":3585,"celebr":3586,"sant":3587,"shakes":3588,"span":3589,"twice":3590,"correct":3591,"uncle":3592,"changes":3593,"born":3594,"protagon":3595,"compelling":3596,"cell":3597,"hat":3598,"##af":3599,"fellow":3600,"##inct":3601,"happening":3602,"likable":3603,"falling":3604,"nick":3605,"pun":3606,"tired":3607,"ww":3608,"lived":3609,"mexic":3610,"virt":3611,"##icip":3612,"##esty":3613,"canad":3614,"##ploy":3615,"puts":3616,"elect":3617,"summer":3618,"13":3619,"dubb":3620,"field":3621,"shad":3622,"grace":3623,"jerry":3624,"**":3625,"ban":3626,"hide":3627,"ment":3628,"wid":3629,"##ini":3630,"##ura":3631,"image":3632,"giant":3633,"confused":3634,"winning":3635,"qual":3636,"hasn":3637,"dress":3638,"artist":3639,"victims":3640,"trailer":3641,"arthur":3642,"billy":3643,"led":3644,"##edy":3645,"mont":3646,"difference":3647,"include":3648,"melod":3649,"adults":3650,"disgust":3651,"##olic":3652,"dread":3653,"martin":3654,"net":3655,"nons":3656,"steven":3657,"devil":3658,"commercial":3659,"followed":3660,"wed":3661,"##ok":3662,"##entially":3663,"priv":3664,"civ":3665,"content":3666,"appeared":3667,"##!!!!":3668,"jon":3669,"wide":3670,"##ta":3671,"##erm":3672,"share":3673,"##ribe":3674,"highlight":3675,"putting":3676,"##ruct":3677,"race":3678,"##abb":3679,"actresses":3680,"listen":3681,"gorgeous":3682,"##con":3683,"##table":3684,"##ession":3685,"scr":3686,"blind":3687,"quiet":3688,"laughed":3689,"confusing":3690,"negative":3691,"holes":3692,"lam":3693,"stone":3694,"scare":3695,"##ift":3696,"murders":3697,"damn":3698,"progress":3699,"mediocre":3700,"##orter":3701,"##iday":3702,"rape":3703,"multi":3704,"hospital":3705,"unus":3706,"americans":3707,"lacks":3708,"supposedly":3709,"dig":3710,"unne":3711,"flaws":3712,"ms":3713,"##rid":3714,"youth":3715,"##ples":3716,"latter":3717,"##onna":3718,"##ancy":3719,"agent":3720,"worthy":3721,"creative":3722,"occasion":3723,"answer":3724,"tragedy":3725,"ol":3726,"rout":3727,"seven":3728,"frustr":3729,"overl":3730,"brand":3731,"students":3732,"lighting":3733,"##ushed":3734,"relationships":3735,"bland":3736,"childhood":3737,"helps":3738,"dom":3739,"##eman":3740,"##text":3741,"wondering":3742,"proves":3743,"circ":3744,"funniest":3745,"merely":3746,"knock":3747,"disaster":3748,"finding":3749,"paid":3750,"oppos":3751,"estab":3752,"bank":3753,"##een":3754,"##ledge":3755,"flicks":3756,"flying":3757,"queen":3758,"birth":3759,"##roc":3760,"sem":3761,"fault":3762,"imagination":3763,"delivers":3764,"professional":3765,"ugly":3766,"lyn":3767,"alan":3768,"disappe":3769,"standards":3770,"irrit":3771,"davis":3772,"cliches":3773,"brian":3774,"folks":3775,"##ech":3776,"##ature":3777,"##raid":3778,"formula":3779,"market":3780,"forgotten":3781,"bright":3782,"lose":3783,"resc":3784,"tragic":3785,"attractive":3786,"##pping":3787,"remote":3788,"impressed":3789,"soldier":3790,"bak":3791,"hook":3792,"##aton":3793,"austr":3794,"lock":3795,"##field":3796,"display":3797,"stuck":3798,"provides":3799,"thoroughly":3800,"shakespe":3801,"civil":3802,"##uts":3803,"##ander":3804,"seconds":3805,"achieve":3806,"mut":3807,"##aries":3808,"##unny":3809,"##tend":3810,"seemingly":3811,"##azz":3812,"becoming":3813,"inspired":3814,"games":3815,"##lor":3816,"##yc":3817,"##oned":3818,"##ano":3819,"adam":3820,"consist":3821,"williams":3822,"reminded":3823,"spectac":3824,"rose":3825,"##ilities":3826,"offers":3827,"desert":3828,"##ountain":3829,"animal":3830,"depart":3831,"##ued":3832,"##itor":3833,"thats":3834,"faces":3835,"warning":3836,"industry":3837,"hack":3838,"turning":3839,"summ":3840,"cab":3841,"##ique":3842,"##anced":3843,"##read":3844,"states":3845,"afraid":3846,"castle":3847,"contem":3848,"acad":3849,"skin":3850,"collection":3851,"station":3852,"subt":3853,"robin":3854,"hidden":3855,"nasty":3856,"stock":3857,"crack":3858,"symb":3859,"melodram":3860,".,":3861,"aim":3862,"cook":3863,"food":3864,"rh":3865,"convers":3866,"##agger":3867,"willing":3868,"shouldn":3869,"artistic":3870,"##inese":3871,"court":3872,"creature":3873,"jackson":3874,"shocking":3875,"protect":3876,"##nia":3877,"##aud":3878,"carr":3879,"##pected":3880,"relative":3881,"wooden":3882,"apartment":3883,"sir":3884,"wars":3885,"##ban":3886,"conn":3887,"personality":3888,"location":3889,"virgin":3890,"scientist":3891,"rented":3892,"##zan":3893,"chinese":3894,"area":3895,"unkn":3896,"ready":3897,"adds":3898,"ice":3899,"tour":3900,"weap":3901,"brown":3902,"horse":3903,"vision":3904,"syn":3905,"angry":3906,"dirty":3907,"##asure":3908,"therefore":3909,"werew":3910,"prefer":3911,"speed":3912,"##well":3913,"information":3914,"punch":3915,"##ef":3916,"##yer":3917,"horrif":3918,"##azy":3919,"accord":3920,"lets":3921,"explan":3922,"filmmaker":3923,"jason":3924,"##house":3925,"##aur":3926,"##pret":3927,"##entious":3928,"chuck":3929,"unreal":3930,"anymore":3931,"warm":3932,"shakespeare":3933,"card":3934,"##hs":3935,"##aff":3936,"##yl":3937,"##orious":3938,"wel":3939,"clothes":3940,"east":3941,"hill":3942,"soph":3943,"unexpected":3944,"##under":3945,"danny":3946,"picked":3947,"martial":3948,"describe":3949,"##board":3950,"bath":3951,"jenn":3952,"lin":3953,"tay":3954,"##anic":3955,"asks":3956,"sac":3957,"favourite":3958,"fle":3959,"##ga":3960,"onto":3961,"##ands":3962,"craft":3963,"superior":3964,"captain":3965,"deserved":3966,"domin":3967,"hitch":3968,"member":3969,"sav":3970,"grad":3971,"strength":3972,"intelligence":3973,"struggle":3974,"stephen":3975,"mountain":3976,"##hic":3977,"##bles":3978,"##atter":3979,"##ita":3980,"wearing":3981,"grow":3982,"drugs":3983,"criminal":3984,"redeeming":3985,"mob":3986,"naz":3987,"rul":3988,"##asing":3989,"underst":3990,"compare":3991,"daniel":3992,"teenage":3993,"****":3994,"machine":3995,"allowed":3996,"cgi":3997,"##illa":3998,"necessary":3999,"tears":4000,"wonderfully":4001,"helped":4002,"target":4003,"radio":4004,"desperate":4005,"bog":4006,"lay":4007,"rubb":4008,"##und":4009,"##gory":4010,"##oted":4011,"max":4012,"accom":4013,"hund":4014,"repeated":4015,"religious":4016,"fab":4017,"jose":4018,"nomin":4019,"sis":4020,"##kin":4021,"moved":4022,"plane":4023,"##pective":4024,"phone":4025,"insight":4026,"dougl":4027,"theatre":4028,"##earch":4029,"press":4030,"brid":4031,"##ograp":4032,"##soever":4033,"##entional":4034,"includes":4035,"deeply":4036,"gam":4037,"##illing":4038,"whatsoever":4039,"research":4040,"##ipped":4041,"process":4042,"mcc":4043,"sour":4044,"andy":4045,"began":4046,"doz":4047,"humans":4048,"epic":4049,"powers":4050,"commentary":4051,"revolution":4052,".'":4053,"gent":4054,"loving":4055,"heroes":4056,"technical":4057,"nightmare":4058,"##oos":4059,"suicide":4060,"realized":4061,"joan":4062,"energy":4063,"hint":4064,"lind":4065,"sab":4066,"soap":4067,"carl":4068,"friendship":4069,"load":4070,"???":4071,"physical":4072,"taylor":4073,"rarely":4074,"##ium":4075,"unw":4076,"flesh":4077,"comedic":4078,"curious":4079,"brutal":4080,"independent":4081,"douglas":4082,"60":4083,"core":4084,"mental":4085,"sid":4086,"##itz":4087,"lew":4088,"empt":4089,"johnny":4090,"guns":4091,"teacher":4092,"cars":4093,"dying":4094,"kate":4095,"ry":4096,"##urally":4097,"actions":4098,"introduced":4099,"##ropriate":4100,"kiss":4101,"bear":4102,"arts":4103,"board":4104,"engaging":4105,"ron":4106,"##rors":4107,"desire":4108,"slap":4109,"employ":4110,"eddie":4111,"superman":4112,"neighbor":4113,"hyp":4114,"rus":4115,"wil":4116,"anybody":4117,"morgan":4118,"magnific":4119,"unusual":4120,"?!":4121,"cho":4122,"chap":4123,"north":4124,"apparent":4125,"pleasure":4126,"remarkable":4127,"##oom":4128,"ford":4129,"ens":4130,"spin":4131,"keaton":4132,"media":4133,"unknown":4134,"cate":4135,"tun":4136,"ven":4137,"##herent":4138,"##osh":4139,"watchable":4140,"kidn":4141,"england":4142,"hitler":4143,"contrast":4144,"continue":4145,"returns":4146,"river":4147,"unnecessary":4148,"##ube":4149,"##ba":4150,"##ency":4151,"scared":4152,"unin":4153,"tend":4154,"flow":4155,"perform":4156,"skip":4157,"memory":4158,"000":4159,"washing":4160,"crash":4161,"provide":4162,"columb":4163,"pilot":4164,"wedding":4165,"jr":4166,"ris":4167,"anywhere":4168,"grat":4169,"purs":4170,"occur":4171,"normally":4172,"##otes":4173,"pra":4174,"knowledge":4175,"bloody":4176,"signific":4177,"limited":4178,"russian":4179,"mike":4180,"finished":4181,"surprising":4182,"freak":4183,"prince":4184,"establish":4185,"hundred":4186,"80s":4187,"cage":4188,"opt":4189,"stret":4190,"twenty":4191,"##iac":4192,"smile":4193,"president":4194,"cops":4195,"motiv":4196,"intriguing":4197,"70s":4198,"fal":4199,"##ashing":4200,"alt":4201,"player":4202,"holds":4203,"paced":4204,"torture":4205,"##ographer":4206,"andrew":4207,"stink":4208,"price":4209,"somebody":4210,"unint":4211,"brook":4212,"##apped":4213,"nicely":4214,"luc":4215,"constant":4216,"lynch":4217,"accompl":4218,"fate":4219,"jan":4220,"loss":4221,"rub":4222,"##ras":4223,"##rical":4224,"thous":4225,"##lli":4226,"growing":4227,"wanting":4228,"matth":4229,"crowd":4230,"eth":4231,"ly":4232,"shir":4233,"vehic":4234,"transl":4235,"reminds":4236,"academy":4237,"gas":4238,"hated":4239,"##ste":4240,".....":4241,"pacing":4242,"ladies":4243,"according":4244,"bow":4245,"##iven":4246,"##eper":4247,"##za":4248,"##kward":4249,"##bc":4250,"priest":4251,"##ante":4252,"enth":4253,"##ipul":4254,"gene":4255,"bits":4256,"visit":4257,"sword":4258,"asked":4259,"candy":4260,"cass":4261,"ner":4262,"sed":4263,"##ners":4264,"thom":4265,"pretentious":4266,"robb":4267,"heads":4268,"cind":4269,"mine":4270,"##bian":4271,"thir":4272,"##ators":4273,"chore":4274,"##urity":4275,"albert":4276,"dressed":4277,"explos":4278,"dor":4279,"##aph":4280,"awkward":4281,"##****":4282,"dar":4283,"eric":4284,"fond":4285,"vol":4286,"ord":4287,"lovers":4288,"heroine":4289,"freed":4290,"tarzan":4291,"dangerous":4292,"fer":4293,"lies":4294,"aband":4295,"##odies":4296,"blame":4297,"saving":4298,"higher":4299,"originally":4300,"intellect":4301,"community":4302,"explanation":4303,"##ousy":4304,"kevin":4305,"instance":4306,"freddy":4307,"jesus":4308,"national":4309,"interact":4310,"account":4311,"issue":4312,"nonsense":4313,"dut":4314,"rod":4315,"separ":4316,"mission":4317,"regret":4318,"capture":4319,"deserve":4320,"mixed":4321,"ful":4322,"##ls":4323,"##bi":4324,"##bled":4325,"##iding":4326,"##pper":4327,"players":4328,"recall":4329,"belong":4330,"gotten":4331,"!).":4332,"##ris":4333,"##rous":4334,"toward":4335,"shop":4336,"interpret":4337,"plots":4338,"struct":4339,"##ifer":4340,"skill":4341,"fights":4342,"reflect":4343,"explained":4344,"debut":4345,"##nat":4346,"##bre":4347,"whil":4348,"atroc":4349,"resol":4350,"simpl":4351,"creating":4352,"brave":4353,"european":4354,"accurate":4355,"gard":4356,"vhs":4357,"##aus":4358,"##time":4359,"##ooper":4360,"text":4361,"partner":4362,"starting":4363,"##stein":4364,"gal":4365,"kur":4366,"nic":4367,"sea":4368,"hadn":4369,"humanity":4370,"dimens":4371,"floor":4372,"spanish":4373,"whilst":4374,"cath":4375,"fif":4376,"jess":4377,"paper":4378,"safe":4379,"model":4380,"sucks":4381,"cali":4382,"naive":4383,"rubbish":4384,"cable":4385,"earn":4386,"fet":4387,"##port":4388,"belief":4389,"princi":4390,"officer":4391,"##ked":4392,"##itter":4393,"##entions":4394,"realism":4395,"simon":4396,"educ":4397,"proceed":4398,"memories":4399,"##ruction":4400,"uncon":4401,"broken":4402,"judge":4403,"eating":4404,"tick":4405,"##ker":4406,"##bid":4407,"seat":4408,"finest":4409,"psycho":4410,"villains":4411,"14":4412,"hart":4413,"lone":4414,"##iro":4415,"frame":4416,"manage":4417,"peace":4418,"##pless":4419,"aware":4420,"monsters":4421,"featuring":4422,"lacking":4423,"nin":4424,"tight":4425,"##atra":4426,"##anks":4427,"##sem":4428,"saved":4429,"keeping":4430,"determ":4431,"trek":4432,"responsible":4433,"santa":4434,"lewis":4435,"gig":4436,"##ym":4437,"##ested":4438,"specif":4439,"below":4440,"kinda":4441,"understanding":4442,"treated":4443,"empty":4444,"##othy":4445,"terribly":4446,"insane":4447,"singer":4448,"cuts":4449,"results":4450,"pulled":4451,"jimmy":4452,"delightful":4453,"represent":4454,"werewolf":4455,"kong":4456,"vs":4457,"vul":4458,"wat":4459,"witty":4460,"##war":4461,"##).":4462,"##atory":4463,"##ements":4464,"context":4465,"leon":4466,"charism":4467,"luke":4468,"hopes":4469,"washington":4470,"gary":4471,"hits":4472,"forces":4473,"noticed":4474,"##elle":4475,"morning":4476,"included":4477,"frequ":4478,"months":4479,"##rays":4480,"##father":4481,"##eness":4482,"##lled":4483,"##abor":4484,"##ained":4485,"surreal":4486,"marvel":4487,"screaming":4488,"private":4489,"bound":4490,"##hol":4491,"reun":4492,"##asts":4493,"whenever":4494,"contrib":4495,"assist":4496,"driving":4497,"snow":4498,"numerous":4499,"reaction":4500,"blonde":4501,"behavior":4502,"dun":4503,"##ario":4504,"organ":4505,"expert":4506,"regular":4507,"streets":4508,"international":4509,"concerned":4510,"cash":4511,"dated":4512,"loy":4513,"pin":4514,"##nam":4515,"##oons":4516,"wealth":4517,"finale":4518,"contri":4519,"bigger":4520,"talents":4521,"dealing":4522,"##olds":4523,"ordinary":4524,"ow":4525,"##vant":4526,"##ping":4527,"stalk":4528,"##ading":4529,"liber":4530,"ali":4531,"##soci":4532,"unfunny":4533,"skills":4534,"imagin":4535,"reviewers":4536,"naturally":4537,"philos":4538,"discovered":4539,"symbol":4540,"kim":4541,"ton":4542,"##oke":4543,"##che":4544,"sund":4545,"gross":4546,"pair":4547,"psychological":4548,"circum":4549,"perspective":4550,"traditional":4551,"opposite":4552,"gord":4553,"tap":4554,"vac":4555,"##ront":4556,"##vis":4557,"manipul":4558,"marry":4559,"prove":4560,"junk":4561,"rat":4562,"##imental":4563,"conce":4564,"##arded":4565,"##achel":4566,"boat":4567,"corrupt":4568,"shallow":4569,"anthony":4570,"##ication":4571,"sean":4572,"##ourne":4573,"##ivity":4574,"owner":4575,"locations":4576,"humorous":4577,"gangster":4578,"loses":4579,"challeng":4580,"nich":4581,"##cise":4582,"bell":4583,"cris":4584,"minim":4585,"edited":4586,"##ails":4587,"golden":4588,"received":4589,"gags":4590,"##icate":4591,"##esting":4592,"##ulous":4593,"incre":4594,"satire":4595,"captured":4596,"continues":4597,"window":4598,"cruel":4599,"sharp":4600,"##fortable":4601,"magnificent":4602,");":4603,"cant":4604,"hay":4605,"##sen":4606,"##isa":4607,"##lyn":4608,"anne":4609,"howard":4610,"calls":4611,"cameo":4612,"murdered":4613,"satur":4614,"mrs":4615,"miles":4616,"survive":4617,"##chester":4618,"25":4619,"bag":4620,"ren":4621,"##cock":4622,"deg":4623,"grown":4624,"incomp":4625,"opens":4626,"visually":4627,"corny":4628,"advice":4629,"breaks":4630,"existence":4631,"lucky":4632,"jennifer":4633,"dry":4634,"fict":4635,"lor":4636,"lake":4637,"##han":4638,"##vit":4639,"##bling":4640,"##asm":4641,"##iles":4642,"associ":4643,"deals":4644,"screw":4645,"buddy":4646,"colour":4647,"remembered":4648,"batt":4649,"connection":4650,"goof":4651,"veter":4652,"##val":4653,"##ja":4654,"##ilies":4655,"anton":4656,"chief":4657,"dism":4658,"disp":4659,"report":4660,"essentially":4661,"revealed":4662,"##laim":4663,"segment":4664,"current":4665,"print":4666,"##oses":4667,"trib":4668,"lesson":4669,"frankly":4670,"hallow":4671,"identity":4672,"harris":4673,"african":4674,"foreign":4675,"occasionally":4676,"welles":4677,"##cient":4678,"##bell":4679,"decade":4680,"marie":4681,"center":4682,"village":4683,"franc":4684,"dimensional":4685,"cyn":4686,"ruth":4687,"ward":4688,"##nie":4689,"sull":4690,"distract":4691,"learned":4692,"efforts":4693,"inex":4694,"thomas":4695,"circumst":4696,"kenn":4697,"mitch":4698,"rot":4699,"brad":4700,"##agers":4701,"versions":4702,"visuals":4703,"aust":4704,"kir":4705,"tas":4706,"allows":4707,"mini":4708,"drew":4709,"##aire":4710,"envir":4711,"grim":4712,"strang":4713,"anna":4714,"grew":4715,"sucked":4716,"references":4717,"logic":4718,"genuinely":4719,"comparison":4720,"ah":4721,"bird":4722,"##ii":4723,"inh":4724,"---":4725,"matt":4726,"study":4727,"##anned":4728,"fairy":4729,"suffering":4730,"freedom":4731,"##natural":4732,"altern":4733,"overly":4734,"ages":4735,"emer":4736,"leader":4737,"meanwhile":4738,"standing":4739,"proved":4740,"experien":4741,"vampires":4742,"haunting":4743,"subtit":4744,"fare":4745,"tack":4746,"##ushing":4747,"mans":4748,"intention":4749,"obl":4750,"brilliantly":4751,"types":4752,"erotic":4753,"ultimate":4754,"improv":4755,"sheriff":4756,"spectacular":4757,"dyn":4758,"lie":4759,"wound":4760,"##mo":4761,"##ilog":4762,"##stre":4763,"unable":4764,"sheer":4765,"sake":4766,"obsc":4767,"relief":4768,"parody":4769,"iron":4770,"failure":4771,"louis":4772,"photograph":4773,"##porary":4774,"fish":4775,"mic":4776,"mort":4777,"##lock":4778,"##uls":4779,"evening":4780,"killers":4781,"passed":4782,"stereotypes":4783,"demonstr":4784,"gratuit":4785,"code":4786,"pitch":4787,"##xual":4788,"##iling":4789,"tex":4790,"advert":4791,"awards":4792,"miser":4793,"sinatra":4794,"creates":4795,"technology":4796,"irritating":4797,"gordon":4798,"halloween":4799,"environ":4800,"kung":4801,"site":4802,"spoof":4803,"laughter":4804,"pleasant":4805,"joseph":4806,"row":4807,"##teen":4808,"anime":4809,"delivered":4810,"parker":4811,"broadway":4812,"cowboy":4813,"barbara":4814,"hung":4815,"##night":4816,"##down":4817,"crappy":4818,"glass":4819,"uncom":4820,"philosoph":4821,"gonna":4822,"lud":4823,"pity":4824,"uk":4825,"heck":4826,"##eston":4827,"##usive":4828,"##thy":4829,"##away":4830,"executed":4831,"emotionally":4832,"sacrif":4833,"stol":4834,"##sell":4835,"shel":4836,"haw":4837,"##rix":4838,"necess":4839,"decision":4840,"reviewer":4841,"hearted":4842,"discovers":4843,"switch":4844,"painfully":4845,"woody":4846,"moore":4847,"encounter":4848,"flashbacks":4849,"dreadful":4850,"native":4851,"##nal":4852,"##ss":4853,"families":4854,"driven":4855,"hunter":4856,"graphic":4857,"gory":4858,"von":4859,"##stick":4860,"convey":4861,"majority":4862,"authent":4863,"religion":4864,"protagonist":4865,"overlook":4866,"nav":4867,"tape":4868,"viet":4869,"asian":4870,"##aint":4871,"##osen":4872,"##theless":4873,"speech":4874,"attitude":4875,"built":4876,"entertained":4877,"command":4878,"seasons":4879,"silver":4880,"meeting":4881,"caused":4882,"gratuitous":4883,"##rant":4884,"shr":4885,"send":4886,"chan":4887,"feet":4888,"wayne":4889,"nevertheless":4890,"underrated":4891,"##gged":4892,"meth":4893,"handsome":4894,"blockb":4895,"vehicle":4896,"cindere":4897,"hood":4898,"rise":4899,"range":4900,"##oring":4901,"##ums":4902,"endless":4903,"blow":4904,"ade":4905,"##anged":4906,"relate":4907,"##ashed":4908,"##ugos":4909,"generation":4910,"levels":4911,"treatment":4912,"obsessed":4913,"service":4914,"##ville":4915,"france":4916,"quir":4917,"guard":4918,"##ques":4919,"costs":4920,"tedious":4921,"exploitation":4922,"practically":4923,"amateurish":4924,"sports":4925,"aid":4926,"bik":4927,"##gm":4928,"ancient":4929,"aged":4930,"classics":4931,"excited":4932,"theatrical":4933,"inspir":4934,"expression":4935,"victoria":4936,"described":4937,"shadow":4938,"cinderella":4939,"counter":4940,"##lo":4941,"##vy":4942,"##ya":4943,"##icit":4944,"chosen":4945,"consequ":4946,"refres":4947,"winner":4948,"jackie":4949,"popul":4950,"admir":4951,"cliched":4952,"inept":4953,"fortun":4954,"##mes":4955,"##ndy":4956,"hearing":4957,"dropp":4958,"screenwr":4959,"robot":4960,"breaking":4961,"combination":4962,"rescue":4963,"rules":4964,"fame":4965,"##cies":4966,"##nda":4967,"##hern":4968,"clark":4969,"##fornia":4970,"stopped":4971,"##iser":4972,"##ached":4973,"produce":4974,"invis":4975,"portrays":4976,"excit":4977,"theaters":4978,"inevit":4979,"lesbian":4980,"sympathetic":4981,"assume":4982,"hitchcock":4983,"refreshing":4984,"harsh":4985,"nancy":4986,"ya":4987,"asking":4988,"myth":4989,"cares":4990,"believes":4991,"extras":4992,"capable":4993,"authentic":4994,"raw":4995,"##dom":4996,"##ault":4997,"anderson":4998,"shut":4999,"choose":5000,"##kend":5001,"prost":5002,"ende":5003,"portraying":5004,"ruined":5005,"germany":5006,"largely":5007,"contrived":5008,"16":5009,"##erie":5010,"proud":5011,"wrest":5012,"incident":5013,"football":5014,"learns":5015,"hunt":5016,"embarrassing":5017,"karl":5018,"depressing":5019,"canadian":5020,"unrealistic":5021,"dynam":5022,"lion":5023,"link":5024,"##iled":5025,"##chan":5026,"sha":5027,"alco":5028,"##ument":5029,"assass":5030,"##whel":5031,"appealing":5032,"dubbed":5033,"lum":5034,"wre":5035,"##gue":5036,"##==":5037,"prior":5038,"sole":5039,"##usi":5040,"clue":5041,"facts":5042,"matters":5043,"sequels":5044,"involves":5045,"ryan":5046,"uninter":5047,"environment":5048,"##zo":5049,"##aming":5050,"neat":5051,"evidence":5052,"minds":5053,"patrick":5054,"propag":5055,"costume":5056,"dinos":5057,"walter":5058,"fictional":5059,"##stream":5060,"cit":5061,"oli":5062,"vote":5063,"##oster":5064,"unfor":5065,"trilog":5066,"##phy":5067,"barry":5068,"strongly":5069,"teenager":5070,"mask":5071,"satisfying":5072,"nominated":5073,"oliver":5074,"om":5075,"##ients":5076,"##isher":5077,"beach":5078,"##abeth":5079,"appropriate":5080,"disgusting":5081,"routine":5082,"excitement":5083,"cub":5084,"lousy":5085,"pitt":5086,"inner":5087,"cliff":5088,"knight":5089,"flor":5090,"##acing":5091,"compos":5092,"talks":5093,"swim":5094,"losing":5095,"substance":5096,"saturday":5097,"nost":5098,"till":5099,"vague":5100,"##cul":5101,"thoughts":5102,"presum":5103,"promise":5104,"extraord":5105,"universal":5106,"##ez":5107,"##win":5108,"##bur":5109,"revel":5110,"##aded":5111,"##udd":5112,"carp":5113,"##ache":5114,"training":5115,"factor":5116,"capital":5117,"voices":5118,"circumstances":5119,"17":5120,"bodies":5121,"offe":5122,"champ":5123,"overd":5124,"##ugs":5125,"distrib":5126,"teenagers":5127,"convinced":5128,"haunted":5129,"baseball":5130,"bern":5131,"jung":5132,"nu":5133,"rough":5134,"##hi":5135,"##oman":5136,"outs":5137,"united":5138,"captures":5139,"purch":5140,"bringing":5141,"criticism":5142,"dragon":5143,"trilogy":5144,"fits":5145,"tiny":5146,"vinc":5147,"##pir":5148,"##leep":5149,"forth":5150,"chair":5151,"involve":5152,"rental":5153,"\").":5154,"execut":5155,"hanging":5156,"false":5157,"intellectual":5158,"nichol":5159,"francis":5160,"mum":5161,"pit":5162,"sne":5163,"##eg":5164,"asleep":5165,"##ama":5166,"maint":5167,"horribly":5168,"remin":5169,"emph":5170,"eliz":5171,"lower":5172,"creatures":5173,"powell":5174,"hopefully":5175,"virtually":5176,"welcome":5177,"citiz":5178,"rival":5179,"##point":5180,"tow":5181,"clar":5182,"spark":5183,"drop":5184,"192":5185,"spell":5186,"handed":5187,"acqu":5188,"murphy":5189,"experiment":5190,"wins":5191,"walks":5192,"reporter":5193,"##ipping":5194,"descript":5195,"expos":5196,"initial":5197,"relatively":5198,"enthusi":5199,"method":5200,"bore":5201,"dud":5202,"##walk":5203,"forest":5204,"doom":5205,"edward":5206,"steals":5207,"cutting":5208,"covered":5209,"professor":5210,"continuity":5211,"africa":5212,"influence":5213,"category":5214,"ludic":5215,"scale":5216,"offensive":5217,"sitcom":5218,"excess":5219,"controvers":5220,"lawyer":5221,"unlikely":5222,"contemporary":5223,"texas":5224,",'":5225,"nation":5226,"pile":5227,"##raction":5228,"agre":5229,"makeup":5230,"viewed":5231,"handled":5232,"truck":5233,"harm":5234,"!!!!":5235,"depicted":5236,"multiple":5237,"semi":5238,"nut":5239,"sout":5240,"beast":5241,"reject":5242,"##ada":5243,"##aken":5244,"grab":5245,"unfortunate":5246,"laur":5247,"holding":5248,"shocked":5249,"gentle":5250,"russell":5251,"):":5252,"ba":5253,"##uther":5254,"height":5255,"health":5256,"prime":5257,"yell":5258,"##telling":5259,"believed":5260,"subpl":5261,"politics":5262,"adventures":5263,"##anagh":5264,"atrocious":5265,"fix":5266,"jay":5267,"lau":5268,"movement":5269,"section":5270,"pregn":5271,"##osexual":5272,"warn":5273,"presents":5274,"provided":5275,"deaths":5276,"roman":5277,"irish":5278,"promising":5279,"weekend":5280,"qualities":5281,"sisters":5282,"jam":5283,"##arian":5284,"polic":5285,"angles":5286,"touches":5287,"closer":5288,"designed":5289,"australian":5290,"liners":5291,"source":5292,"columbo":5293,"structure":5294,"kath":5295,"mock":5296,"##mother":5297,"##imate":5298,"outrage":5299,"spy":5300,"guil":5301,"guest":5302,"painting":5303,"reput":5304,"ruin":5305,"landsc":5306,"forgettable":5307,"cartoons":5308,"claims":5309,"idiot":5310,"loyal":5311,"caine":5312,"##cher":5313,"##oooo":5314,"exagger":5315,"plans":5316,"faced":5317,"preach":5318,"warri":5319,"supernatural":5320,"addict":5321,"surprises":5322,"provo":5323,"colon":5324,"speaks":5325,"previously":5326,"degree":5327,"ded":5328,"jaw":5329,"ken":5330,"lem":5331,"##och":5332,"##cent":5333,"##rell":5334,"inj":5335,"##etime":5336,"enemy":5337,"serves":5338,"bitter":5339,"invent":5340,"accents":5341,"glob":5342,"paint":5343,"treasure":5344,"focused":5345,"urban":5346,"roger":5347,"propaganda":5348,"kore":5349,"lon":5350,"ped":5351,"ske":5352,"chose":5353,"whoever":5354,"bros":5355,"emma":5356,"related":5357,"mainstream":5358,"princess":5359,"pacino":5360,"weeks":5361,"eld":5362,"gab":5363,"hip":5364,"table":5365,"##atically":5366,"charl":5367,"teens":5368,"contact":5369,"ideal":5370,"deadly":5371,"suffer":5372,"suffers":5373,"dogs":5374,"latest":5375,"##oppy":5376,"granted":5377,"veteran":5378,"cooper":5379,"gand":5380,"pier":5381,"##ket":5382,"butt":5383,"alice":5384,".......":5385,"experiences":5386,"benef":5387,"mistakes":5388,"execution":5389,"dollars":5390,"accidentally":5391,"wilson":5392,"invisible":5393,"emphas":5394,"dent":5395,"mgm":5396,"wing":5397,"##uel":5398,"##__":5399,"notch":5400,"crude":5401,"##ivan":5402,"realizes":5403,"flight":5404,"hoff":5405,"##apping":5406,"grave":5407,"colors":5408,"##heart":5409,"twisted":5410,"sympathy":5411,"unconvin":5412,"aliens":5413,"uninteresting":5414,"bush":5415,"dust":5416,"nude":5417,"sink":5418,"##iat":5419,"##bed":5420,"##ndam":5421,"##chy":5422,"friday":5423,"wear":5424,"spr":5425,"particip":5426,"##athan":5427,"appl":5428,"security":5429,"accomp":5430,"commit":5431,"combined":5432,"struggling":5433,"prostit":5434,"guilty":5435,"coun":5436,"dub":5437,"jail":5438,"dece":5439,"carol":5440,"aftern":5441,"matrix":5442,"corpor":5443,"universe":5444,"convince":5445,"sensitive":5446,"dozen":5447,"accompan":5448,"hong":5449,"torn":5450,"whe":5451,"atl":5452,"feed":5453,"blah":5454,"diss":5455,"poign":5456,"gritty":5457,"transform":5458,"appreciated":5459,"cabin":5460,"gain":5461,"lugos":5462,"##pre":5463,"##reg":5464,"##ching":5465,"unbe":5466,"contest":5467,"committed":5468,"driver":5469,"walked":5470,"technically":5471,"mirac":5472,"recognize":5473,"frightening":5474,"##ausible":5475,"lugosi":5476,"aka":5477,"##wy":5478,"##oting":5479,"##ali":5480,"donald":5481,"schem":5482,"magical":5483,"changing":5484,"sarah":5485,"department":5486,"##enced":5487,"ree":5488,"shark":5489,"overwhel":5490,"directly":5491,"friendly":5492,"explains":5493,"superf":5494,"confront":5495,"darkness":5496,"##ennis":5497,"metal":5498,"franch":5499,"occasional":5500,"faithful":5501,"widow":5502,"network":5503,"sullivan":5504,"hoffman":5505,"cul":5506,"wick":5507,"##cl":5508,"thumb":5509,"theory":5510,"ing":5511,"abuse":5512,"neck":5513,"offered":5514,"performed":5515,"kinds":5516,"courage":5517,"featured":5518,"anger":5519,"demons":5520,"femin":5521,"variety":5522,"narration":5523,"suspenseful":5524,"massive":5525,"legendary":5526,"surface":5527,"experienced":5528,"vietnam":5529,"reputation":5530,"aunt":5531,"bbc":5532,"rings":5533,"storm":5534,"meat":5535,"lear":5536,"crying":5537,"contract":5538,"johnson":5539,"passing":5540,"figures":5541,"nazi":5542,"sunday":5543,"subtitles":5544,"bourne":5545,"gather":5546,"lol":5547,"mst":5548,"push":5549,"##don":5550,"##itious":5551,"##alling":5552,"everywhere":5553,"##umbling":5554,"titanic":5555,"concent":5556,"hugh":5557,"sorts":5558,"rule":5559,"statement":5560,"required":5561,"lonely":5562,"stolen":5563,"rachel":5564,"sen":5565,"sag":5566,"tong":5567,"##zel":5568,"##ares":5569,"china":5570,"dean":5571,"spite":5572,"bett":5573,"cring":5574,"##formed":5575,"border":5576,"position":5577,"hammer":5578,"journal":5579,"mirror":5580,"scares":5581,"remotely":5582,"melodrama":5583,"conversation":5584,"california":5585,"nostal":5586,"jungle":5587,"hired":5588,"##nn":5589,"##uced":5590,"##aling":5591,"beck":5592,"##lying":5593,"placed":5594,"seek":5595,"spends":5596,"strict":5597,"##ighter":5598,"trapped":5599,"downright":5600,"susan":5601,"irre":5602,"curt":5603,"freeman":5604,"\"),":5605,"surviv":5606,"philip":5607,"julia":5608,"mexico":5609,"\"?":5610,"hipp":5611,"pul":5612,"rick":5613,"tax":5614,"##cr":5615,"toy":5616,"toler":5617,"stom":5618,"notorious":5619,"...\"":5620,"effectively":5621,"worthwhile":5622,"favorites":5623,"captiv":5624,"listening":5625,"figured":5626,"encou":5627,"bothered":5628,"lifetime":5629,"abandoned":5630,"blockbuster":5631,"afternoon":5632,"cy":5633,"cous":5634,"cock":5635,"goth":5636,"lisa":5637,"pig":5638,"##ship":5639,"##lim":5640,"##yle":5641,"##kins":5642,"##bing":5643,"branagh":5644,"sple":5645,"happiness":5646,"evol":5647,"jobs":5648,"imagery":5649,"tales":5650,"admitted":5651,"cultural":5652,"unconvincing":5653,"boot":5654,"foster":5655,"rush":5656,"##mond":5657,"libr":5658,"alas":5659,"alright":5660,"cheese":5661,"consum":5662,"format":5663,"angle":5664,"lights":5665,"jeal":5666,"tremend":5667,"breatht":5668,"mexican":5669,"elizabeth":5670,"ara":5671,"dude":5672,"ned":5673,"##),":5674,"##ida":5675,"worry":5676,"teeth":5677,"blown":5678,"maria":5679,"buying":5680,"rights":5681,"mature":5682,"larry":5683,"paying":5684,"pulls":5685,"delivery":5686,"burns":5687,"upset":5688,"divor":5689,"wreck":5690,"60s":5691,"cust":5692,"cel":5693,"rang":5694,"##atives":5695,"##ari":5696,"scenario":5697,"address":5698,"amazed":5699,"rolling":5700,"reveals":5701,"starred":5702,"productions":5703,"ze":5704,"##dies":5705,"##acc":5706,"##reh":5707,"stays":5708,"tear":5709,"views":5710,"artists":5711,"grey":5712,"stayed":5713,"focuses":5714,"1950":5715,"thankfully":5716,"pupp":5717,"status":5718,"significant":5719,"eve":5720,"wand":5721,"##stone":5722,"##oln":5723,"##iger":5724,"##tended":5725,"##aughters":5726,"indie":5727,"studios":5728,"examples":5729,"demand":5730,"honor":5731,"device":5732,"campy":5733,"complicated":5734,"ghosts":5735,"##----":5736,"praise":5737,"ludicrous":5738,"math":5739,"reb":5740,"##amor":5741,"##outs":5742,"intens":5743,"grues":5744,"india":5745,"##insp":5746,"heavily":5747,"ignor":5748,"sidney":5749,"necessarily":5750,"reminisc":5751,"rank":5752,"tree":5753,"outf":5754,"indul":5755,"hardy":5756,"inspect":5757,"##gging":5758,"murderer":5759,"cannib":5760,"profound":5761,"fourth":5762,"##belief":5763,"sleeping":5764,"desperately":5765,"understood":5766,"ain":5767,"bol":5768,"si":5769,"##nox":5770,"##ato":5771,"##ani":5772,"##ety":5773,"lift":5774,"spring":5775,"facial":5776,"guar":5777,"beloved":5778,"obnox":5779,"term":5780,"warner":5781,"midnight":5782,"!),":5783,"closing":5784,"integr":5785,"destroyed":5786,"initially":5787,"summary":5788,"fabulous":5789,"slapstick":5790,"pregnant":5791,"stomach":5792,"obnoxious":5793,"fed":5794,"gall":5795,"linc":5796,"tag":5797,"deeper":5798,"argu":5799,"peck":5800,"blat":5801,"##reek":5802,"decades":5803,"install":5804,"distinct":5805,"braz":5806,"magaz":5807,"renting":5808,"ignore":5809,"stereotypical":5810,"racist":5811,"inhab":5812,"bang":5813,"dennis":5814,"lust":5815,"##tes":5816,"##bit":5817,"shape":5818,"##abe":5819,"league":5820,"craw":5821,"calling":5822,"helping":5823,"corner":5824,"anticip":5825,"metaph":5826,"answers":5827,"gruesome":5828,"lincoln":5829,"bul":5830,"##aver":5831,"##enge":5832,"doc":5833,"arms":5834,"disbelief":5835,"grin":5836,"underground":5837,"sounded":5838,"critical":5839,"musicals":5840,"1980":5841,"settings":5842,"drinking":5843,"task":5844,"description":5845,"learning":5846,"reminiscent":5847,"daughters":5848,"##mate":5849,"##gia":5850,"plant":5851,"greater":5852,"warned":5853,"minded":5854,"amazingly":5855,"julie":5856,"condition":5857,"sandler":5858,"criminals":5859,"regarding":5860,"mildly":5861,"princip":5862,"quirky":5863,"splend":5864,"bac":5865,"dal":5866,"gle":5867,"hind":5868,"sides":5869,"wave":5870,"reed":5871,"web":5872,"storytelling":5873,"throwing":5874,"screening":5875,"halfway":5876,"titles":5877,"claire":5878,"leslie":5879,"turkey":5880,"funnier":5881,"autom":5882,"extraordinary":5883,":)":5884,"nom":5885,"pian":5886,"vivid":5887,"##oor":5888,"##burn":5889,"##rend":5890,"shell":5891,"gro":5892,"stylish":5893,"depiction":5894,"swed":5895,"advant":5896,"michelle":5897,"severe":5898,"repet":5899,"prepared":5900,"ell":5901,"fel":5902,"via":5903,"##ffe":5904,"isol":5905,"##ales":5906,"##ader":5907,"comical":5908,"arn":5909,"preview":5910,"##atherine":5911,"decl":5912,"misf":5913,"originality":5914,"extent":5915,"deliber":5916,"sophistic":5917,"choices":5918,"jessica":5919,"dump":5920,"lane":5921,"mouse":5922,"thunder":5923,"clock":5924,"disag":5925,"miscast":5926,"access":5927,"cole":5928,"headed":5929,"raised":5930,"touched":5931,"##ission":5932,"strip":5933,"massac":5934,"rogers":5935,"brooks":5936,"vacation":5937,"vincent":5938,"bollywood":5939,"seag":5940,"sevent":5941,"chilling":5942,"timing":5943,"##plays":5944,"incor":5945,"basis":5946,"coinc":5947,"elev":5948,"spoken":5949,"picks":5950,"burt":5951,"miller":5952,"stunt":5953,"homosexual":5954,"purely":5955,"dollar":5956,"smooth":5957,"graphics":5958,"inspiration":5959,"cus":5960,"gad":5961,"lazy":5962,"mol":5963,"pool":5964,"vent":5965,"##hh":5966,"##cra":5967,"##??":5968,"##icial":5969,"##ston":5970,"notable":5971,"exh":5972,"charge":5973,"noble":5974,"overact":5975,"join":5976,"hole":5977,"subsequ":5978,"handle":5979,"concert":5980,"2000":5981,"novels":5982,"steps":5983,"introduction":5984,"essential":5985,"stanley":5986,"weapon":5987,"weapons":5988,"carpent":5989,"breathtaking":5990,"tab":5991,"vast":5992,"voy":5993,"##oration":5994,"reward":5995,"##adays":5996,"cha":5997,"cher":5998,"##umph":5999,"throws":6000,"everyday":6001,"maker":6002,"serve":6003,"nowadays":6004,"##beat":6005,"##ibilities":6006,"strangely":6007,"properly":6008,"succeeds":6009,"locked":6010,"crafted":6011,"bart":6012,"fay":6013,"py":6014,"pad":6015,"##kh":6016,"##eral":6017,"##ona":6018,"alb":6019,"alter":6020,"weight":6021,"wears":6022,"unh":6023,"##udes":6024,"blair":6025,"caring":6026,"tracy":6027,"cheer":6028,"adding":6029,"portra":6030,"laura":6031,"psychiat":6032,"ratings":6033,"causes":6034,"reference":6035,"determined":6036,"provoking":6037,"doo":6038,"wolf":6039,"##mates":6040,"##ila":6041,"fac":6042,"workers":6043,"##ifies":6044,"triumph":6045,"lesser":6046,"fallen":6047,"assign":6048,"2006":6049,"noneth":6050,"1970":6051,"atmospher":6052,"daily":6053,"carrying":6054,"challenge":6055,"hence":6056,"pound":6057,"ral":6058,"##gress":6059,"##erior":6060,"##race":6061,"nel":6062,"outd":6063,"##oyd":6064,"spook":6065,"adop":6066,"usa":6067,"##plic":6068,"slaughter":6069,"resist":6070,"relax":6071,"sinister":6072,"raise":6073,"sleazy":6074,"busy":6075,"amongst":6076,"westerns":6077,"jumps":6078,"jewish":6079,"risk":6080,"established":6081,"##iveness":6082,"kurt":6083,"southern":6084,"##wyck":6085,"nonetheless":6086,"cave":6087,"fo":6088,"fid":6089,"iv":6090,"##sky":6091,"##ught":6092,"##anity":6093,"stell":6094,"pros":6095,"diam":6096,"shower":6097,"spiel":6098,"carries":6099,"carried":6100,"##tending":6101,"confusion":6102,"attempting":6103,"retarded":6104,"##ception":6105,"manager":6106,"obser":6107,"embarrassed":6108,"holmes":6109,"escapes":6110,"bettie":6111,"hi":6112,"hob":6113,"nine":6114,"tempt":6115,"##ration":6116,"##ca":6117,"##pire":6118,"##enom":6119,"clips":6120,"showc":6121,"##ishes":6122,"enjoying":6123,"needless":6124,"ironic":6125,"madness":6126,"broke":6127,"sentimental":6128,"obsession":6129,"cases":6130,"arrives":6131,"replaced":6132,"interpretation":6133,"navy":6134,"inspector":6135,"gut":6136,"##hay":6137,"exists":6138,"enh":6139,"uninsp":6140,"intentions":6141,"seeking":6142,"thro":6143,"conspir":6144,"angels":6145,"successfully":6146,"2001":6147,"construct":6148,"existent":6149,"stanwyck":6150,"balance":6151,"oliv":6152,"goofy":6153,"mansion":6154,"screenwriter":6155,"brazil":6156,"carpenter":6157,"ira":6158,"jake":6159,"suther":6160,"upper":6161,"##fia":6162,"##ils":6163,"##ouses":6164,"unre":6165,"legs":6166,"letter":6167,"coh":6168,"absor":6169,"possess":6170,"topic":6171,"lucy":6172,"laid":6173,"infam":6174,"illustr":6175,"oddly":6176,"presentation":6177,"attacked":6178,"mentally":6179,"horrific":6180,"catholic":6181,"##semble":6182,"marvelous":6183,"sutherland":6184,"fisher":6185,"mall":6186,"##orig":6187,"##lection":6188,"##ilton":6189,"dear":6190,"disgu":6191,"comedian":6192,"subm":6193,"phenom":6194,"conscious":6195,"burst":6196,"neighb":6197,"brando":6198,"fulf":6199,"fortunately":6200,"mst3":6201,"24":6202,"hick":6203,"wanna":6204,"##rist":6205,"##gas":6206,"thief":6207,"bew":6208,"stiff":6209,"alle":6210,"croc":6211,"served":6212,"instinct":6213,"stupidity":6214,"stops":6215,"patient":6216,"!!!!!":6217,"attacks":6218,"convict":6219,"dawn":6220,"immense":6221,"ashamed":6222,"interviews":6223,"wwii":6224,"bridge":6225,"neighborhood":6226,"intensity":6227,"ralph":6228,"penn":6229,"##order":6230,"andre":6231,"attend":6232,"albe":6233,"dod":6234,"blank":6235,"dise":6236,"traum":6237,"farm":6238,"thrilling":6239,"personalities":6240,"spiritual":6241,"packed":6242,"matthau":6243,"frequently":6244,"tongue":6245,"albeit":6246,"bust":6247,"gill":6248,"rum":6249,"##rence":6250,"##ito":6251,"proof":6252,"finan":6253,"phill":6254,"parall":6255,"geor":6256,"flawed":6257,"?).":6258,"1950s":6259,"dinner":6260,"suspects":6261,"baker":6262,"elder":6263,"poignant":6264,"seagal":6265,"spielberg":6266,"bald":6267,"cob":6268,"dere":6269,"hills":6270,"kud":6271,"nol":6272,"oz":6273,"ric":6274,"##ule":6275,"##face":6276,"##isand":6277,"isra":6278,"##ieu":6279,"sham":6280,"##actic":6281,"dign":6282,"cance":6283,"bette":6284,"betray":6285,"rochester":6286,"horrend":6287,"stranger":6288,"inco":6289,"elvir":6290,"mindless":6291,"opened":6292,"drives":6293,"riding":6294,"err":6295,"innov":6296,"expressions":6297,"struggles":6298,"terrifying":6299,"internet":6300,"widmark":6301,"az":6302,"ecc":6303,"etern":6304,"hors":6305,"las":6306,"##mal":6307,"##fall":6308,"beating":6309,"pride":6310,"plastic":6311,"##ago":6312,"overcome":6313,"greatly":6314,"dislike":6315,"elvis":6316,"announ":6317,"styl":6318,"refuses":6319,"credibility":6320,"occup":6321,"wishes":6322,"burton":6323,"##ification":6324,"adapted":6325,"revolves":6326,"innocence":6327,"arrog":6328,"aston":6329,"imaginative":6330,"minimal":6331,"cynical":6332,"franchise":6333,"advantage":6334,"israel":6335,"\"...":6336,"boll":6337,"fbi":6338,"tense":6339,"tune":6340,"wra":6341,"##iques":6342,"##asant":6343,"italy":6344,"##icing":6345,"forbid":6346,"##ament":6347,"choos":6348,"trite":6349,"lessons":6350,"sket":6351,"redempt":6352,"credible":6353,"streisand":6354,"medical":6355,"racism":6356,"dubbing":6357,"thousands":6358,"garden":6359,"wealthy":6360,"controversial":6361,"dentist":6362,"nelson":6363,"diamond":6364,"elvira":6365,"daw":6366,"jac":6367,"mes":6368,"tall":6369,"##drop":6370,"##inal":6371,"##eds":6372,"rend":6373,"alike":6374,"dol":6375,"##geon":6376,"caric":6377,"happily":6378,"trial":6379,"sinc":6380,"bugs":6381,"helen":6382,"##ello":6383,"##appy":6384,"perfection":6385,"corp":6386,"fiance":6387,"wilder":6388,"puzz":6389,"equal":6390,"##blance":6391,"krist":6392,"crisis":6393,"wheel":6394,"''":6395,"barr":6396,"nur":6397,"##aves":6398,"##iments":6399,"##ela":6400,"##elve":6401,"prevent":6402,"carter":6403,"##entionally":6404,"raj":6405,"countries":6406,"conclud":6407,"##ologist":6408,"guessing":6409,"thrillers":6410,"physically":6411,"broadcast":6412,"hundreds":6413,"andrews":6414,"reunion":6415,"unforget":6416,"derek":6417,"hud":6418,"##rie":6419,"render":6420,"wasting":6421,"cham":6422,"depe":6423,"manh":6424,"nose":6425,"##aker":6426,"poke":6427,"flav":6428,"chew":6429,"enjoyment":6430,"craz":6431,"shorts":6432,"technique":6433,"suffered":6434,"##shi":6435,"sexuality":6436,"##ophob":6437,"griff":6438,"gripping":6439,"disappear":6440,"chaplin":6441,"performers":6442,"sincere":6443,"eager":6444,"sings":6445,"sons":6446,"tied":6447,"yu":6448,"shy":6449,"shines":6450,"comfort":6451,"ensemble":6452,"firm":6453,"##forms":6454,"##berl":6455,"whereas":6456,"parent":6457,"glimp":6458,"ourselves":6459,"dancer":6460,"satan":6461,"britain":6462,"millions":6463,"hunting":6464,"##attan":6465,"connected":6466,"separate":6467,"uncomfortable":6468,"gadget":6469,"mst3k":6470,"glimpse":6471,"bot":6472,"viv":6473,"thick":6474,"pray":6475,"compr":6476,"enorm":6477,"mechan":6478,"poet":6479,"##assion":6480,"unfold":6481,"eleg":6482,"iran":6483,"irony":6484,"exceptional":6485,"##airs":6486,"transfer":6487,"##iffer":6488,"*****":6489,"flynn":6490,"profession":6491,"hyster":6492,"holiday":6493,"assistant":6494,"adequ":6495,"karloff":6496,"wicked":6497,"arnold":6498,"atmospheric":6499,"infamous":6500,"cos":6501,"cup":6502,"cube":6503,"hes":6504,"##ties":6505,"##pet":6506,"##alia":6507,"wash":6508,"exer":6509,"##istent":6510,"knife":6511,"carn":6512,"gras":6513,"elabor":6514,"scripts":6515,"parad":6516,"glory":6517,"homeless":6518,"winter":6519,"curse":6520,"weakness":6521,"oscars":6522,"meaningful":6523,"fatal":6524,"official":6525,"searching":6526,"oblig":6527,"cousin":6528,"aired":6529,"bach":6530,"boun":6531,"lur":6532,"lying":6533,"pg":6534,"inher":6535,"##rian":6536,"plague":6537,"unpr":6538,"mupp":6539,"flu":6540,"##quis":6541,"resort":6542,"empath":6543,"basket":6544,"letting":6545,"cameos":6546,"patri":6547,"protagonists":6548,"scratch":6549,"savage":6550,"battles":6551,"unbear":6552,"oil":6553,"wiz":6554,"zone":6555,"toile":6556,"chasing":6557,"frag":6558,"activ":6559,"quote":6560,"entry":6561,"hamlet":6562,"troubled":6563,"suggests":6564,"idiotic":6565,"folk":6566,"fortune":6567,"split":6568,"stretch":6569,"thousand":6570,"massacre":6571,"portrait":6572,"horses":6573,"pam":6574,"##vably":6575,"item":6576,"stumb":6577,"noted":6578,"##aki":6579,"tender":6580,"lovable":6581,"guilt":6582,"trav":6583,"phant":6584,"consists":6585,"explicit":6586,"develops":6587,"hoped":6588,"jerk":6589,"accepted":6590,"burning":6591,"colorful":6592,"hiding":6593,"stealing":6594,"thirty":6595,"specific":6596,"splendid":6597,"unforgettable":6598,"300":6599,"dare":6600,"guts":6601,"pir":6602,"tam":6603,"##cho":6604,"chases":6605,"##uman":6606,"spots":6607,"saves":6608,"attraction":6609,"territ":6610,"worlds":6611,"basement":6612,"annoyed":6613,"larger":6614,"roberts":6615,"ultra":6616,"repeat":6617,"ambig":6618,"lucas":6619,"inexplic":6620,"redemption":6621,"ack":6622,"catherine":6623,"pap":6624,"wann":6625,"##nic":6626,"##ora":6627,"##opath":6628,"##apes":6629,"cheek":6630,"factory":6631,"glover":6632,"superher":6633,"boom":6634,"dialogs":6635,"restaur":6636,"corn":6637,"walken":6638,"shoots":6639,"destruction":6640,"dorothy":6641,"belongs":6642,"curtis":6643,"dur":6644,"econ":6645,"eerie":6646,"hanks":6647,"ramp":6648,"wake":6649,"##oz":6650,"##rum":6651,"##core":6652,"##tt":6653,"##pass":6654,"##jud":6655,"thread":6656,"##ata":6657,"todd":6658,"##any":6659,"infect":6660,"##idents":6661,"chic":6662,"scoo":6663,"trade":6664,"##aky":6665,"bride":6666,"backdrop":6667,"##ocr":6668,"margar":6669,"appearing":6670,"dramas":6671,"eleph":6672,"denzel":6673,"encoun":6674,"boredom":6675,"cusack":6676,"hudson":6677,"1st":6678,"99":6679,"gim":6680,"jen":6681,"kap":6682,"kane":6683,"bears":6684,"stall":6685,"##ads":6686,"neil":6687,"shep":6688,"perpet":6689,"incons":6690,"pointed":6691,"confess":6692,"##ggie":6693,"closely":6694,"2005":6695,"##etta":6696,"expensive":6697,"loser":6698,"franco":6699,"scientists":6700,"newsp":6701,"concerns":6702,"competent":6703,"rhy":6704,"kirk":6705,"library":6706,"##craft":6707,"econom":6708,"encounters":6709,"bin":6710,"nail":6711,"pse":6712,"sque":6713,"vig":6714,"##iance":6715,"##enstein":6716,"ish":6717,"sends":6718,"outl":6719,"goal":6720,"spread":6721,"crimes":6722,"awe":6723,"eva":6724,"lloyd":6725,"##ointed":6726,"elsewhere":6727,"luci":6728,"huh":6729,"controll":6730,"launch":6731,"solve":6732,"appearances":6733,"checking":6734,"virus":6735,"stunts":6736,"afford":6737,"achieved":6738,"segments":6739,"complaint":6740,"canada":6741,"hooked":6742,"eastwood":6743,"endearing":6744,"custom":6745,"cannibal":6746,"disagree":6747,"pseud":6748,"mam":6749,"pi":6750,"rushed":6751,"ripped":6752,"##ye":6753,"##kick":6754,"toss":6755,"shaw":6756,"alf":6757,"drown":6758,"##ographic":6759,"dragged":6760,"swing":6761,"rocks":6762,"secretary":6763,"jeremy":6764,"essence":6765,"fashioned":6766,"bobby":6767,"charisma":6768,"tribute":6769,"citizen":6770,"atlant":6771,"incoherent":6772,"!.":6773,"fitting":6774,"hitting":6775,"jet":6776,"lan":6777,"##reen":6778,"##overy":6779,"reli":6780,"reyn":6781,"maid":6782,"abrupt":6783,"maniac":6784,"noise":6785,"tea":6786,"gray":6787,"muslim":6788,"##ifying":6789,"believing":6790,"godfather":6791,"dealt":6792,"photographer":6793,"sentiment":6794,"striking":6795,"salv":6796,"tricks":6797,"birthday":6798,"ingred":6799,"45":6800,"heston":6801,"kub":6802,"marsh":6803,"ritter":6804,"tang":6805,"##ni":6806,"##esis":6807,"inse":6808,"stoo":6809,"##chant":6810,"fears":6811,"##isha":6812,"resour":6813,"triv":6814,"##gger":6815,"videos":6816,"attempted":6817,"countless":6818,"techniques":6819,"reactions":6820,"briefly":6821,"leonard":6822,"thumbs":6823,"gothic":6824,"magazine":6825,"phenomen":6826,"scooby":6827,"covers":6828,"hust":6829,"mun":6830,"pond":6831,"sally":6832,"##nan":6833,"##rict":6834,"##arm":6835,"inacc":6836,"##alo":6837,"##entric":6838,"heat":6839,"##ira":6840,"##istically":6841,"mann":6842,"clint":6843,"clown":6844,"spa":6845,"bug":6846,"sexually":6847,"cox":6848,"giall":6849,"restra":6850,"hearts":6851,"motor":6852,"1990":6853,"strikes":6854,"inspiring":6855,"iii":6856,"unintentionally":6857,"charismatic":6858,"horrendous":6859,"ax":6860,"bare":6861,"bible":6862,"eg":6863,"ic":6864,"kaz":6865,"mile":6866,"sov":6867,"tons":6868,"##oub":6869,"tool":6870,"##lear":6871,"plat":6872,"spike":6873,"poison":6874,"carrey":6875,"grows":6876,"carefully":6877,"eyed":6878,"importance":6879,"forgive":6880,"grandmother":6881,"limit":6882,"hype":6883,"smoking":6884,"surrounding":6885,"surrounded":6886,"admittedly":6887,"##rehens":6888,"00":6889,"21":6890,"kh":6891,"kitch":6892,"pover":6893,"vin":6894,"##iable":6895,"##iently":6896,"##gate":6897,"##asingly":6898,"stood":6899,"chances":6900,"##uristic":6901,"comics":6902,"upd":6903,"arc":6904,"fired":6905,"##ishment":6906,"spending":6907,"string":6908,"editor":6909,"monkey":6910,"engine":6911,"detract":6912,"relevant":6913,"stronger":6914,"homage":6915,"walls":6916,"##coming":6917,"##uclear":6918,"kicks":6919,"medium":6920,"##worth":6921,"revelation":6922,"kubrick":6923,"poverty":6924,"cens":6925,"ego":6926,"ian":6927,"kat":6928,"lit":6929,"lily":6930,"vicious":6931,"##rob":6932,"##ype":6933,"rex":6934,"stated":6935,"webs":6936,"conven":6937,"unim":6938,"meg":6939,"imit":6940,"killings":6941,"attached":6942,"enters":6943,"childish":6944,"glor":6945,"useless":6946,"easier":6947,"duke":6948,"1970s":6949,"judg":6950,"strike":6951,"requires":6952,"labor":6953,"represents":6954,"astaire":6955,"miike":6956,"alcohol":6957,"executive":6958,"maintain":6959,"aks":6960,"gift":6961,"mars":6962,"rome":6963,"um":6964,"##ds":6965,"##hoe":6966,"##gun":6967,"##isation":6968,"tooth":6969,"mafia":6970,"exch":6971,"abys":6972,"##usions":6973,"orch":6974,"union":6975,"root":6976,"performing":6977,"suburb":6978,"borrow":6979,"conserv":6980,"nights":6981,"bold":6982,"messages":6983,"selfish":6984,"2002":6985,"occurs":6986,"?),":6987,"projects":6988,"university":6989,"cardboard":6990,"vulner":6991,"increasingly":6992,"associated":6993,"dropped":6994,"inevitable":6995,"korean":6996,"exercise":6997,"toilet":6998,"falk":6999,"han":7000,"hire":7001,"josh":7002,"lap":7003,"mate":7004,"tad":7005,"voc":7006,"##kind":7007,"##onse":7008,"sopr":7009,"##ume":7010,"##ibl":7011,"creation":7012,"drags":7013,"assault":7014,"typically":7015,"politic":7016,"silence":7017,"mistaken":7018,"poster":7019,"acceptable":7020,"luckily":7021,"bleak":7022,"identify":7023,"torment":7024,"replace":7025,"jesse":7026,"##iosity":7027,"bakshi":7028,"resolution":7029,"sophisticated":7030,"dawson":7031,"reynolds":7032,"bay":7033,"ginger":7034,"hank":7035,"nuclear":7036,"##len":7037,"##aid":7038,"##cut":7039,"##tw":7040,"stir":7041,"stead":7042,"shining":7043,"selling":7044,"butch":7045,"twin":7046,"worker":7047,"gotta":7048,"handful":7049,"explod":7050,"advance":7051,"yester":7052,"brilliance":7053,"davies":7054,"thrills":7055,"spirited":7056,"1980s":7057,"mcg":7058,"ambitious":7059,"depression":7060,"temper":7061,"investigation":7062,"splatter":7063,"matthew":7064,"outrageous":7065,"35":7066,"hollow":7067,"##nes":7068,"##iors":7069,"##cil":7070,"##orem":7071,"##ingu":7072,"select":7073,"allowing":7074,"timeless":7075,"afterwards":7076,"beings":7077,"slim":7078,"struck":7079,"evident":7080,"termin":7081,"marc":7082,"reluct":7083,"persona":7084,"instantly":7085,"##entioned":7086,"worthless":7087,"breasts":7088,"joey":7089,"estate":7090,"convol":7091,"cruise":7092,"continued":7093,"insulting":7094,"digital":7095,"venge":7096,"kidnapped":7097,"shirt":7098,"fifteen":7099,"overlooked":7100,"jamie":7101,"brosnan":7102,"strictly":7103,"disease":7104,"kudos":7105,"bone":7106,"kay":7107,"pushed":7108,"sg":7109,"size":7110,"tail":7111,"##iere":7112,"##hold":7113,"##xon":7114,"##erning":7115,"##orthy":7116,"ingen":7117,"##oven":7118,"unple":7119,"fever":7120,"quar":7121,"prejud":7122,"partly":7123,"##ifting":7124,"insist":7125,"artific":7126,"creators":7127,"norman":7128,"pleased":7129,"distant":7130,"sidekick":7131,"importantly":7132,"bullet":7133,"competition":7134,"##works":7135,"sacrifice":7136,"assassin":7137,"presumably":7138,"superficial":7139,"tremendous":7140,"corpse":7141,"margaret":7142,"inaccur":7143,"akshay":7144,"apr":7145,"cia":7146,"gil":7147,"od":7148,"rig":7149,"wack":7150,"##now":7151,"##ller":7152,"##anny":7153,"rein":7154,"##ower":7155,"shah":7156,"##urai":7157,"abc":7158,"##agin":7159,"##mann":7160,"blob":7161,"aforem":7162,"precise":7163,"realise":7164,"appr":7165,"appalling":7166,"farce":7167,"wondered":7168,"glorious":7169,"menacing":7170,"talked":7171,"uniform":7172,"buried":7173,"returning":7174,"##shine":7175,"boxing":7176,"flawless":7177,"superbly":7178,"raped":7179,"arrested":7180,"lifesty":7181,"temple":7182,"threatening":7183,"drunken":7184,"individuals":7185,"australia":7186,"incompet":7187,"photographed":7188,"exaggerated":7189,"conspiracy":7190,"eccentric":7191,"aforementioned":7192,"cag":7193,"jun":7194,"rive":7195,"##iation":7196,"beer":7197,"##iders":7198,"doors":7199,"dire":7200,"##eryl":7201,"##orted":7202,"##igan":7203,"guide":7204,"slick":7205,"##aze":7206,"wonders":7207,"coach":7208,"corb":7209,"drivel":7210,"admire":7211,"listed":7212,"samurai":7213,"narrator":7214,"jumping":7215,"regardless":7216,"##world":7217,"highlights":7218,"frustrated":7219,"ticket":7220,"liberal":7221,"mitchell":7222,"gandhi":7223,"jealous":7224,"repetitive":7225,"nurse":7226,"pink":7227,"##mons":7228,"##icop":7229,"##ado":7230,"shout":7231,"##cend":7232,"##ummer":7233,"characterization":7234,"horrors":7235,"stress":7236,"trap":7237,"helicop":7238,"craig":7239,"generous":7240,"curiosity":7241,"planning":7242,"pleasantly":7243,"beaten":7244,"bullets":7245,"rapid":7246,"bucks":7247,"electric":7248,"achievement":7249,"accomplished":7250,"miserably":7251,"piano":7252,"spooky":7253,"throat":7254,"cagney":7255,"nod":7256,"oce":7257,"##uing":7258,"##of":7259,"##oric":7260,"##icient":7261,"chain":7262,"notes":7263,"##ola":7264,"conqu":7265,"clues":7266,"perry":7267,"wells":7268,"precious":7269,"poll":7270,"empire":7271,"accused":7272,"craven":7273,"drac":7274,"cameron":7275,"spoiled":7276,"picking":7277,"marks":7278,"##unky":7279,"goldberg":7280,"attracted":7281,"alexander":7282,"argument":7283,"ironically":7284,"consequences":7285,"francisco":7286,"laurel":7287,"uninspired":7288,"territory":7289,"unpleasant":7290,"dict":7291,"fx":7292,"foul":7293,"hmm":7294,"kin":7295,"##rich":7296,"##othing":7297,"staff":7298,"anal":7299,"##keys":7300,"wend":7301,"unm":7302,"##inder":7303,"watches":7304,"muse":7305,"blows":7306,"prev":7307,"offs":7308,"resur":7309,"emily":7310,"turner":7311,"indians":7312,"##awa":7313,"shortly":7314,"morality":7315,"modesty":7316,"duck":7317,"opposed":7318,"20th":7319,"slightest":7320,"##pses":7321,"response":7322,"logical":7323,"souls":7324,"revealing":7325,"hatred":7326,"melodramatic":7327,"gradu":7328,"motivation":7329,"ellen":7330,"psychiatrist":7331,"manhattan":7332,"superhero":7333,"gw":7334,"ire":7335,"mast":7336,"##rics":7337,"shoes":7338,"suits":7339,"...)":7340,"......":7341,"saf":7342,"cared":7343,"directorial":7344,"compassion":7345,"titled":7346,"lacked":7347,"duo":7348,"documentaries":7349,"pulling":7350,"subplot":7351,"pulp":7352,"captivating":7353,"installment":7354,"felix":7355,"subsequent":7356,"kitchen":7357,"convoluted":7358,"dracula":7359,"ape":7360,"dum":7361,"ought":7362,"tie":7363,"tiger":7364,"##lan":7365,"##hand":7366,"##rate":7367,"##isions":7368,"##lle":7369,"rever":7370,"anch":7371,"##oops":7372,"scot":7373,"##ortion":7374,"pear":7375,"peak":7376,"horrid":7377,"psychotic":7378,"futuristic":7379,"ignored":7380,"candid":7381,"remaining":7382,"intrigued":7383,"aimed":7384,"unwatch":7385,"waters":7386,"conceived":7387,"overdone":7388,"warrior":7389,"forbidden":7390,"wannabe":7391,"fist":7392,"gyp":7393,"holly":7394,"##lk":7395,"##fun":7396,"##bal":7397,"##inn":7398,"##atisf":7399,"##owed":7400,"seed":7401,"chill":7402,"notably":7403,"worried":7404,"##aude":7405,"##agan":7406,"##quel":7407,"instit":7408,"scripted":7409,"reasonably":7410,"fancy":7411,"failing":7412,"satir":7413,"2004":7414,"bene":7415,"paulie":7416,"verhoe":7417,"scientific":7418,"smoke":7419,"repeatedly":7420,"tunes":7421,"obscure":7422,"elderly":7423,"restaurant":7424,"gimm":7425,"verhoeven":7426,"fog":7427,"gif":7428,"nas":7429,"pushing":7430,"##ucing":7431,"##tv":7432,"##pin":7433,"supre":7434,"##estic":7435,"outcome":7436,"timothy":7437,"##udge":7438,"spider":7439,"crook":7440,"pretend":7441,"musc":7442,"marl":7443,"relent":7444,"##ashes":7445,"acclaim":7446,"explore":7447,"glenn":7448,"misses":7449,"providing":7450,"reduced":7451,"distance":7452,"combat":7453,"juliet":7454,"undoub":7455,"draws":7456,"idiots":7457,"panic":7458,"loosely":7459,"discussion":7460,"gradually":7461,"symbolism":7462,"exhib":7463,"dignity":7464,"griffith":7465,"hysterical":7466,"elaborate":7467,"giallo":7468,"soviet":7469,"cig":7470,"cried":7471,"dave":7472,"ta":7473,"##aurs":7474,"##rd":7475,"whale":7476,"reh":7477,"reel":7478,"sept":7479,"##unning":7480,"##inda":7481,"intent":7482,"function":7483,"##anski":7484,"slave":7485,"sloppy":7486,"stiller":7487,"screams":7488,"settle":7489,"warren":7490,"march":7491,"phr":7492,"reasonable":7493,"morris":7494,"romero":7495,"darker":7496,"walker":7497,"2003":7498,"returned":7499,"exposed":7500,"sticks":7501,"sunshine":7502,"juven":7503,"shadows":7504,"carrie":7505,"bathroom":7506,"translation":7507,"kenneth":7508,"sneak":7509,"gimmick":7510,"dish":7511,"jazz":7512,"lamp":7513,"##gent":7514,"##bird":7515,"##entine":7516,"chor":7517,"areas":7518,"##istan":7519,"imper":7520,"blake":7521,"##weight":7522,"holy":7523,"param":7524,"absence":7525,"danes":7526,"dancers":7527,"annie":7528,"imagined":7529,"discovery":7530,"heroic":7531,"purple":7532,"contrary":7533,"rocket":7534,"wallace":7535,"observ":7536,"uneven":7537,"1930s":7538,"unbelievably":7539,"karen":7540,"rambo":7541,"berg":7542,"tortured":7543,"arrive":7544,"defend":7545,"commercials":7546,"hypn":7547,"altman":7548,"birds":7549,"divorce":7550,"unbearable":7551,"yesterday":7552,"astr":7553,"woo":7554,"##aled":7555,"stole":7556,"movements":7557,"chest":7558,"exter":7559,"extended":7560,"crush":7561,"twelve":7562,"donna":7563,"prec":7564,"differences":7565,"eyre":7566,"concerning":7567,"##onym":7568,"merit":7569,"improved":7570,"require":7571,"reached":7572,"mildred":7573,"royal":7574,"synops":7575,"choreography":7576,"##breaking":7577,"landscape":7578,"astonishing":7579,"ireland":7580,"bite":7581,"dah":7582,"daring":7583,"fart":7584,"nause":7585,"nerv":7586,"punk":7587,"rud":7588,"roth":7589,"rabb":7590,"##ji":7591,"anx":7592,"conve":7593,"anyways":7594,"bron":7595,"overrated":7596,"blast":7597,"displays":7598,"awa":7599,"confir":7600,"styles":7601,"collabor":7602,"snake":7603,"tommy":7604,"swear":7605,"illeg":7606,"secrets":7607,"builds":7608,"existed":7609,"winds":7610,"burned":7611,"drawing":7612,"affected":7613,"nazis":7614,"occurred":7615,"fulci":7616,"involvement":7617,"inhabit":7618,"kapoor":7619,"newspaper":7620,"##rehensible":7621,"dill":7622,"greek":7623,"hers":7624,"wis":7625,"##jo":7626,"##ilted":7627,"##urance":7628,"##rial":7629,"##olves":7630,"blunt":7631,"genres":7632,"apes":7633,"apolog":7634,"##atingly":7635,"terry":7636,"enterpr":7637,"audio":7638,"demands":7639,"popc":7640,"devast":7641,"delicious":7642,"antics":7643,"hamilton":7644,"contained":7645,"beatty":7646,"##opping":7647,"machines":7648,"unsett":7649,"sales":7650,"blend":7651,"recognized":7652,"ranks":7653,"currently":7654,"argue":7655,"resembles":7656,"population":7657,"nicholson":7658,"global":7659,"##ffee":7660,"adequate":7661,"undoubted":7662,"50s":7663,"dy":7664,"fing":7665,"pant":7666,"ts":7667,"tame":7668,"vall":7669,"##sp":7670,"##iy":7671,"##iar":7672,"threw":7673,"##erved":7674,"##asion":7675,"chains":7676,"##rah":7677,"neo":7678,"enchant":7679,"##igo":7680,"##ogether":7681,"adoles":7682,"enjoys":7683,"trio":7684,"harder":7685,"insert":7686,"steam":7687,"robots":7688,"##isms":7689,"unfair":7690,"sadness":7691,"sadistic":7692,"centered":7693,"ridiculously":7694,"lawrence":7695,"cats":7696,"meaningless":7697,"bedroom":7698,"receive":7699,"sarc":7700,"investigate":7701,"optim":7702,"altogether":7703,"explosion":7704,"dutch":7705,"proceedings":7706,"ruthless":7707,"dynamic":7708,"journalist":7709,"encoura":7710,"swedish":7711,"seventies":7712,"innovative":7713,"pokemon":7714,"pseudo":7715,"website":7716,"popcorn":7717,"fighter":7718,"gor":7719,"nort":7720,"rage":7721,"rif":7722,"thugs":7723,"beats":7724,"befriend":7725,"staged":7726,"##idy":7727,"suited":7728,"brady":7729,"aging":7730,"flop":7731,"generic":7732,"humili":7733,"misunder":7734,"composed":7735,"dramat":7736,"cameras":7737,"madonna":7738,"suspicious":7739,"palt":7740,"closet":7741,"respond":7742,"intrigue":7743,"exploit":7744,"voight":7745,"fonda":7746,"dinosaurs":7747,"##original":7748,"crocod":7749,"synopsis":7750,"\"!":7751,"2nd":7752,"ease":7753,"kum":7754,"nem":7755,"nun":7756,"rural":7757,"##err":7758,"##edict":7759,"##itudes":7760,"##icity":7761,"stard":7762,"##ulf":7763,"##ulate":7764,"comfortable":7765,"neur":7766,"brun":7767,"clothing":7768,"##ionship":7769,"newcom":7770,"coast":7771,"dialogues":7772,"engaged":7773,"##lands":7774,"brains":7775,"barg":7776,"transport":7777,"devoted":7778,"2007":7779,"alexand":7780,"defeat":7781,"escaped":7782,"cellul":7783,"conversations":7784,"mountains":7785,"prostitute":7786,"mesmer":7787,"orchest":7788,"juvenile":7789,"\";":7790,"ew":7791,"ec":7792,"houses":7793,"ross":7794,"sme":7795,"vib":7796,"wag":7797,"##end":7798,"##ees":7799,"##ean":7800,"##zilla":7801,"##erk":7802,"##llie":7803,"whoop":7804,"shine":7805,"lips":7806,"exotic":7807,"orders":7808,"amuse":7809,"##place":7810,"sail":7811,"aggress":7812,"offering":7813,"warming":7814,"edie":7815,"kidding":7816,"coherent":7817,"coffee":7818,"imperson":7819,"versus":7820,"buddies":7821,"excru":7822,"murderous":7823,"antw":7824,"cinematographer":7825,"staying":7826,"laws":7827,"nearby":7828,"odds":7829,"latin":7830,"1930":7831,"conventional":7832,"immig":7833,"neglect":7834,"label":7835,"explosions":7836,"philosophy":7837,"cuba":7838,"lemmon":7839,"overwhelming":7840,"cringe":7841,"acknow":7842,"excruci":7843,"banned":7844,"hul":7845,"hbo":7846,"##nel":7847,"##va":7848,"##bie":7849,"##just":7850,"toys":7851,"inapp":7852,"abilities":7853,"##olph":7854,"##ptic":7855,"blowing":7856,"cary":7857,"fluff":7858,"removed":7859,"191":7860,"recover":7861,"producing":7862,"instant":7863,"liking":7864,"possessed":7865,"oppress":7866,"groups":7867,"marty":7868,"errors":7869,"damage":7870,"detailed":7871,"homer":7872,"palma":7873,"disturbed":7874,"nightmares":7875,"implausible":7876,"unintentional":7877,"kennedy":7878,"mickey":7879,"mummy":7880,"yellow":7881,"deliberately":7882,"celluloid":7883,"cunning":7884,"dating":7885,"tires":7886,"##hem":7887,"##gir":7888,"##inent":7889,"##itar":7890,"##abh":7891,"leo":7892,"clo":7893,"spare":7894,"##cia":7895,"adul":7896,"interrupt":7897,"relies":7898,"careers":7899,"possibility":7900,"harvey":7901,"masters":7902,"solo":7903,"airpl":7904,"illog":7905,"subjects":7906,"1996":7907,"explaining":7908,"survival":7909,"causing":7910,"daddy":7911,"tracks":7912,"officers":7913,"persu":7914,"jeffrey":7915,"influenced":7916,"resemblance":7917,"vulgar":7918,"distracting":7919,"##====":7920,"florida":7921,"metaphor":7922,"olivier":7923,"atlantis":7924,"ingredients":7925,"unwatchable":7926,"undoubtedly":7927,"90s":7928,"finger":7929,"hug":7930,"jar":7931,"lun":7932,"pars":7933,"pays":7934,"pale":7935,"##uable":7936,"##ications":7937,"retain":7938,"ath":7939,"##umsy":7940,"lean":7941,"##aux":7942,"goodness":7943,"clumsy":7944,"##iously":7945,"##ayson":7946,"blues":7947,"disj":7948,"funeral":7949,"awake":7950,"recon":7951,"keen":7952,"highest":7953,"classes":7954,"explored":7955,"glamor":7956,"polanski":7957,"skull":7958,"passes":7959,"props":7960,"garner":7961,"politically":7962,"spirits":7963,"##ettes":7964,"focusing":7965,"signs":7966,"catches":7967,"furthermore":7968,"cryst":7969,"satisfied":7970,"succeeded":7971,"primary":7972,"hideous":7973,"##!!!!!!!!":7974,"brooklyn":7975,"duty":7976,"colonel":7977,"scheme":7978,"wizard":7979,"(!":7980,"bump":7981,"hog":7982,"kol":7983,"nap":7984,"wives":7985,"##lag":7986,"##hill":7987,"##iner":7988,"stack":7989,"stabb":7990,"##emies":7991,"##emark":7992,"maggie":7993,"outer":7994,"measure":7995,"arist":7996,"pegg":7997,"flies":7998,"##ipes":7999,"##ocative":8000,"decisions":8001,"##xture":8002,"secondly":8003,"models":8004,"winters":8005,"smaller":8006,"godzilla":8007,"repuls":8008,"trees":8009,"sentence":8010,"1999":8011,"1960":8012,"mysteries":8013,"remarkably":8014,"travels":8015,"affection":8016,"linda":8017,"arab":8018,"chaos":8019,"financial":8020,"ocean":8021,"aug":8022,"egg":8023,"gest":8024,"hates":8025,"len":8026,"rook":8027,"##ecess":8028,"##cingly":8029,"##atures":8030,"##isons":8031,"rebel":8032,"rebell":8033,"ster":8034,"forty":8035,"notion":8036,"mail":8037,"enemies":8038,"clay":8039,"amy":8040,"endings":8041,"flir":8042,"characteristic":8043,"esp":8044,"thoughtful":8045,"chronic":8046,"unfolds":8047,"portion":8048,"##ologue":8049,"fantas":8050,"streep":8051,"predecess":8052,"devoid":8053,"destiny":8054,"surviving":8055,"companion":8056,"fundam":8057,"communist":8058,"desperation":8059,"recorded":8060,"berlin":8061,"primarily":8062,"frustration":8063,"consistently":8064,"stinker":8065,"lyrics":8066,"choreograph":8067,"yawn":8068,"offended":8069,"doomed":8070,"blatant":8071,"grinch":8072,"principal":8073,"lifestyle":8074,"beneath":8075,"enterprise":8076,"disjointed":8077,"3rd":8078,"bent":8079,"easter":8080,"egy":8081,"elli":8082,"sore":8083,"##ros":8084,"##crow":8085,"##gers":8086,"##atoes":8087,"##ovich":8088,"##etically":8089,"alert":8090,"diane":8091,"##umble":8092,"##obi":8093,"impe":8094,"user":8095,"disli":8096,"directs":8097,"performer":8098,"cheating":8099,"senseless":8100,"dances":8101,"curs":8102,"##enna":8103,"inferior":8104,"motives":8105,"garbo":8106,"countryside":8107,"grandfather":8108,"hyper":8109,"julian":8110,"trademark":8111,"immort":8112,"terrorist":8113,"mixture":8114,"celebrity":8115,"montage":8116,"circle":8117,"horrifying":8118,"dozens":8119,"revolutionary":8120,"hints":8121,"shirley":8122,"fetched":8123,"shelf":8124,"wrestling":8125,"enormous":8126,"artificial":8127,"cigar":8128,"nervous":8129,"egypt":8130,"dys":8131,"jol":8132,"uwe":8133,"wet":8134,"##lers":8135,"##ko":8136,"topless":8137,"##ulated":8138,"socc":8139,"depend":8140,"macy":8141,"orph":8142,"drops":8143,"mayor":8144,"##acies":8145,"sett":8146,"obtain":8147,"hardcore":8148,"acid":8149,"housew":8150,"lund":8151,"wax":8152,"hopeless":8153,"painted":8154,"developing":8155,"melting":8156,"##heim":8157,"avoided":8158,"judging":8159,"calm":8160,"trailers":8161,"urge":8162,"subtlety":8163,"reaches":8164,"traveling":8165,"surfing":8166,"eighties":8167,"describes":8168,"domino":8169,"gigg":8170,"dismiss":8171,"benefit":8172,"stellar":8173,"immensely":8174,"unsettling":8175,",,":8176,"cure":8177,"eri":8178,"gib":8179,"jed":8180,"khan":8181,"niro":8182,"pic":8183,"ties":8184,"wig":8185,"##ded":8186,"##hr":8187,"##yon":8188,"whim":8189,"##utter":8190,"##adine":8191,"##cha":8192,"##idal":8193,"##ami":8194,"##ularly":8195,"planned":8196,"##arts":8197,"diana":8198,"timon":8199,"amanda":8200,"adorable":8201,"##izable":8202,"recru":8203,"apoc":8204,"edit":8205,"brav":8206,"wont":8207,"contrad":8208,"repub":8209,"technic":8210,"##issa":8211,"gerard":8212,"##etti":8213,"matches":8214,"troubles":8215,"backgrounds":8216,"blew":8217,"angeles":8218,"satisfact":8219,"practice":8220,"authority":8221,"jewel":8222,"scroo":8223,"simplistic":8224,"hartley":8225,"specifically":8226,"miserable":8227,"emphasis":8228,"saga":8229,"survivors":8230,"outfit":8231,"iraq":8232,"april":8233,"illogical":8234,"soccer":8235,"')":8236,"cd":8237,"dazz":8238,"faster":8239,"ling":8240,"ny":8241,"##uity":8242,"##yll":8243,"##ctions":8244,"##ieces":8245,"##adle":8246,"assem":8247,"analy":8248,"chess":8249,"lip":8250,"##pel":8251,"neph":8252,"##ounding":8253,"amit":8254,"##agues":8255,"peoples":8256,"awak":8257,"simil":8258,"mario":8259,"steel":8260,"menace":8261,"forms":8262,"breed":8263,"useful":8264,"transition":8265,"towns":8266,"##arthur":8267,"prompt":8268,"commented":8269,"babe":8270,"illness":8271,"util":8272,"judy":8273,"claimed":8274,"1940":8275,"dickens":8276,"loads":8277,"corruption":8278,"lumet":8279,"dinosaur":8280,"transformation":8281,"##donald":8282,"resurrect":8283,"cards":8284,"ears":8285,"lena":8286,"rene":8287,"wt":8288,"##lam":8289,"##gren":8290,"##inity":8291,"##otte":8292,"##esth":8293,"enlight":8294,"##atched":8295,"##igner":8296,"endure":8297,"serge":8298,"lasted":8299,"parano":8300,"##aneously":8301,"racial":8302,"guessed":8303,"psychopath":8304,"##enger":8305,"rooms":8306,"weakest":8307,"honesty":8308,"introduces":8309,"limits":8310,"hurts":8311,"trashy":8312,"represented":8313,"depressed":8314,"sellers":8315,"passionate":8316,"jonathan":8317,"disappeared":8318,"displayed":8319,"interaction":8320,"earned":8321,"philosophical":8322,"dedicated":8323,"arrogant":8324,"##ophobic":8325,"elephant":8326,"riveting":8327,"chorus":8328,"bergman":8329,"choreographed":8330,"republic":8331,"nephew":8332,"22":8333,"?'":8334,"cake":8335,"eli":8336,"icon":8337,"rag":8338,"tank":8339,"wore":8340,"##orc":8341,"whis":8342,"repress":8343,"sho":8344,"shap":8345,"shake":8346,"chased":8347,"liz":8348,"prize":8349,"wendy":8350,"justify":8351,"overt":8352,"quotes":8353,"adams":8354,"realizing":8355,"compens":8356,"monkeys":8357,"pacif":8358,"possibilities":8359,"##ysis":8360,"hopper":8361,"similarities":8362,"unsatisf":8363,"macarthur":8364,"kicked":8365,"stereotype":8366,"sandra":8367,"moody":8368,"porno":8369,"voiced":8370,"miy":8371,"##aaaa":8372,"buffs":8373,"scarecrow":8374,"formulaic":8375,"ethnic":8376,"charlotte":8377,"nomination":8378,"isolated":8379,"abysmal":8380,"safety":8381,"pearl":8382,"similarly":8383,"cu":8384,"gym":8385,"ka":8386,"rit":8387,"##ele":8388,"##mi":8389,"##fight":8390,"##bly":8391,"##bod":8392,"##?!":8393,"##orney":8394,"inane":8395,"button":8396,"chave":8397,"scope":8398,"unse":8399,"myr":8400,"myers":8401,"thru":8402,"##pled":8403,"##assy":8404,"##peror":8405,"recyc":8406,"newly":8407,"emperor":8408,"##acle":8409,"trained":8410,"misle":8411,"tribe":8412,"sounding":8413,"defense":8414,"christy":8415,"understandable":8416,"##annon":8417,"considerable":8418,"snl":8419,"pattern":8420,"promised":8421,"kingdom":8422,"campbell":8423,"treats":8424,"1972":8425,"improve":8426,"casual":8427,"dimension":8428,"bonus":8429,"faults":8430,"stinks":8431,"education":8432,"rotten":8433,"solely":8434,"swimming":8435,"inventive":8436,"nostalgic":8437,"puppet":8438,"dalton":8439,"dolph":8440,"grasp":8441,"conservative":8442,"helicopter":8443,"amitabh":8444,"chavez":8445,"eug":8446,"kent":8447,"kyle":8448,"lately":8449,"mish":8450,"ot":8451,"pour":8452,"##dow":8453,"##oir":8454,"##wright":8455,"##vest":8456,"##book":8457,"##oma":8458,"stilted":8459,"asp":8460,"##verted":8461,"sung":8462,"deaf":8463,"##antee":8464,"orson":8465,"mund":8466,"blur":8467,"facing":8468,"poetic":8469,"##ivals":8470,"species":8471,"downhill":8472,"comparing":8473,"elimin":8474,"##onscious":8475,"christians":8476,"simpson":8477,"gender":8478,"namely":8479,"peters":8480,"patric":8481,"airport":8482,"photos":8483,"mistress":8484,"claus":8485,"##ivalent":8486,"hyde":8487,"dais":8488,"bleed":8489,"dolls":8490,"embarrassment":8491,"fooled":8492,"foolish":8493,"legal":8494,"coward":8495,"consistent":8496,"contempl":8497,"fleet":8498,"tonight":8499,"aids":8500,"##uddled":8501,"purchase":8502,"agrees":8503,"corporate":8504,"ignorant":8505,"unhappy":8506,"parallel":8507,"##quisite":8508,"museum":8509,"bark":8510,"ollie":8511,"ps":8512,"pants":8513,"sits":8514,"taught":8515,"##uge":8516,"##rina":8517,"##riel":8518,"##tte":8519,"##?)":8520,"##era":8521,"shan":8522,"##cks":8523,"##astically":8524,"unrel":8525,"armed":8526,"blade":8527,"pretending":8528,"vegas":8529,"attorney":8530,"edgar":8531,"letters":8532,"monot":8533,"gloss":8534,"confidence":8535,"sadd":8536,"waited":8537,"lackl":8538,"despair":8539,"wished":8540,"1983":8541,"halluc":8542,"##........":8543,"reaching":8544,"dirt":8545,"##ropriately":8546,"montana":8547,"stevens":8548,"motivations":8549,"ruby":8550,"rubber":8551,"loren":8552,"applaud":8553,"shelley":8554,"constructed":8555,"fulfill":8556,"unpredict":8557,"stooges":8558,"##function":8559,"tiresome":8560,"!'":8561,"kl":8562,"oct":8563,"sill":8564,"tier":8565,"vice":8566,"##iant":8567,"##iably":8568,"##holic":8569,"##woman":8570,"##town":8571,"##stin":8572,"##chi":8573,"##ids":8574,"##idently":8575,"plight":8576,"commend":8577,"##osis":8578,"divers":8579,"dixon":8580,"upl":8581,"poem":8582,"sappy":8583,"agents":8584,"partners":8585,"writes":8586,"gundam":8587,"flam":8588,"grotes":8589,"joh":8590,"horn":8591,"bela":8592,"incest":8593,"humble":8594,"relation":8595,"schlock":8596,"glim":8597,"staring":8598,"confident":8599,"confron":8600,"engage":8601,"behave":8602,"irres":8603,"raising":8604,"greg":8605,"buildings":8606,"delivering":8607,"gangsters":8608,"combine":8609,"closest":8610,"ballet":8611,"cleverly":8612,"scarlet":8613,"destroying":8614,"suitable":8615,"raymond":8616,"carradine":8617,"connery":8618,"virginia":8619,"nicol":8620,"jenny":8621,"alfred":8622,"vengeance":8623,"paltrow":8624,"crocodile":8625,"aven":8626,"barn":8627,"coc":8628,"cav":8629,"jod":8630,"loos":8631,"rav":8632,"##ih":8633,"##rest":8634,"##vity":8635,"inject":8636,"reck":8637,"stark":8638,"prol":8639,"##raw":8640,"##antino":8641,"unst":8642,"##ivable":8643,"flag":8644,"farrell":8645,"reads":8646,"blacks":8647,"couples":8648,"engross":8649,"synd":8650,"waves":8651,"swall":8652,"valuable":8653,"convincingly":8654,"secretly":8655,"climactic":8656,"bands":8657,"jumped":8658,"scottish":8659,"1968":8660,"arrived":8661,"square":8662,"industrial":8663,"conflicts":8664,"civilization":8665,"robinson":8666,"sirk":8667,"alcoholic":8668,"gentleman":8669,"miracle":8670,"guarantee":8671,"elegant":8672,"september":8673,"airplane":8674,"scrooge":8675,"paranoia":8676,"cyc":8677,"june":8678,"lav":8679,"molly":8680,"nar":8681,"pas":8682,"wret":8683,"wrap":8684,"yok":8685,"##low":8686,"##eur":8687,"##mp":8688,"shod":8689,"chop":8690,"chand":8691,"hav":8692,"sue":8693,"plod":8694,"whats":8695,"closed":8696,"amid":8697,"willis":8698,"spock":8699,"yelling":8700,"grind":8701,"resident":8702,"surpass":8703,"cheated":8704,"misery":8705,"marion":8706,"audition":8707,"leaders":8708,"exploration":8709,"##rett":8710,"lowest":8711,"creator":8712,"##annah":8713,"pops":8714,"frankenstein":8715,"richardson":8716,"exped":8717,"waitress":8718,"catching":8719,"balls":8720,"1960s":8721,"kicking":8722,"witches":8723,"understated":8724,"ethan":8725,"robbery":8726,"beliefs":8727,"austen":8728,"nicholas":8729,"wrapped":8730,"poetry":8731,"chicago":8732,"lundgren":8733,"lens":8734,"oth":8735,"##lines":8736,"##mel":8737,"##tr":8738,"##jay":8739,"##ancing":8740,"isab":8741,"##icism":8742,"##ovsky":8743,"stale":8744,"##eta":8745,"fren":8746,"scores":8747,"abusive":8748,"intric":8749,"firstly":8750,"grie":8751,"##eps":8752,"desired":8753,"##iped":8754,"undert":8755,"traff":8756,"invasion":8757,"blackm":8758,"messed":8759,"richards":8760,"spoke":8761,"greedy":8762,"centers":8763,"##ushi":8764,"construction":8765,"potentially":8766,"photo":8767,"claustr":8768,"questionable":8769,"germans":8770,"survived":8771,"obsess":8772,"catchy":8773,"literature":8774,"designs":8775,"riot":8776,"remarks":8777,"walt":8778,"progresses":8779,"simplicity":8780,"advertising":8781,"nostalgia":8782,"taxi":8783,"bottle":8784,"stallone":8785,"vulnerable":8786,"junior":8787,"bargain":8788,"75":8789,"darr":8790,"hench":8791,"uh":8792,"##oen":8793,"thorn":8794,"##anos":8795,"##omnia":8796,"##leans":8797,"bever":8798,"##stage":8799,"shed":8800,"##alled":8801,"soder":8802,"dee":8803,"mankind":8804,"cloud":8805,"guitar":8806,"joined":8807,"attitudes":8808,"apple":8809,"buzz":8810,"persons":8811,"helm":8812,"careful":8813,"absent":8814,"restored":8815,"experiments":8816,"copies":8817,"alongside":8818,"advise":8819,"advanced":8820,"demented":8821,"hello":8822,"##issance":8823,"louise":8824,"frankie":8825,"mclag":8826,"hunters":8827,"operation":8828,"condem":8829,"recognition":8830,"amounts":8831,"complexity":8832,"brutally":8833,"depicts":8834,"lengthy":8835,"unexpl":8836,"eaten":8837,"chapter":8838,"nerd":8839,"intentionally":8840,"vaguely":8841,"purchased":8842,"gabriel":8843,"irrele":8844,"wandering":8845,"arguably":8846,"bacall":8847,"showcase":8848,"rendition":8849,"phantom":8850,"illegal":8851,"inappropriate":8852,"dysfunction":8853,"ritual":8854,"grotesque":8855,"wretched":8856,"bast":8857,"naught":8858,"nuts":8859,"nathan":8860,"rave":8861,"rising":8862,"roof":8863,"##yers":8864,"##iceless":8865,"##ala":8866,"##ilight":8867,"online":8868,"reid":8869,"reign":8870,"seld":8871,"habit":8872,"##ulation":8873,"degr":8874,"likewise":8875,"##aste":8876,"justin":8877,"unit":8878,"unle":8879,"troops":8880,"intimate":8881,"betty":8882,"quant":8883,"twilight":8884,"poe":8885,"grate":8886,"grayson":8887,"rooney":8888,"minus":8889,"relatives":8890,"edition":8891,"visible":8892,"visits":8893,"drake":8894,"distingu":8895,"bread":8896,"demonic":8897,"petty":8898,"patients":8899,"opinions":8900,"##hears":8901,"descent":8902,"##ucky":8903,"damon":8904,"1973":8905,"protest":8906,"signed":8907,"matched":8908,"##opped":8909,"prisoner":8910,"prisoners":8911,"terrorists":8912,"floating":8913,"witnesses":8914,"ashley":8915,"chicks":8916,"domestic":8917,"incomprehensible":8918,"biko":8919,"cybor":8920,"neighbors":8921,"resources":8922,"wisdom":8923,")...":8924,"apt":8925,"cities":8926,"furn":8927,"vic":8928,"yard":8929,"##fire":8930,"##erate":8931,"##eson":8932,"ingr":8933,"##oms":8934,"##icia":8935,"##ersh":8936,"priceless":8937,"abra":8938,"worn":8939,"org":8940,"##ousing":8941,"lect":8942,"carell":8943,"keith":8944,"attrib":8945,"viewings":8946,"##aware":8947,"helpless":8948,"classical":8949,"dreary":8950,"ridden":8951,"lively":8952,"capturing":8953,"tomatoes":8954,"solution":8955,"earl":8956,"appreciation":8957,"losers":8958,"fascinated":8959,"squad":8960,"equip":8961,"witnessed":8962,"responsibility":8963,"substit":8964,"ensues":8965,"abandon":8966,"proceeds":8967,"manipulative":8968,"challenging":8969,"alternate":8970,"barrymore":8971,"agreed":8972,"jaws":8973,"##____":8974,"accompanied":8975,"basketball":8976,"rhyth":8977,"incompetent":8978,"analysis":8979,"rabbit":8980,"antwone":8981,"orphan":8982,"technicol":8983,"\"-":8984,"3d":8985,"cri":8986,"lush":8987,"mud":8988,"os":8989,"rude":8990,"rats":8991,"wals":8992,"##lins":8993,"##lma":8994,"##oh":8995,"##ju":8996,"##atics":8997,"##edly":8998,"##lls":8999,"##otion":9000,"rew":9001,"butler":9002,"alison":9003,"scor":9004,"scand":9005,"map":9006,"plausible":9007,"trump":9008,"spaces":9009,"parties":9010,"wrench":9011,"serving":9012,"grass":9013,"##bergh":9014,"##ocol":9015,"##angle":9016,"belushi":9017,"trace":9018,"smiling":9019,"indiffer":9020,"mighty":9021,"tyr":9022,"defined":9023,"greed":9024,"snob":9025,"masterful":9026,"rocky":9027,"randy":9028,"unden":9029,"satisfy":9030,"arrival":9031,"compelled":9032,"property":9033,"disgrace":9034,"equivalent":9035,"widely":9036,"accomplish":9037,"frequent":9038,"owen":9039,"alternative":9040,"championship":9041,"excessive":9042,"subplots":9043,"incorpor":9044,"overacting":9045,"alleged":9046,"mundane":9047,"othello":9048,"!,":9049,":-":9050,"holl":9051,"jord":9052,"mtv":9053,"nyc":9054,"sf":9055,"zize":9056,"##iour":9057,"##hin":9058,"thomp":9059,"##inations":9060,"whit":9061,"doct":9062,"exquisite":9063,"orleans":9064,"fee":9065,"seeks":9066,"tends":9067,"pee":9068,"pock":9069,"##ints":9070,"##forward":9071,"##ansas":9072,"##azaki":9073,"##ashi":9074,"insomnia":9075,"##arring":9076,"consci":9077,"superst":9078,"graham":9079,"suspend":9080,"barrel":9081,"novak":9082,"psychic":9083,"duch":9084,"campa":9085,"hilariously":9086,"rukh":9087,"1984":9088,"historically":9089,"##strong":9090,"crucial":9091,"angela":9092,"channels":9093,"exceptionally":9094,"legit":9095,"dressing":9096,"warmth":9097,"ninja":9098,"dropping":9099,"enthusiasm":9100,"landscapes":9101,"rangers":9102,"wacky":9103,"wagner":9104,"abraham":9105,"walsh":9106,"zizek":9107,".(":9108,"bumbling":9109,"dw":9110,"dj":9111,"omen":9112,"pix":9113,"wishing":9114,"##uction":9115,"##orth":9116,"##ioni":9117,"##aman":9118,"exorc":9119,"orange":9120,"meand":9121,"clip":9122,"perce":9123,"showdown":9124,"willie":9125,"spain":9126,"imitation":9127,"crown":9128,"prequel":9129,"carla":9130,"specially":9131,"simult":9132,"obst":9133,"##ubby":9134,"subl":9135,"leth":9136,"monk":9137,"polished":9138,"creativity":9139,"distress":9140,"generated":9141,"##veloped":9142,"mentioning":9143,"sweat":9144,"ern":9145,"1933":9146,"masterpieces":9147,"recording":9148,"opportunities":9149,"randomly":9150,"13th":9151,"mentions":9152,"nonsens":9153,"loaded":9154,"pursuit":9155,"cassave":9156,"cassidy":9157,"watson":9158,"improvement":9159,"methods":9160,"heights":9161,"survivor":9162,"fido":9163,"chooses":9164,"mechanical":9165,"pamela":9166,"astron":9167,"soderbergh":9168,"irrelevant":9169,"thompson":9170,"30s":9171,"bs":9172,"darn":9173,"eb":9174,"goo":9175,"meryl":9176,"oly":9177,"##po":9178,"therap":9179,"stab":9180,"dele":9181,"intim":9182,"##icking":9183,"quinn":9184,"awfully":9185,"##eping":9186,"drum":9187,"performs":9188,"reson":9189,"simmons":9190,"indic":9191,"phony":9192,"elm":9193,"##onson":9194,"entr":9195,"household":9196,"morbid":9197,"brenda":9198,"behold":9199,"cannon":9200,"promises":9201,"duv":9202,"ruins":9203,"suffice":9204,"damme":9205,"palace":9206,"introduce":9207,"purposes":9208,"ramones":9209,"punishment":9210,"marketing":9211,"sabrina":9212,"kuros":9213,"caliber":9214,"minimum":9215,"obliv":9216,"wounded":9217,"feminist":9218,"hippie":9219,"album":9220,"empathy":9221,"travesty":9222,"borrowed":9223,"scotland":9224,"gifted":9225,"##onymous":9226,"whoopi":9227,"august":9228,"eastern":9229,"eugene":9230,"equipment":9231,"bos":9232,"dil":9233,"gate":9234,"gret":9235,"hans":9236,"honey":9237,"rail":9238,"soup":9239,"saint":9240,"ustin":9241,"wang":9242,"##rows":9243,"##esc":9244,"##alie":9245,"stor":9246,"##cel":9247,"##uries":9248,"sugar":9249,"unoriginal":9250,"unaware":9251,"##igm":9252,"clu":9253,"bloom":9254,"quit":9255,"##tends":9256,"##izations":9257,"inducing":9258,"coff":9259,"##xties":9260,"stargate":9261,"dana":9262,"moronic":9263,"dreck":9264,"definition":9265,"fuller":9266,"geek":9267,"fury":9268,"1987":9269,"respected":9270,"spacey":9271,"1997":9272,"roller":9273,"rolled":9274,"expressed":9275,"businessman":9276,"masses":9277,"popularity":9278,"conduct":9279,"##borough":9280,"receives":9281,"testament":9282,"biography":9283,"kissing":9284,"stretched":9285,"educational":9286,"sixties":9287,"crawford":9288,"assigned":9289,"phillip":9290,"comprom":9291,"activities":9292,"unimagin":9293,"crystal":9294,"miyazaki":9295,"unseen":9296,"darren":9297,"mclaglen":9298,"campaign":9299,"kurosawa":9300,"ustinov":9301,"bub":9302,"cec":9303,"ga":9304,"kra":9305,"marth":9306,"pump":9307,"tent":9308,"tact":9309,"##uated":9310,"##water":9311,"##rad":9312,"##bury":9313,"##ester":9314,"tod":9315,"bend":9316,"##utions":9317,"##entin":9318,"##ione":9319,"hears":9320,"soci":9321,"wholly":9322,"enl":9323,"unra":9324,"##itect":9325,"greatness":9326,"##plo":9327,"roots":9328,"underlying":9329,"interests":9330,"edgy":9331,"laughably":9332,"sched":9333,"cream":9334,"syl":9335,"retired":9336,"valid":9337,"2008":9338,"mete":9339,"milk":9340,"resulting":9341,"lands":9342,"furious":9343,"doubts":9344,"expand":9345,"1993":9346,"stunned":9347,"publish":9348,"deniro":9349,"tarantino":9350,"teaching":9351,"sunny":9352,"##enez":9353,"package":9354,"squir":9355,"depicting":9356,"assumed":9357,"##haust":9358,"architect":9359,"buffalo":9360,"correctly":9361,"sissy":9362,"bridget":9363,"nicole":9364,"antonioni":9365,"austin":9366,"inevitably":9367,"composer":9368,"distribution":9369,"exposure":9370,"warriors":9371,"pierce":9372,"deceased":9373,"guarante":9374,"integrity":9375,"shameless":9376,"valley":9377,"kolch":9378,"shangh":9379,"unpredictable":9380,"expedition":9381,"seldom":9382,"cripp":9383,"nonsensical":9384,"buster":9385,"baff":9386,"fought":9387,"rant":9388,"raz":9389,"rapt":9390,"sway":9391,"tin":9392,"vom":9393,"wire":9394,"woe":9395,"##uf":9396,"##ipe":9397,"##aving":9398,"##okes":9399,"##rams":9400,"##gra":9401,"##jack":9402,"##inel":9403,"##onne":9404,"##itled":9405,"stad":9406,"##char":9407,"##ghter":9408,"##amin":9409,"butter":9410,"fried":9411,"sust":9412,"congr":9413,"enfor":9414,"lex":9415,"perm":9416,"twins":9417,"prey":9418,"directions":9419,"##cca":9420,"joel":9421,"##acity":9422,"surg":9423,"murray":9424,"##erto":9425,"romp":9426,"experimental":9427,"excl":9428,"reflection":9429,"demean":9430,"supported":9431,"patience":9432,"##maid":9433,"landing":9434,"1971":9435,"1995":9436,"merits":9437,"suggested":9438,"sensational":9439,"tasteless":9440,"alec":9441,"brutality":9442,"accuracy":9443,"chicken":9444,"strangers":9445,"exposition":9446,"zeal":9447,"3000":9448,"marshall":9449,"censors":9450,"lampoon":9451,"uplifting":9452,"rhythm":9453,"shanghai":9454,"bam":9455,"bert":9456,"rita":9457,"wu":9458,"##rin":9459,"##can":9460,"##gie":9461,"##atable":9462,"##oral":9463,"##sty":9464,"shif":9465,"shaky":9466,"files":9467,"##uri":9468,"##essa":9469,"preston":9470,"##emic":9471,"##rier":9472,"exhaust":9473,"leather":9474,"upst":9475,"brash":9476,"bless":9477,"##iley":9478,"grief":9479,"slice":9480,"##lik":9481,"invented":9482,"stuart":9483,"scriptwr":9484,"reader":9485,"grabs":9486,"brend":9487,"generations":9488,"amazon":9489,"passable":9490,"valentine":9491,"victory":9492,"pete":9493,"femme":9494,"antagon":9495,"checked":9496,"##brid":9497,"adaptations":9498,"companies":9499,"conditions":9500,"immediate":9501,"malone":9502,"legacy":9503,"resemble":9504,"fields":9505,"pressure":9506,"significance":9507,"robbins":9508,"glasses":9509,"bernard":9510,"loyalty":9511,"indulgent":9512,"baldwin":9513,"wilderness":9514,"ambiguous":9515,"exchange":9516,"kumar":9517,"technicolor":9518,"unravel":9519,"(..":9520,"aesth":9521,"bost":9522,"cad":9523,"cem":9524,"caps":9525,"dand":9526,"fon":9527,"hut":9528,"kil":9529,"kings":9530,"kansas":9531,"rack":9532,"rises":9533,"tube":9534,"vance":9535,"wy":9536,"##hile":9537,"##zzy":9538,"inability":9539,"##icable":9540,"##ilia":9541,"##oves":9542,"shred":9543,"ships":9544,"##tery":9545,"prose":9546,"alicia":9547,"##ooding":9548,"##eliness":9549,"##ption":9550,"clin":9551,"amused":9552,"recre":9553,"newman":9554,"decor":9555,"downey":9556,"bitch":9557,"##aneous":9558,"boyle":9559,"singers":9560,"memor":9561,"examination":9562,"gregory":9563,"demise":9564,"tomor":9565,"husbands":9566,"ordered":9567,"cattle":9568,"straightforward":9569,"subjected":9570,"billed":9571,"respectively":9572,"palance":9573,"senses":9574,"logan":9575,"masks":9576,"brig":9577,"raines":9578,"millionaire":9579,"russia":9580,"christianity":9581,"objective":9582,"frustrating":9583,"cracking":9584,"unexpectedly":9585,"fabric":9586,"tacky":9587,"hawke":9588,"confrontation":9589,"##burne":9590,"crazed":9591,"gwyn":9592,"rifle":9593,"disliked":9594,"lackluster":9595,"blackmail":9596,"olymp":9597,"23":9598,"bil":9599,"bunny":9600,"fishing":9601,"rates":9602,"wwe":9603,"wides":9604,"##zing":9605,"##creen":9606,"##fast":9607,"##bast":9608,"##erem":9609,"##enborough":9610,"##anch":9611,"##chen":9612,"##ayed":9613,"asyl":9614,"frost":9615,"weather":9616,"##osing":9617,"leap":9618,"flair":9619,"##ryn":9620,"desires":9621,"19th":9622,"slut":9623,"shoulders":9624,"##acious":9625,"misgu":9626,"tripe":9627,"basinger":9628,"musicians":9629,"parade":9630,"##xton":9631,"provocative":9632,"assured":9633,"refused":9634,"females":9635,"suspic":9636,"sentinel":9637,"##box":9638,"premiere":9639,"difficulties":9640,"1936":9641,"tastes":9642,"fascination":9643,"improb":9644,"sharon":9645,"foxx":9646,"remained":9647,"deranged":9648,"frightened":9649,"behaviour":9650,"primitive":9651,"summar":9652,"##undant":9653,"mccoy":9654,"seduct":9655,"addicted":9656,"stumbled":9657,"infected":9658,"sopranos":9659,"chainsaw":9660,"fundamental":9661,"dysfunctional":9662,"simultaneously":9663,"kolchak":9664,"ak":9665,"bure":9666,"fade":9667,"gos":9668,"gersh":9669,"jur":9670,"munch":9671,"sas":9672,"tan":9673,"wakes":9674,"zor":9675,"##fest":9676,"##felt":9677,"##iti":9678,"##itable":9679,"##itated":9680,"hep":9681,"heir":9682,"framed":9683,"abused":9684,"##anted":9685,"##odge":9686,"unlik":9687,"noises":9688,"overs":9689,"##ours":9690,"awhile":9691,"joins":9692,"backs":9693,"remakes":9694,"##neath":9695,"underneath":9696,"comedians":9697,"appropriately":9698,"musician":9699,"cope":9700,"coaster":9701,"##neyed":9702,"##tones":9703,"raises":9704,"agenda":9705,"filling":9706,"1988":9707,"1978":9708,"presenting":9709,"wildly":9710,"teachers":9711,"radical":9712,"complaints":9713,"prepare":9714,"##attered":9715,"option":9716,"interactions":9717,"fifty":9718,"earnest":9719,"challenged":9720,"hungry":9721,"springer":9722,"bacon":9723,"thunderbird":9724,"caricatures":9725,"paradise":9726,"items":9727,"precisely":9728,"phrase":9729,"paramount":9730,"fingers":9731,"amusement":9732,"aristocr":9733,"silliness":9734,"tomorrow":9735,"73":9736,"cere":9737,"caut":9738,"dang":9739,"muddled":9740,"##pa":9741,"##gio":9742,"##fly":9743,"##atum":9744,"##leck":9745,"revers":9746,"rehears":9747,"##ghan":9748,"choppy":9749,"##ersed":9750,"sums":9751,"mand":9752,"##abled":9753,"leigh":9754,"charged":9755,"cancer":9756,"##agn":9757,"bla":9758,"posey":9759,"flock":9760,"designer":9761,"##ensen":9762,"slip":9763,"##life":9764,"smack":9765,"owners":9766,"##ella":9767,"visiting":9768,"coup":9769,"fathers":9770,"releases":9771,"lux":9772,"##road":9773,"murdering":9774,"region":9775,"credited":9776,"curly":9777,"trend":9778,"roommate":9779,"babies":9780,"hopkins":9781,"##ipper":9782,"1989":9783,"premier":9784,"posters":9785,"narrow":9786,"esther":9787,"homes":9788,"literary":9789,"1939":9790,"teaches":9791,"discovering":9792,"##going":9793,"##oopers":9794,"servant":9795,"complaining":9796,"absurdity":9797,"celebration":9798,"www":9799,"quietly":9800,"knocked":9801,"hackneyed":9802,"linds":9803,"##********":9804,"counterp":9805,"pitiful":9806,"citizens":9807,"clarke":9808,"policeman":9809,"loneliness":9810,"coincidence":9811,"sketch":9812,"chamberl":9813,"quarter":9814,"adolescent":9815,"fantasies":9816,"contradict":9817,"misleading":9818,"aspiring":9819,"tierney":9820,"beverly":9821,"conscience":9822,"duvall":9823,"clueless":9824,"asylum":9825,"unlikable":9826,"40s":9827,"bars":9828,"cod":9829,"cue":9830,"ein":9831,"gap":9832,"hk":9833,"rug":9834,"rational":9835,"##ois":9836,"##rome":9837,"##vol":9838,"##gling":9839,"##oria":9840,"##arse":9841,"rely":9842,"##eted":9843,"shared":9844,"heist":9845,"haired":9846,"pron":9847,"dose":9848,"active":9849,"abb":9850,"##gey":9851,"##osterous":9852,"moreover":9853,"click":9854,"##apable":9855,"quaid":9856,"dont":9857,"disci":9858,"realised":9859,"gris":9860,"##ipid":9861,"slack":9862,"shoulder":9863,"minister":9864,"attenborough":9865,"contempt":9866,"triple":9867,"invites":9868,"insipid":9869,"handling":9870,"schne":9871,"visited":9872,"heartfelt":9873,"mode":9874,"register":9875,"devices":9876,"proph":9877,"profanity":9878,"##ika":9879,"1986":9880,"1979":9881,"boxer":9882,"conviction":9883,"occasions":9884,"internal":9885,"biased":9886,"preposterous":9887,"penny":9888,"objects":9889,"dresses":9890,"freaks":9891,"enthr":9892,"imaginable":9893,"ratso":9894,"champion":9895,"laurence":9896,"encourage":9897,"automatically":9898,"adopted":9899,"nolan":9900,"inexplicably":9901,"vocal":9902,"odys":9903,"acclaimed":9904,"nemesis":9905,"shoddy":9906,"meteor":9907,"lindsay":9908,"28":9909,"bubb":9910,"dwar":9911,"mount":9912,"paz":9913,"riff":9914,"rena":9915,"sie":9916,"vader":9917,"wol":9918,"##mary":9919,"##ae":9920,"##oj":9921,"##roll":9922,"##fl":9923,"##kas":9924,"##encies":9925,"##anie":9926,"beg":9927,"stare":9928,"shin":9929,"filth":9930,"chills":9931,"##ulations":9932,"scoop":9933,"bye":9934,"meas":9935,"canyon":9936,"spont":9937,"disast":9938,"##angel":9939,"slam":9940,"underc":9941,"screens":9942,"setup":9943,"##lied":9944,"idol":9945,"youngest":9946,"kidman":9947,"monstr":9948,"yeti":9949,"tyler":9950,"secondary":9951,"skits":9952,"restrict":9953,"paxton":9954,"heartbreaking":9955,"hopelessly":9956,"counts":9957,"##otta":9958,"uncut":9959,"##onto":9960,"##iko":9961,"##ucker":9962,"##shell":9963,"accepts":9964,"beatles":9965,"##zzard":9966,"referred":9967,"tracking":9968,"positively":9969,"regarded":9970,"ladder":9971,"additional":9972,"substant":9973,"rosemary":9974,"chuckle":9975,"translated":9976,"##break":9977,"hughes":9978,"ignorance":9979,"outfits":9980,"muppet":9981,"controlled":9982,"judgment":9983,"naughty":9984,")!":9985,"bike":9986,"bachel":9987,"gere":9988,"gina":9989,"kline":9990,"kitty":9991,"lic":9992,"lass":9993,"pages":9994,"tip":9995,"##rog":9996,"stim":9997,"deer":9998,"mah":9999,"##oodle":10000,"##ables":10001,"bronson":10002}}}
