{
  "version": "1.0",
  "truncation": null,
  "padding": null,
  "added_tokens": [
    {
      "id": 0,
      "content": "<unk>",
      "single_word": false,
      "lstrip": false,
      "rstrip": false,
      "normalized": false,
      "special": true
    },
    {
      "id": 1,
      "content": "<pad>",
      "single_word": false,
      "lstrip": false,
      "rstrip": false,
      "normalized": false,
      "special": true
    },
    {
      "id": 2,
      "content": "<mask>",
      "single_word": false,
      "lstrip": false,
      "rstrip": false,
      "normalized": false,
      "special": true
    },
    {
      "id": 3,
      "content": "<cls>",
      "single_word": false,
      "lstrip": false,
      "rstrip": false,
      "normalized": false,
      "special": true
    },
    {
      "id": 4,
      "content": "<sep>",
      "single_word": false,
      "lstrip": false,
      "rstrip": false,
      "normalized": false,
      "special": true
    }
  ],
  "normalizer": {
    "type": "Sequence",
    "normalizers": [
      {
        "type": "Replace",
        "pattern": {
          "String": "``"
        },
        "content": "\""
      },
      {
        "type": "Replace",
        "pattern": {
          "String": "''"
        },
        "content": "\""
      },
      {
        "type": "NFKD"
      },
      {
        "type": "StripAccents"
      },
      {
        "type": "Replace",
        "pattern": {
          "Regex": " {2,}"
        },
        "content": " "
      }
    ]
  },
  "pre_tokenizer": {
    "type": "Metaspace",
    "replacement": "▁",
    "add_prefix_space": true
  },
  "post_processor": {
    "type": "TemplateProcessing",
    "single": [
      {
        "SpecialToken": {
          "id": "<cls>",
          "type_id": 0
        }
      },
      {
        "Sequence": {
          "id": "A",
          "type_id": 0
        }
      },
      {
        "SpecialToken": {
          "id": "<sep>",
          "type_id": 0
        }
      }
    ],
    "pair": [
      {
        "SpecialToken": {
          "id": "<cls>",
          "type_id": 0
        }
      },
      {
        "Sequence": {
          "id": "A",
          "type_id": 0
        }
      },
      {
        "SpecialToken": {
          "id": "<sep>",
          "type_id": 0
        }
      },
      {
        "Sequence": {
          "id": "B",
          "type_id": 1
        }
      },
      {
        "SpecialToken": {
          "id": "<sep>",
          "type_id": 1
        }
      }
    ],
    "special_tokens": {
      "<cls>": {
        "id": "<cls>",
        "ids": [
          3
        ],
        "tokens": [
          "<cls>"
        ]
      },
      "<sep>": {
        "id": "<sep>",
        "ids": [
          4
        ],
        "tokens": [
          "<sep>"
        ]
      }
    }
  },
  "decoder": {
    "type": "Metaspace",
    "replacement": "▁",
    "add_prefix_space": true
  },
  "model": {
    "type": "Unigram",
    "unk_id": 0,
    "vocab": [
      [
        "<unk>",
        0.0
      ],
      [
        "<pad>",
        0.0
      ],
      [
        "<mask>",
        0.0
      ],
      [
        "<cls>",
        0.0
      ],
      [
        "<sep>",
        0.0
      ],
      [
        "▁the",
        -3.2873752361560307
      ],
      [
        ",",
        -3.3508613277566717
      ],
      [
        "▁",
        -3.429842308980703
      ],
      [
        "▁of",
        -3.808061530389651
      ],
      [
        "s",
        -3.817835577011376
      ],
      [
        "▁and",
        -4.027357724509237
      ],
      [
        "▁in",
        -4.067282376361224
      ],
      [
        ".",
        -4.133471964577755
      ],
      [
        "▁a",
        -4.3682835036675485
      ],
      [
        "▁to",
        -4.402142517514456
      ],
      [
        "▁was",
        -4.946789862590716
      ],
      [
        "\n",
        -5.095385149537446
      ],
      [
        "▁is",
        -5.2125906674123605
      ],
      [
        "▁for",
        -5.270560992683073
      ],
      [
        "▁The",
        -5.290551067208149
      ],
      [
        "e",
        -5.338379897040664
      ],
      [
        "ed",
        -5.339761698607592
      ],
      [
        "ing",
        -5.3770561241273604
      ],
      [
        "▁as",
        -5.383495178718611
      ],
      [
        "▁on",
        -5.391989131020225
      ],
      [
        "▁by",
        -5.4151341702947065
      ],
      [
        "a",
        -5.4554593579095645
      ],
      [
        "▁with",
        -5.473745543068077
      ],
      [
        "y",
        -5.490887871006265
      ],
      [
        ")",
        -5.623508228048999
      ],
      [
        "▁(",
        -5.646744376070647
      ],
      [
        "'s",
        -5.6573678055554275
      ],
      [
        "▁from",
        -5.6655769195339545
      ],
      [
        "▁at",
        -5.727639276487897
      ],
      [
        "▁that",
        -5.735376651632334
      ],
      [
        "d",
        -5.80154698298448
      ],
      [
        "o",
        -5.851522352648827
      ],
      [
        "-",
        -5.864794275312709
      ],
      [
        "▁his",
        -5.9641572144432065
      ],
      [
        "t",
        -5.983017434907399
      ],
      [
        ":",
        -6.029572631093762
      ],
      [
        "i",
        -6.051565880170822
      ],
      [
        "\"",
        -6.09228807305267
      ],
      [
        "▁an",
        -6.095307741379399
      ],
      [
        "▁he",
        -6.127192963940782
      ],
      [
        "n",
        -6.156621164087687
      ],
      [
        "▁||",
        -6.25874692307362
      ],
      [
        "▁were",
        -6.287696139559241
      ],
      [
        "ly",
        -6.302031783689351
      ],
      [
        "er",
        -6.3392451117728275
      ],
      [
        "▁In",
        -6.394272160562512
      ],
      [
        "▁which",
        -6.394728112565392
      ],
      [
        "▁are",
        -6.397178705772589
      ],
      [
        "▁A",
        -6.418149828310737
      ],
      [
        "▁it",
        -6.448239129769789
      ],
      [
        "▁He",
        -6.45465553697505
      ],
      [
        "▁be",
        -6.460354104206138
      ],
      [
        "▁also",
        -6.479040251708165
      ],
      [
        "▁–",
        -6.490556354706884
      ],
      [
        "al",
        -6.4954057151547335
      ],
      [
        "▁or",
        -6.5901176502312495
      ],
      [
        "▁had",
        -6.6030431845087225
      ],
      [
        "r",
        -6.644855496686686
      ],
      [
        "▁has",
        -6.646908874388952
      ],
      [
        "▁first",
        -6.657878433183926
      ],
      [
        "in",
        -6.6591874870953625
      ],
      [
        "),",
        -6.690511998290193
      ],
      [
        "an",
        -6.711831758820244
      ],
      [
        "on",
        -6.719807675305541
      ],
      [
        "es",
        -6.721231402955215
      ],
      [
        ".\n",
        -6.7753556635946115
      ],
      [
        "▁\"",
        -6.775711549228754
      ],
      [
        "▁who",
        -6.802133370379279
      ],
      [
        "▁\n",
        -6.807406904893062
      ],
      [
        ")\n",
        -6.807720969029733
      ],
      [
        "▁their",
        -6.8116026410219295
      ],
      [
        ";",
        -6.840219279579484
      ],
      [
        "▁not",
        -6.84844006513144
      ],
      [
        "▁It",
        -6.8518650164331465
      ],
      [
        "▁her",
        -6.874137935777542
      ],
      [
        "f",
        -6.892914654959409
      ],
      [
        "m",
        -6.893319262956062
      ],
      [
        "s.",
        -6.896846065079609
      ],
      [
        "▁but",
        -6.89831804214146
      ],
      [
        "▁one",
        -6.912917783653006
      ],
      [
        "▁its",
        -6.918357744219692
      ],
      [
        "u",
        -6.9409542057491365
      ],
      [
        "▁have",
        -6.990581616115554
      ],
      [
        "▁two",
        -7.003255000052562
      ],
      [
        "▁this",
        -7.020045406683328
      ],
      [
        "'",
        -7.047974455355956
      ],
      [
        "▁de",
        -7.055736054834911
      ],
      [
        "▁-",
        -7.058122767317924
      ],
      [
        "▁New",
        -7.066966760427755
      ],
      [
        "▁been",
        -7.070860983687405
      ],
      [
        "▁S",
        -7.095055654183074
      ],
      [
        "en",
        -7.095364426874417
      ],
      [
        "h",
        -7.135178430213154
      ],
      [
        "▁I",
        -7.137076990357588
      ],
      [
        "▁after",
        -7.139694277371637
      ],
      [
        "▁American",
        -7.209784796253427
      ],
      [
        "k",
        -7.223853828433057
      ],
      [
        "▁other",
        -7.2282746130893525
      ],
      [
        "th",
        -7.241118418275464
      ],
      [
        "/",
        -7.243800935959117
      ],
      [
        "▁into",
        -7.274989787035819
      ],
      [
        ".\n\n",
        -7.282959312755848
      ],
      [
        "c",
        -7.290473871412523
      ],
      [
        "▁she",
        -7.2922561883686114
      ],
      [
        "▁over",
        -7.293903858274771
      ],
      [
        "▁people",
        -7.302310874366402
      ],
      [
        "or",
        -7.308059511878849
      ],
      [
        "▁United",
        -7.310045799816857
      ],
      [
        ".\n\nThe",
        -7.315517987075474
      ],
      [
        "is",
        -7.326070569312556
      ],
      [
        "ic",
        -7.326161427170655
      ],
      [
        "p",
        -7.333433158227217
      ],
      [
        "▁time",
        -7.363970100300559
      ],
      [
        "l",
        -7.38049932525373
      ],
      [
        "▁all",
        -7.394004869003217
      ],
      [
        "–",
        -7.394074442416835
      ],
      [
        "b",
        -7.403137231897887
      ],
      [
        "▁re",
        -7.406511888643816
      ],
      [
        "▁1",
        -7.426609352116191
      ],
      [
        "us",
        -7.43288834419549
      ],
      [
        "▁when",
        -7.4399595308343685
      ],
      [
        "▁University",
        -7.450643104819505
      ],
      [
        "▁would",
        -7.46097938227129
      ],
      [
        "▁more",
        -7.465078987069022
      ],
      [
        "man",
        -7.46809611128846
      ],
      [
        "▁E",
        -7.472995068043518
      ],
      [
        "▁out",
        -7.476310854898642
      ],
      [
        "g",
        -7.476370472693539
      ],
      [
        "▁up",
        -7.478468328223817
      ],
      [
        "ion",
        -7.481535624623509
      ],
      [
        "▁can",
        -7.48238600892169
      ],
      [
        "\n\nExternal",
        -7.488254317138281
      ],
      [
        "during",
        -7.488835350427655
      ],
      [
        "▁where",
        -7.498023264306843
      ],
      [
        "▁new",
        -7.500971828721326
      ],
      [
        "\nThe",
        -7.503053362607869
      ],
      [
        "▁under",
        -7.503651371542157
      ],
      [
        "▁C",
        -7.510812574626126
      ],
      [
        "\n|",
        -7.5210327146890315
      ],
      [
        ".\n\nIn",
        -7.523627208451002
      ],
      [
        "ar",
        -7.542536345310236
      ],
      [
        "▁film",
        -7.545898091995877
      ],
      [
        "▁B",
        -7.545914304903478
      ],
      [
        "▁only",
        -7.550417694997703
      ],
      [
        "\n\n",
        -7.556243981065574
      ],
      [
        "▁between",
        -7.556571895320008
      ],
      [
        "re",
        -7.57907932271158
      ],
      [
        "▁about",
        -7.5909873611840055
      ],
      [
        "z",
        -7.593346526593875
      ],
      [
        ").",
        -7.600315763425932
      ],
      [
        "▁years",
        -7.60223940217946
      ],
      [
        "at",
        -7.613616230608994
      ],
      [
        "to",
        -7.619713689031773
      ],
      [
        "▁P",
        -7.627719546361876
      ],
      [
        "▁made",
        -7.628313743723766
      ],
      [
        "▁2",
        -7.630053104715808
      ],
      [
        "▁part",
        -7.634993702629094
      ],
      [
        "▁This",
        -7.636111635314892
      ],
      [
        "▁later",
        -7.636210877363794
      ],
      [
        "ers",
        -7.637205043765437
      ],
      [
        "▁used",
        -7.641556460973577
      ],
      [
        "▁She",
        -7.64838115657118
      ],
      [
        "▁three",
        -7.648906254303853
      ],
      [
        "▁States",
        -7.664130388272035
      ],
      [
        "w",
        -7.672756272940246
      ],
      [
        "it",
        -7.672767433463159
      ],
      [
        "le",
        -7.683797474625793
      ],
      [
        "▁(19",
        -7.689488219626421
      ],
      [
        "▁most",
        -7.692713277978623
      ],
      [
        "ne",
        -7.693382677692252
      ],
      [
        "▁him",
        -7.695012426126578
      ],
      [
        "▁World",
        -7.6955110599460745
      ],
      [
        "▁such",
        -7.697152448128003
      ],
      [
        "▁known",
        -7.69935326781887
      ],
      [
        "▁National",
        -7.707152259917729
      ],
      [
        "became",
        -7.71561639279661
      ],
      [
        "▁team",
        -7.717055181809206
      ],
      [
        "▁players",
        -7.722267005726891
      ],
      [
        "▁season",
        -7.724361419701088
      ],
      [
        "▁17",
        -7.728677573251634
      ],
      [
        "▁than",
        -7.73452311039782
      ],
      [
        "▁County",
        -7.742816490550954
      ],
      [
        "▁&",
        -7.757962825917714
      ],
      [
        "▁D",
        -7.762143928861105
      ],
      [
        "▁3",
        -7.769833552631381
      ],
      [
        "▁second",
        -7.776868606369126
      ],
      [
        "▁being",
        -7.780222778628614
      ],
      [
        "as",
        -7.785387246519663
      ],
      [
        "▁K",
        -7.788547468319003
      ],
      [
        "▁un",
        -7.792346363927953
      ],
      [
        "▁May",
        -7.793508038326429
      ],
      [
        "▁no",
        -7.795630437572688
      ],
      [
        "el",
        -7.796578402041726
      ],
      [
        "▁G",
        -7.797674042640278
      ],
      [
        "▁some",
        -7.7985102713437335
      ],
      [
        "▁including",
        -7.807728560162587
      ],
      [
        "▁series",
        -7.819685419164465
      ],
      [
        "▁through",
        -7.8281921284956475
      ],
      [
        "▁against",
        -7.830036632044564
      ],
      [
        "ist",
        -7.832828874080363
      ],
      [
        "ation",
        -7.835586274590861
      ],
      [
        "▁War",
        -7.843811298916934
      ],
      [
        "▁then",
        -7.844334543177336
      ],
      [
        "▁year",
        -7.847283105255336
      ],
      [
        "ton",
        -7.847997725960084
      ],
      [
        "able",
        -7.852538555021425
      ],
      [
        "et",
        -7.856545372648773
      ],
      [
        "▁M",
        -7.860101129940112
      ],
      [
        "▁there",
        -7.865525919679953
      ],
      [
        "▁South",
        -7.870687877903158
      ],
      [
        "▁before",
        -7.872686824831673
      ],
      [
        "▁York",
        -7.876025399661755
      ],
      [
        "born",
        -7.882429310907051
      ],
      [
        "▁while",
        -7.883445837968136
      ],
      [
        "2",
        -7.884711953048221
      ],
      [
        "▁School",
        -7.887715932948668
      ],
      [
        "▁T",
        -7.889903090806724
      ],
      [
        "▁work",
        -7.891083238767569
      ],
      [
        "▁Re",
        -7.89632853948399
      ],
      [
        "▁4",
        -7.897036586728637
      ],
      [
        "▁well",
        -7.899145821354836
      ],
      [
        "ir",
        -7.906057947099724
      ],
      [
        "▁number",
        -7.909034230135145
      ],
      [
        "▁many",
        -7.909618645993502
      ],
      [
        "until",
        -7.913874866719606
      ],
      [
        "x",
        -7.915019040263147
      ],
      [
        "▁August",
        -7.9164883275132585
      ],
      [
        "▁N",
        -7.917283326933456
      ],
      [
        "6",
        -7.9185033606221875
      ],
      [
        "te",
        -7.920002239016005
      ],
      [
        "▁September",
        -7.923844198837909
      ],
      [
        "▁March",
        -7.924746202784531
      ],
      [
        "▁John",
        -7.929318809818245
      ],
      [
        "▁F",
        -7.931927197280865
      ],
      [
        "▁album",
        -7.93343708594994
      ],
      [
        "▁—",
        -7.936948580723705
      ],
      [
        "▁both",
        -7.937081462530189
      ],
      [
        "ch",
        -7.944065933030439
      ],
      [
        "▁On",
        -7.948804818800456
      ],
      [
        "\n\nReferences",
        -7.951216514708438
      ],
      [
        "▁October",
        -7.953515604063442
      ],
      [
        "▁name",
        -7.954401924801058
      ],
      [
        "▁La",
        -7.954684203877662
      ],
      [
        "▁January",
        -7.963411204963636
      ],
      [
        "ry",
        -7.967912208795992
      ],
      [
        "▁played",
        -7.9695165946510595
      ],
      [
        "▁family",
        -7.975009703173864
      ],
      [
        "▁16",
        -7.981621012426405
      ],
      [
        "▁June",
        -7.982226602013949
      ],
      [
        "ra",
        -7.982420715202121
      ],
      [
        "▁De",
        -7.983108812918713
      ],
      [
        "▁school",
        -7.9846001135128954
      ],
      [
        "▁links\n",
        -7.985783400038416
      ],
      [
        "▁c",
        -7.991383820618861
      ],
      [
        "▁released",
        -7.991640534871381
      ],
      [
        "ur",
        -7.997464554722043
      ],
      [
        "▁July",
        -7.998562970601304
      ],
      [
        ".\n\nReferences",
        -7.998708116038021
      ],
      [
        "1",
        -8.001575866903071
      ],
      [
        "▁5",
        -8.00159742612525
      ],
      [
        "▁O",
        -8.012170785992815
      ],
      [
        "de",
        -8.013352295831403
      ],
      [
        "▁April",
        -8.01447805298396
      ],
      [
        "▁may",
        -8.018863968378932
      ],
      [
        "▁won",
        -8.021936193832339
      ],
      [
        "▁British",
        -8.027051245888012
      ],
      [
        "ma",
        -8.029203661647795
      ],
      [
        "▁10",
        -8.029753450077443
      ],
      [
        "▁November",
        -8.029970558955238
      ],
      [
        "▁State",
        -8.030569871214379
      ],
      [
        "▁state",
        -8.03358073607356
      ],
      [
        "\",",
        -8.034746365970646
      ],
      [
        "3",
        -8.044415960226113
      ],
      [
        "▁December",
        -8.048372478801658
      ],
      [
        "▁four",
        -8.049358641925977
      ],
      [
        "▁so",
        -8.052707653107573
      ],
      [
        "▁Al",
        -8.056522636606918
      ],
      [
        "st",
        -8.058845011342722
      ],
      [
        "▁League",
        -8.060094701147493
      ],
      [
        "▁football",
        -8.063819219718239
      ],
      [
        "–19",
        -8.065789433173267
      ],
      [
        "▁R",
        -8.06637807883487
      ],
      [
        "▁will",
        -8.070726218942387
      ],
      [
        "▁births",
        -8.071067475496264
      ],
      [
        "▁life",
        -8.074623967599658
      ],
      [
        "ian",
        -8.078241852497275
      ],
      [
        "▁W",
        -8.078909084374564
      ],
      [
        "▁As",
        -8.07952939585512
      ],
      [
        "▁called",
        -8.088235759236605
      ],
      [
        "ity",
        -8.090678267942053
      ],
      [
        "▁former",
        -8.09343298448056
      ],
      [
        "▁City",
        -8.095069966598691
      ],
      [
        "ti",
        -8.095134200701334
      ],
      [
        "ro",
        -8.096918458725668
      ],
      [
        "▁game",
        -8.099568785209318
      ],
      [
        "▁same",
        -8.10049723327276
      ],
      [
        "no",
        -8.104939157657183
      ],
      [
        "land",
        -8.110147378695874
      ],
      [
        "▁area",
        -8.110884368531
      ],
      [
        "▁North",
        -8.111954347165215
      ],
      [
        "▁15",
        -8.11412301776997
      ],
      [
        "▁several",
        -8.118865525408612
      ],
      [
        "▁them",
        -8.119735752523168
      ],
      [
        "▁|",
        -8.127162790623686
      ],
      [
        "am",
        -8.127894648974063
      ],
      [
        "▁following",
        -8.13747576761826
      ],
      [
        "▁p",
        -8.138377654324247
      ],
      [
        "▁U",
        -8.139854087853287
      ],
      [
        "▁early",
        -8.140555845914156
      ],
      [
        "▁group",
        -8.14714130008482
      ],
      [
        "▁end",
        -8.147556385036735
      ],
      [
        "▁February",
        -8.148331350598628
      ],
      [
        "▁found",
        -8.153493618159736
      ],
      [
        "▁6",
        -8.154241520310688
      ],
      [
        "ment",
        -8.156868943236697
      ],
      [
        "▁since",
        -8.158185417316345
      ],
      [
        "est",
        -8.17096584330233
      ],
      [
        "ri",
        -8.172482433171199
      ],
      [
        "▁music",
        -8.177876942420063
      ],
      [
        "ive",
        -8.1780083403973
      ],
      [
        "▁career",
        -8.178250568066339
      ],
      [
        "s\n",
        -8.182236230986092
      ],
      [
        "co",
        -8.186428938974675
      ],
      [
        "um",
        -8.186804194272582
      ],
      [
        "▁use",
        -8.188522636061835
      ],
      [
        "ate",
        -8.191904728243289
      ],
      [
        "▁home",
        -8.193640676298937
      ],
      [
        "▁7",
        -8.194994454930592
      ],
      [
        "▁city",
        -8.196703217250377
      ],
      [
        "▁L",
        -8.204672126420462
      ],
      [
        "▁these",
        -8.204920014577327
      ],
      [
        "0",
        -8.205148453104528
      ],
      [
        "▁based",
        -8.207118506218853
      ],
      [
        "▁began",
        -8.207278875094303
      ],
      [
        "▁member",
        -8.208168564727107
      ],
      [
        "4",
        -8.211515985646171
      ],
      [
        "▁named",
        -8.213054004612315
      ],
      [
        "▁place",
        -8.213963439450662
      ],
      [
        "▁Le",
        -8.216513958434225
      ],
      [
        "▁films",
        -8.21785991403883
      ],
      [
        "▁back",
        -8.219263941462735
      ],
      [
        "\".",
        -8.21935905623382
      ],
      [
        "▁8",
        -8.221958401506976
      ],
      [
        "▁18",
        -8.22888701171046
      ],
      [
        "▁12",
        -8.230704674282237
      ],
      [
        "▁government",
        -8.234978179705617
      ],
      [
        "ter",
        -8.240330365606203
      ],
      [
        "▁held",
        -8.241355809882233
      ],
      [
        "ine",
        -8.243700416120614
      ],
      [
        "▁established",
        -8.244128938687714
      ],
      [
        "▁After",
        -8.247313230866242
      ],
      [
        "▁V",
        -8.250047094212594
      ],
      [
        "il",
        -8.253583355077316
      ],
      [
        "▁located",
        -8.255599649348436
      ],
      [
        "▁do",
        -8.257800515691077
      ],
      [
        "and",
        -8.260148497460431
      ],
      [
        "▁College",
        -8.26210488197048
      ],
      [
        "▁West",
        -8.26239710801651
      ],
      [
        "▁Co",
        -8.264332466417668
      ],
      [
        "▁population",
        -8.264906861833758
      ],
      [
        "v",
        -8.265758473367733
      ],
      [
        "▁did",
        -8.268301414066263
      ],
      [
        "▁each",
        -8.270577049099266
      ],
      [
        "son",
        -8.271262939298754
      ],
      [
        "▁His",
        -8.27226675807934
      ],
      [
        "age",
        -8.272702206676225
      ],
      [
        "▁At",
        -8.274200762893582
      ],
      [
        "▁show",
        -8.276629525939653
      ],
      [
        "ant",
        -8.280634893650696
      ],
      [
        "ce",
        -8.283880248805426
      ],
      [
        "▁station",
        -8.284300547859193
      ],
      [
        "▁An",
        -8.28559814780437
      ],
      [
        "\nIn",
        -8.286176728676354
      ],
      [
        "me",
        -8.286616293056335
      ],
      [
        "▁set",
        -8.286912166784468
      ],
      [
        "18",
        -8.289186235732755
      ],
      [
        "▁9",
        -8.295978536020929
      ],
      [
        "▁2010",
        -8.302147502179674
      ],
      [
        ".\"",
        -8.305029868949301
      ],
      [
        "la",
        -8.305886195615562
      ],
      [
        "un",
        -8.307529318854208
      ],
      [
        "▁English",
        -8.308630971614505
      ],
      [
        "id",
        -8.309810413810512
      ],
      [
        "j",
        -8.311001402230469
      ],
      [
        "S",
        -8.311735407077053
      ],
      [
        "▁German",
        -8.317423621478431
      ],
      [
        "▁song",
        -8.318733098035649
      ],
      [
        "▁For",
        -8.322799448298905
      ],
      [
        "▁large",
        -8.323850262071945
      ],
      [
        "\n\nThe",
        -8.32461277651452
      ],
      [
        "A",
        -8.326427273111051
      ],
      [
        "▁Me",
        -8.329090011597918
      ],
      [
        "▁To",
        -8.32993185183876
      ],
      [
        "▁company",
        -8.333851107994715
      ],
      [
        "▁District",
        -8.334098826242222
      ],
      [
        "▁served",
        -8.336843904867626
      ],
      [
        "▁single",
        -8.339191042870288
      ],
      [
        "▁(18",
        -8.346800307602601
      ],
      [
        "▁French",
        -8.348700071264963
      ],
      [
        "▁members",
        -8.350755051355279
      ],
      [
        "▁due",
        -8.351773810879925
      ],
      [
        "be",
        -8.35443465776597
      ],
      [
        "ul",
        -8.35587435287914
      ],
      [
        "▁television",
        -8.355891525639334
      ],
      [
        "▁high",
        -8.356439616288137
      ],
      [
        "▁age",
        -8.357580077883844
      ],
      [
        "▁local",
        -8.358357106390367
      ],
      [
        "▁could",
        -8.360469163932791
      ],
      [
        "▁published",
        -8.36092430031183
      ],
      [
        "▁public",
        -8.364147304211391
      ],
      [
        "ge",
        -8.364654084477001
      ],
      [
        "▁built",
        -8.365558915774782
      ],
      [
        "ca",
        -8.367731178908441
      ],
      [
        "▁received",
        -8.369172859639132
      ],
      [
        "▁San",
        -8.369422571959614
      ],
      [
        "▁final",
        -8.369580700938007
      ],
      [
        "ent",
        -8.370781771997219
      ],
      [
        "▁11",
        -8.37392029885178
      ],
      [
        "ga",
        -8.37397020683914
      ],
      [
        "▁any",
        -8.37640116505461
      ],
      [
        "▁national",
        -8.37832724762886
      ],
      [
        "▁band",
        -8.379108441255331
      ],
      [
        "▁2011",
        -8.379361617707698
      ],
      [
        "▁St",
        -8.384597171848224
      ],
      [
        "▁around",
        -8.384955223595828
      ],
      [
        "▁born",
        -8.386855030223701
      ],
      [
        "do",
        -8.391020087796559
      ],
      [
        "▁women",
        -8.398915052838106
      ],
      [
        "B",
        -8.399835532538905
      ],
      [
        "▁14",
        -8.402848286254313
      ],
      [
        "ka",
        -8.403647221809853
      ],
      [
        "ha",
        -8.407016431792432
      ],
      [
        "▁House",
        -8.410192601178391
      ],
      [
        "▁species",
        -8.410733847256566
      ],
      [
        "▁2008",
        -8.413193030601445
      ],
      [
        "di",
        -8.414795996445408
      ],
      [
        "▁II",
        -8.415311636238224
      ],
      [
        "ism",
        -8.415320695118993
      ],
      [
        "5",
        -8.41855004648107
      ],
      [
        "▁2012",
        -8.418611865617203
      ],
      [
        "▁town",
        -8.418981552954042
      ],
      [
        "▁last",
        -8.419075918597336
      ],
      [
        "ley",
        -8.425570725003805
      ],
      [
        "go",
        -8.427223897023636
      ],
      [
        "▁now",
        -8.42918411687203
      ],
      [
        "▁So",
        -8.42984306306741
      ],
      [
        "▁Con",
        -8.430539335637452
      ],
      [
        "▁left",
        -8.431802440560405
      ],
      [
        "▁system",
        -8.43314210375017
      ],
      [
        "our",
        -8.434644054473916
      ],
      [
        "▁long",
        -8.435017161245346
      ],
      [
        "▁club",
        -8.437791511435723
      ],
      [
        "▁Ha",
        -8.439278966103997
      ],
      [
        "7",
        -8.440878888922132
      ],
      [
        "However,",
        -8.442615056266181
      ],
      [
        "ol",
        -8.443111000145953
      ],
      [
        "▁Cup",
        -8.444847794168002
      ],
      [
        "▁13",
        -8.445401170806525
      ],
      [
        "▁village",
        -8.445516825387338
      ],
      [
        "▁games",
        -8.448232688795041
      ],
      [
        "▁2006",
        -8.449340298776688
      ],
      [
        "▁line",
        -8.450933718939542
      ],
      [
        "▁links",
        -8.453501926129208
      ],
      [
        "▁2007",
        -8.45402319089684
      ],
      [
        "▁along",
        -8.4546637753376
      ],
      [
        "▁2009",
        -8.457590033043784
      ],
      [
        "▁2014",
        -8.458107638395672
      ],
      [
        "▁\n\n",
        -8.45914956682719
      ],
      [
        "▁make",
        -8.464644734834177
      ],
      [
        "▁like",
        -8.46992323621121
      ],
      [
        "▁2013",
        -8.474354955976663
      ],
      [
        "▁five",
        -8.475801976350702
      ],
      [
        "▁20",
        -8.4760450620731
      ],
      [
        "▁own",
        -8.47610746314258
      ],
      [
        "▁H",
        -8.4770197183504
      ],
      [
        "▁building",
        -8.478624811794727
      ],
      [
        "▁small",
        -8.479961934308388
      ],
      [
        "\nLiving",
        -8.479985537827456
      ],
      [
        "took",
        -8.480009264679264
      ],
      [
        "▁died",
        -8.480704348134047
      ],
      [
        "▁main",
        -8.481925547990707
      ],
      [
        "▁London",
        -8.48362970554867
      ],
      [
        "ke",
        -8.485033260392674
      ],
      [
        "▁Park",
        -8.485712203033534
      ],
      [
        "ve",
        -8.48607749807882
      ],
      [
        "▁2015",
        -8.48655659053892
      ],
      [
        "▁because",
        -8.487041895402912
      ],
      [
        "\nPeople",
        -8.487584905053865
      ],
      [
        "▁2016",
        -8.487811113409764
      ],
      [
        "▁support",
        -8.488426587778605
      ],
      [
        "▁within",
        -8.491258552665078
      ],
      [
        "▁River",
        -8.491319719097081
      ],
      [
        "▁International",
        -8.492581187868266
      ],
      [
        "▁result",
        -8.49388331968551
      ],
      [
        "K",
        -8.496505621868975
      ],
      [
        "he",
        -8.49680951898707
      ],
      [
        "very",
        -8.496950405499454
      ],
      [
        "ner",
        -8.498423987699027
      ],
      [
        "▁take",
        -8.49940336701835
      ],
      [
        "▁head",
        -8.49972728024987
      ],
      [
        "▁described",
        -8.502209951118367
      ],
      [
        "▁third",
        -8.508174713812437
      ],
      [
        "li",
        -8.51175524421575
      ],
      [
        "9",
        -8.511764724431155
      ],
      [
        "▁included",
        -8.516345426396432
      ],
      [
        "▁form",
        -8.517522331806427
      ],
      [
        "▁century",
        -8.517530784920774
      ],
      [
        "▁U.S.",
        -8.520230975531774
      ],
      [
        "ak",
        -8.523094582132593
      ],
      [
        "▁near",
        -8.524449730343179
      ],
      [
        "▁history",
        -8.524872848233432
      ],
      [
        "▁short",
        -8.525543628352533
      ],
      [
        "▁book",
        -8.527713858729925
      ],
      [
        "▁J",
        -8.527978997950191
      ],
      [
        "▁service",
        -8.529250857507272
      ],
      [
        "der",
        -8.531582724842634
      ],
      [
        "▁death",
        -8.53171785184666
      ],
      [
        "▁said",
        -8.536947284443398
      ],
      [
        "ies",
        -8.537080024183238
      ],
      [
        "▁district",
        -8.539108290139879
      ],
      [
        "lin",
        -8.540227095460793
      ],
      [
        "▁male",
        -8.540281310911038
      ],
      [
        "▁water",
        -8.543200275841189
      ],
      [
        "▁per",
        -8.543672699613472
      ],
      [
        "▁play",
        -8.545576790229083
      ],
      [
        "va",
        -8.545687053910179
      ],
      [
        "▁record",
        -8.548568800562853
      ],
      [
        "▁Man",
        -8.549142054639946
      ],
      [
        "tic",
        -8.549525379044997
      ],
      [
        "H",
        -8.555029194404183
      ],
      [
        "ja",
        -8.558524449587416
      ],
      [
        "men",
        -8.560239563402487
      ],
      [
        "▁2017",
        -8.56462500855324
      ],
      [
        "▁help",
        -8.564674028995992
      ],
      [
        "sh",
        -8.565214353025052
      ],
      [
        "▁2018",
        -8.56546621198765
      ],
      [
        "ous",
        -8.566961411885812
      ],
      [
        "▁million",
        -8.568876078507651
      ],
      [
        "▁title",
        -8.569302744731084
      ],
      [
        "▁El",
        -8.569827797362565
      ],
      [
        "▁day",
        -8.57191469758691
      ],
      [
        "▁major",
        -8.572711828862037
      ],
      [
        "▁Mar",
        -8.573409535713488
      ],
      [
        "ling",
        -8.574420173093142
      ],
      [
        "▁Be",
        -8.57676282213054
      ],
      [
        "den",
        -8.577904914767327
      ],
      [
        "▁East",
        -8.580528617168065
      ],
      [
        "pe",
        -8.58385000864369
      ],
      [
        "▁world",
        -8.586180199692153
      ],
      [
        "those",
        -8.589955235929903
      ],
      [
        "▁side",
        -8.592527770831323
      ],
      [
        "ard",
        -8.596526184176048
      ],
      [
        "▁original",
        -8.597983663957153
      ],
      [
        "▁2019",
        -8.601062425705646
      ],
      [
        "8",
        -8.601500800490527
      ],
      [
        "▁player",
        -8.60156913371308
      ],
      [
        "▁include",
        -8.601735913953403
      ],
      [
        "▁Award",
        -8.60212020666704
      ],
      [
        "ary",
        -8.602230633500795
      ],
      [
        "▁William",
        -8.602522978653608
      ],
      [
        "▁down",
        -8.60320723508385
      ],
      [
        "▁still",
        -8.604801703705608
      ],
      [
        "▁children",
        -8.606806116975454
      ],
      [
        "D",
        -8.611520774987968
      ],
      [
        "▁another",
        -8.614627489952344
      ],
      [
        "▁moved",
        -8.615732439496602
      ],
      [
        "▁different",
        -8.616290627309432
      ],
      [
        "▁if",
        -8.61675690624935
      ],
      [
        "lo",
        -8.617584481414951
      ],
      [
        "▁Party",
        -8.618186655347206
      ],
      [
        "em",
        -8.61946008692041
      ],
      [
        "im",
        -8.6205123236758
      ],
      [
        "▁High",
        -8.622080859959642
      ],
      [
        "\nA",
        -8.622213879054911
      ],
      [
        "▁Division",
        -8.623749835256072
      ],
      [
        "▁Go",
        -8.629447926029295
      ],
      [
        "ber",
        -8.630639801968742
      ],
      [
        "▁Army",
        -8.632157953483143
      ],
      [
        ".\n\nSee",
        -8.632829248284779
      ],
      [
        "ang",
        -8.635065262289562
      ],
      [
        "▁There",
        -8.635531881043821
      ],
      [
        "▁Mo",
        -8.635716211342025
      ],
      [
        "▁son",
        -8.63653411855859
      ],
      [
        "▁km",
        -8.639801581990238
      ],
      [
        "▁off",
        -8.645106725438099
      ],
      [
        "▁father",
        -8.646632962179268
      ],
      [
        "▁war",
        -8.647997891279658
      ],
      [
        "ck",
        -8.648032807808349
      ],
      [
        "▁2005",
        -8.649219965649756
      ],
      [
        "▁house",
        -8.649793298245033
      ],
      [
        "went",
        -8.65046435978359
      ],
      [
        "▁led",
        -8.650596089331353
      ],
      [
        "G",
        -8.654248920457736
      ],
      [
        "▁2020",
        -8.65503082262946
      ],
      [
        "▁California",
        -8.655885164421308
      ],
      [
        "▁dis",
        -8.657975261189863
      ],
      [
        "▁b",
        -8.658323735409937
      ],
      [
        "\nAmerican",
        -8.6603458594055
      ],
      [
        "▁England",
        -8.660415038676375
      ],
      [
        "▁2000",
        -8.660558737994384
      ],
      [
        "▁general",
        -8.661836962143052
      ],
      [
        "▁Church",
        -8.663650681111896
      ],
      [
        "▁power",
        -8.666160109633937
      ],
      [
        "▁order",
        -8.668000818720753
      ],
      [
        "M",
        -8.66904306764048
      ],
      [
        "▁Ma",
        -8.669827942505131
      ],
      [
        "▁best",
        -8.67036379503914
      ],
      [
        "▁US",
        -8.670472472426383
      ],
      [
        "by",
        -8.67348140036462
      ],
      [
        "▁debut",
        -8.674860816399079
      ],
      [
        "ci",
        -8.675277928325357
      ],
      [
        "▁often",
        -8.676706056896014
      ],
      [
        "▁role",
        -8.67776220485025
      ],
      [
        "con",
        -8.679295304067251
      ],
      [
        "▁late",
        -8.681440258918492
      ],
      [
        "▁Ho",
        -8.68232542145278
      ],
      [
        "▁top",
        -8.682679553493521
      ],
      [
        "way",
        -8.685354032950112
      ],
      [
        "ance",
        -8.6878797962001
      ],
      [
        "▁Australia",
        -8.688188609853926
      ],
      [
        "▁George",
        -8.68898871487682
      ],
      [
        "▁total",
        -8.695776376633837
      ],
      [
        "▁produced",
        -8.697392709253851
      ],
      [
        "▁France",
        -8.698898339574308
      ],
      [
        "▁north",
        -8.69937461715512
      ],
      [
        "ated",
        -8.70233619772939
      ],
      [
        "ham",
        -8.702977846627933
      ],
      [
        "▁James",
        -8.70340291259117
      ],
      [
        "▁Royal",
        -8.70373164266017
      ],
      [
        "▁deaths",
        -8.707810953932963
      ],
      [
        "▁Di",
        -8.708501765998282
      ],
      [
        "▁development",
        -8.709298720079863
      ],
      [
        "▁King",
        -8.709708493980425
      ],
      [
        "C",
        -8.710489369787659
      ],
      [
        "\nS",
        -8.71295419732235
      ],
      [
        "▁announced",
        -8.713073568983141
      ],
      [
        "▁con",
        -8.714758694911843
      ],
      [
        "▁site",
        -8.714959583144138
      ],
      [
        "▁law",
        -8.715667522684102
      ],
      [
        "▁again",
        -8.716536556437092
      ],
      [
        "▁just",
        -8.717777732137098
      ],
      [
        "19",
        -8.718327012856246
      ],
      [
        "▁Street",
        -8.719011027669465
      ],
      [
        "▁came",
        -8.72018544943139
      ],
      [
        "▁written",
        -8.72027449016498
      ],
      [
        ".\n\nA",
        -8.720494814320064
      ],
      [
        "▁2004",
        -8.723921350957683
      ],
      [
        "▁Her",
        -8.725549099429177
      ],
      [
        "mo",
        -8.725998712495564
      ],
      [
        "▁land",
        -8.726087624926185
      ],
      [
        "▁Air",
        -8.727245268329607
      ],
      [
        "▁production",
        -8.72729105112311
      ],
      [
        "▁international",
        -8.73048962207151
      ],
      [
        "tra",
        -8.730606592502488
      ],
      [
        "▁Council",
        -8.731718087429197
      ],
      [
        "▁General",
        -8.732303384277238
      ],
      [
        "N",
        -8.73232871134475
      ],
      [
        "▁30",
        -8.733774656227698
      ],
      [
        "▁six",
        -8.735519217562768
      ],
      [
        ".\n\nOn",
        -8.735648452343966
      ],
      [
        "▁political",
        -8.73725273048435
      ],
      [
        "F",
        -8.739498078645312
      ],
      [
        "T",
        -8.739768740478524
      ],
      [
        "ko",
        -8.741323786559418
      ],
      [
        "▁One",
        -8.741923622403304
      ],
      [
        "▁Se",
        -8.742037763508973
      ],
      [
        "▁European",
        -8.74323134648418
      ],
      [
        "▁created",
        -8.74552461211107
      ],
      [
        "]",
        -8.746871258588676
      ],
      [
        "ba",
        -8.748020172600521
      ],
      [
        "▁started",
        -8.750798455743995
      ],
      [
        "ster",
        -8.750906294847086
      ],
      [
        "▁Sa",
        -8.751170907475984
      ],
      [
        "▁America",
        -8.752503430060704
      ],
      [
        "▁what",
        -8.75258067630381
      ],
      [
        "When",
        -8.752912495740626
      ],
      [
        "▁Ta",
        -8.753732209335011
      ],
      [
        "▁round",
        -8.756858082974857
      ],
      [
        "using",
        -8.758384800866738
      ],
      [
        "▁video",
        -8.758942065212281
      ],
      [
        "▁given",
        -8.76088414345358
      ],
      [
        "▁version",
        -8.764516918604425
      ],
      [
        ".\n\nReferences\n",
        -8.765907169802444
      ],
      [
        "▁country",
        -8.767278627333447
      ],
      [
        "wa",
        -8.767452528900366
      ],
      [
        "▁community",
        -8.767569890120669
      ],
      [
        "ut",
        -8.767718317710512
      ],
      [
        "▁married",
        -8.76775236840176
      ],
      [
        "’s",
        -8.768193794715835
      ],
      [
        "▁\"The",
        -8.768924906704562
      ],
      [
        "among",
        -8.769595142218913
      ],
      [
        "▁period",
        -8.77179925914261
      ],
      [
        "ish",
        -8.772043283324898
      ],
      [
        "▁No",
        -8.772991897051746
      ],
      [
        "▁much",
        -8.773045454164992
      ],
      [
        "▁become",
        -8.775251228889541
      ],
      [
        "▁professional",
        -8.777312937744025
      ],
      [
        "various",
        -8.780927646584296
      ],
      [
        "bo",
        -8.781149767538956
      ],
      [
        "▁Championship",
        -8.781933049028481
      ],
      [
        "▁south",
        -8.782440959249007
      ],
      [
        "▁Association",
        -8.782896794253167
      ],
      [
        "▁Z",
        -8.783837857644336
      ],
      [
        "▁President",
        -8.784737803803456
      ],
      [
        "▁lead",
        -8.786015703521334
      ],
      [
        "hi",
        -8.78603505397047
      ],
      [
        "▁India",
        -8.787318257515556
      ],
      [
        "▁25",
        -8.78941750051103
      ],
      [
        "▁Pro",
        -8.79045438877916
      ],
      [
        "having",
        -8.791092471696698
      ],
      [
        "one",
        -8.793326958387306
      ],
      [
        "ong",
        -8.793514711555167
      ],
      [
        "▁Australian",
        -8.794269320193576
      ],
      [
        "ov",
        -8.794421983971967
      ],
      [
        "s'",
        -8.795240392545113
      ],
      [
        "ized",
        -8.79571433663222
      ],
      [
        "▁di",
        -8.79914492149417
      ],
      [
        "ok",
        -8.799479888017355
      ],
      [
        "P",
        -8.80139477851069
      ],
      [
        "▁Indian",
        -8.802885168162428
      ],
      [
        "▁All",
        -8.803979126357058
      ],
      [
        "▁(S",
        -8.804926404018845
      ],
      [
        "▁military",
        -8.807437995954471
      ],
      [
        "20",
        -8.807766161460291
      ],
      [
        "▁Ka",
        -8.807937544744592
      ],
      [
        "que",
        -8.811812661198077
      ],
      [
        "▁Art",
        -8.816077390697831
      ],
      [
        "ig",
        -8.816930953894742
      ],
      [
        "▁Union",
        -8.817006597099452
      ],
      [
        "▁next",
        -8.817162229665518
      ],
      [
        "▁joined",
        -8.817287474333332
      ],
      [
        "\nT",
        -8.819562968702288
      ],
      [
        "ness",
        -8.820023449282068
      ],
      [
        "ll",
        -8.820980489511234
      ],
      [
        "▁worked",
        -8.822694599559412
      ],
      [
        "▁election",
        -8.824375833540753
      ],
      [
        "▁car",
        -8.826041867425655
      ],
      [
        "▁Car",
        -8.828622949111152
      ],
      [
        "▁St.",
        -8.829359630878034
      ],
      [
        "▁Su",
        -8.831897159989461
      ],
      [
        "▁Canada",
        -8.833114559752808
      ],
      [
        "▁men",
        -8.835142789641141
      ],
      [
        "▁position",
        -8.83587697256375
      ],
      [
        ":\n",
        -8.836045090808383
      ],
      [
        "▁Na",
        -8.837051360266761
      ],
      [
        "▁match",
        -8.838663239343658
      ],
      [
        "▁Bo",
        -8.83985007556481
      ],
      [
        "▁Hall",
        -8.840116640522126
      ],
      [
        "▁Li",
        -8.841118610539521
      ],
      [
        "▁present",
        -8.84180714584827
      ],
      [
        "—",
        -8.841995249860938
      ],
      [
        "▁few",
        -8.842214649378617
      ],
      [
        "mer",
        -8.842541970478536
      ],
      [
        "▁point",
        -8.844462120785156
      ],
      [
        "\nC",
        -8.84690412761651
      ],
      [
        "▁director",
        -8.848729694744085
      ],
      [
        "ger",
        -8.849054809004743
      ],
      [
        "▁Ar",
        -8.852166378290685
      ],
      [
        "▁Do",
        -8.85294881295195
      ],
      [
        "ub",
        -8.85382478595845
      ],
      [
        "up",
        -8.854509125687187
      ],
      [
        "▁2003",
        -8.856208283239964
      ],
      [
        "▁win",
        -8.85737594134562
      ],
      [
        "▁David",
        -8.85764643013374
      ],
      [
        "▁\n|-id=",
        -8.85788807324881
      ],
      [
        "\n\nReferences\n",
        -8.857903462109006
      ],
      [
        "▁even",
        -8.86003025656575
      ],
      [
        "▁2002",
        -8.86080956234328
      ],
      [
        "▁art",
        -8.861138100493687
      ],
      [
        "▁church",
        -8.861296178507176
      ],
      [
        "▁post",
        -8.861301515491025
      ],
      [
        "▁la",
        -8.862661294531195
      ],
      [
        "▁24",
        -8.862732371275392
      ],
      [
        "▁returned",
        -8.862820466424465
      ],
      [
        "za",
        -8.86435336187287
      ],
      [
        "▁pro",
        -8.864378283465788
      ],
      [
        "▁Lo",
        -8.864682633530544
      ],
      [
        "ology",
        -8.865693705217753
      ],
      [
        "▁works",
        -8.866340731954667
      ],
      [
        "▁Paul",
        -8.866393561554045
      ],
      [
        "ward",
        -8.868214878586452
      ],
      [
        "ac",
        -8.86960473144708
      ],
      [
        "▁Robert",
        -8.86960626766255
      ],
      [
        "▁Court",
        -8.87201388949217
      ],
      [
        "▁way",
        -8.872307236989789
      ],
      [
        "▁wrote",
        -8.8723835305059
      ],
      [
        "ho",
        -8.872447563486668
      ],
      [
        "op",
        -8.875609252267846
      ],
      [
        "▁2021",
        -8.876010270638576
      ],
      [
        "▁Act",
        -8.877324942046249
      ],
      [
        "▁2001",
        -8.877600213130277
      ],
      [
        "▁Ne",
        -8.878709889817472
      ],
      [
        "▁align=right",
        -8.879752556511992
      ],
      [
        "▁project",
        -8.88182858999149
      ],
      [
        "\n\nSee",
        -8.88299653382152
      ],
      [
        "▁1,",
        -8.884274743082063
      ],
      [
        "During",
        -8.885670094166365
      ],
      [
        "▁students",
        -8.885940028910031
      ],
      [
        "▁opened",
        -8.886308468550476
      ],
      [
        "W",
        -8.886587639377339
      ],
      [
        "E",
        -8.890010639864364
      ],
      [
        "les",
        -8.890324204891135
      ],
      [
        "▁()",
        -8.890822176849571
      ],
      [
        "(",
        -8.892951102890104
      ],
      [
        "▁Or",
        -8.893190105859523
      ],
      [
        "▁refer",
        -8.894639533218244
      ],
      [
        "▁Pa",
        -8.896197272669491
      ],
      [
        "▁event",
        -8.89783812054437
      ],
      [
        "bi",
        -8.89821834915928
      ],
      [
        "ium",
        -8.898857473520444
      ],
      [
        "▁events",
        -8.899046492048171
      ],
      [
        "less",
        -8.900027602140833
      ],
      [
        "▁field",
        -8.901337403719445
      ],
      [
        "▁Music",
        -8.902687426879599
      ],
      [
        "▁Ca",
        -8.903154234563505
      ],
      [
        "gen",
        -8.903697639292295
      ],
      [
        "▁program",
        -8.911358373014599
      ],
      [
        "▁research",
        -8.913347054160251
      ],
      [
        "▁Club",
        -8.913712909886604
      ],
      [
        "▁Roman",
        -8.913736439760507
      ],
      [
        "▁run",
        -8.915502500823461
      ],
      [
        "▁however",
        -8.916389451819072
      ],
      [
        "▁List",
        -8.916910753399783
      ],
      [
        "▁character",
        -8.917209605690731
      ],
      [
        "▁Island",
        -8.918683427338532
      ],
      [
        "▁Lu",
        -8.919059439295921
      ],
      [
        "ron",
        -8.920171119244156
      ],
      [
        "▁Road",
        -8.920344783030286
      ],
      [
        "▁songs",
        -8.920881588095828
      ],
      [
        "ring",
        -8.928263876813107
      ],
      [
        "ud",
        -8.932080795378234
      ],
      [
        "ite",
        -8.932309133750016
      ],
      [
        "▁Company",
        -8.932507665211594
      ],
      [
        "▁Gu",
        -8.932568659255193
      ],
      [
        "▁Center",
        -8.93264359748327
      ],
      [
        "▁design",
        -8.933260658914607
      ],
      [
        "▁control",
        -8.933880830055262
      ],
      [
        "▁Canadian",
        -8.93479790506434
      ],
      [
        "ki",
        -8.935606069022944
      ],
      [
        "per",
        -8.93687539342715
      ],
      [
        "▁race",
        -8.939469529400153
      ],
      [
        "we",
        -8.940178250812624
      ],
      [
        "▁Red",
        -8.940208363209296
      ],
      [
        "er,",
        -8.940731267580487
      ],
      [
        "chi",
        -8.942282247484949
      ],
      [
        "▁right",
        -8.942433139238751
      ],
      [
        "▁Kingdom",
        -8.94324473893805
      ],
      [
        "▁continued",
        -8.94335949425849
      ],
      [
        "line",
        -8.944754375872712
      ],
      [
        "These",
        -8.945136042011653
      ],
      [
        "▁education",
        -8.946742408798592
      ],
      [
        "▁My",
        -8.947041654093859
      ],
      [
        "▁Ko",
        -8.947931526290802
      ],
      [
        "tro",
        -8.948138654640514
      ],
      [
        "▁lost",
        -8.948520633708675
      ],
      [
        "▁Summer",
        -8.948838375251459
      ],
      [
        "ell",
        -8.949392708098571
      ],
      [
        "▁First",
        -8.949464739517087
      ],
      [
        "▁[",
        -8.950086872408919
      ],
      [
        "▁Society",
        -8.950099877534532
      ],
      [
        "▁Germany",
        -8.951818972025915
      ],
      [
        "▁free",
        -8.95275561117059
      ],
      [
        "▁live",
        -8.956306906904825
      ],
      [
        "▁By",
        -8.957632700731075
      ],
      [
        "ji",
        -8.958709191383901
      ],
      [
        ".\n\nHe",
        -8.960859057773837
      ],
      [
        "▁X",
        -8.962170641765134
      ],
      [
        "▁services",
        -8.962861618167347
      ],
      [
        "▁old",
        -8.963207306076239
      ],
      [
        "▁completed",
        -8.964336302402558
      ],
      [
        "▁Black",
        -8.96544585465453
      ],
      [
        "▁addition",
        -8.96644782766187
      ],
      [
        "ities",
        -8.96651601774483
      ],
      [
        "ver",
        -8.968199548183739
      ],
      [
        "▁Washington",
        -8.968957783716759
      ],
      [
        ".\n\nS",
        -8.969729409074484
      ],
      [
        "▁story",
        -8.971285606792474
      ],
      [
        "ship",
        -8.971380200610827
      ],
      [
        "▁Games",
        -8.971443694760532
      ],
      [
        "▁21",
        -8.971464367836575
      ],
      [
        "▁every",
        -8.972521674079374
      ],
      [
        "▁recorded",
        -8.972620306374813
      ],
      [
        "▁founded",
        -8.973730538186475
      ],
      [
        "ow",
        -8.974026500163902
      ],
      [
        "ung",
        -8.974049840995457
      ],
      [
        "▁air",
        -8.975343956673553
      ],
      [
        "▁social",
        -8.977929745755297
      ],
      [
        "▁China",
        -8.978332950597446
      ],
      [
        "▁considered",
        -8.979037217682722
      ],
      [
        "om",
        -8.97987637589626
      ],
      [
        "▁Japan",
        -8.980408352735697
      ],
      [
        "ze",
        -8.982522514414894
      ],
      [
        "ru",
        -8.982669294315587
      ],
      [
        "▁Du",
        -8.982942810971188
      ],
      [
        "▁open",
        -8.982981024840086
      ],
      [
        "▁wife",
        -8.98321913584424
      ],
      [
        "▁directed",
        -8.983586152150208
      ],
      [
        "▁Institute",
        -8.98417206233147
      ],
      [
        "▁league",
        -8.984955117286543
      ],
      [
        "▁Records",
        -8.985282533317996
      ],
      [
        "▁Po",
        -8.98541547423846
      ],
      [
        "▁Group",
        -8.98559611342163
      ],
      [
        "▁case",
        -8.986233343157355
      ],
      [
        "▁Olympics",
        -8.986713908303653
      ],
      [
        "mon",
        -8.987337723453942
      ],
      [
        "ting",
        -8.98835847645361
      ],
      [
        "▁elected",
        -8.98868822056456
      ],
      [
        "▁days",
        -8.988714363452932
      ],
      [
        "▁business",
        -8.988733836567775
      ],
      [
        "▁teams",
        -8.990476811586717
      ],
      [
        "▁Ga",
        -8.990576510368447
      ],
      [
        "without",
        -8.99092989039153
      ],
      [
        "ler",
        -8.991556599467343
      ],
      [
        "▁party",
        -8.992036437887812
      ],
      [
        "▁100",
        -8.992653268277866
      ],
      [
        "▁appointed",
        -8.992919386036949
      ],
      [
        "wards",
        -8.993623631746972
      ],
      [
        "field",
        -8.993983271412041
      ],
      [
        "▁Thomas",
        -8.996911532056442
      ],
      [
        "▁further",
        -8.998002202378068
      ],
      [
        "L",
        -8.998878201684683
      ],
      [
        "▁22",
        -9.000342840824688
      ],
      [
        "10",
        -9.00148686113873
      ],
      [
        "▁Department",
        -9.002593160131832
      ],
      [
        "V",
        -9.00283220158626
      ],
      [
        "▁official",
        -9.002962830783918
      ],
      [
        "lu",
        -9.003279874441786
      ],
      [
        "▁young",
        -9.003972939331133
      ],
      [
        "ex",
        -9.00411091950294
      ],
      [
        "▁non-",
        -9.005963592346651
      ],
      [
        "side",
        -9.007024813158505
      ],
      [
        "ial",
        -9.007195325962341
      ],
      [
        "▁release",
        -9.00830026178773
      ],
      [
        "mi",
        -9.012176816237975
      ],
      [
        "▁man",
        -9.01333881480155
      ],
      [
        "▁popular",
        -9.015940023613112
      ],
      [
        "▁together",
        -9.016228649292756
      ],
      [
        "▁office",
        -9.016967194082433
      ],
      [
        "▁Central",
        -9.018837415803018
      ],
      [
        "\n\nIn",
        -9.020307952093912
      ],
      [
        "▁Museum",
        -9.020398392720399
      ],
      [
        "▁appeared",
        -9.022022349738188
      ],
      [
        "es,",
        -9.022274462938507
      ],
      [
        "▁signed",
        -9.023293340060686
      ],
      [
        "▁Ben",
        -9.02378308693914
      ],
      [
        "▁Minister",
        -9.024103116715981
      ],
      [
        "J",
        -9.024363285702863
      ],
      [
        "▁Lake",
        -9.024948398626698
      ],
      [
        "gi",
        -9.025524156831747
      ],
      [
        "▁Academy",
        -9.02576215212717
      ],
      [
        "▁Japanese",
        -9.026613162322162
      ],
      [
        "▁average",
        -9.027412369486411
      ],
      [
        "ey",
        -9.029368101644812
      ],
      [
        "▁coach",
        -9.030880255946196
      ],
      [
        "▁region",
        -9.03137918265298
      ],
      [
        "▁We",
        -9.032177993291544
      ],
      [
        "▁Best",
        -9.032935593712068
      ],
      [
        "▁Charles",
        -9.03304664622677
      ],
      [
        "▁list",
        -9.033081072288468
      ],
      [
        "▁developed",
        -9.034131183217157
      ],
      [
        "▁east",
        -9.03421158055295
      ],
      [
        "▁important",
        -9.034216049878033
      ],
      [
        "▁groups",
        -9.037895635995916
      ],
      [
        "▁Ja",
        -9.038304656415363
      ],
      [
        "▁track",
        -9.038446877651868
      ],
      [
        "▁fire",
        -9.038878789678167
      ],
      [
        "▁1999",
        -9.039046843310363
      ],
      [
        "▁Green",
        -9.039063522328174
      ],
      [
        "▁Italian",
        -9.039478277818592
      ],
      [
        "je",
        -9.039930742218814
      ],
      [
        "▁full",
        -9.040206800435248
      ],
      [
        "▁Da",
        -9.040735879003213
      ],
      [
        "▁points",
        -9.04104248376015
      ],
      [
        "▁common",
        -9.04238729527982
      ],
      [
        "▁19",
        -9.042682125989952
      ],
      [
        "▁half",
        -9.044624566817651
      ],
      [
        "▁Football",
        -9.044733257214244
      ],
      [
        "▁language",
        -9.044805867576324
      ],
      [
        "▁Russian",
        -9.044834989352054
      ],
      [
        "▁(C",
        -9.045327209950562
      ],
      [
        "▁Bay",
        -9.045458232326771
      ],
      [
        "▁similar",
        -9.046069114586691
      ],
      [
        "▁Catholic",
        -9.04682187462601
      ],
      [
        "▁Fa",
        -9.047020636330265
      ],
      [
        "po",
        -9.047385467063936
      ],
      [
        "mp",
        -9.047461754788023
      ],
      [
        "▁Republic",
        -9.049962656099122
      ],
      [
        "▁light",
        -9.051138411359515
      ],
      [
        "vi",
        -9.052429577818653
      ],
      [
        "▁Ro",
        -9.052455187329842
      ],
      [
        "O",
        -9.052507822208524
      ],
      [
        "▁Africa",
        -9.053418236216654
      ],
      [
        "han",
        -9.053572470052565
      ],
      [
        "▁“",
        -9.053646307833082
      ],
      [
        "ach",
        -9.054123359088232
      ],
      [
        "pa",
        -9.054401080814896
      ],
      [
        "ou",
        -9.05460670142713
      ],
      [
        "the",
        -9.05476620803117
      ],
      [
        "min",
        -9.055297435918035
      ],
      [
        "▁mother",
        -9.05575432141249
      ],
      [
        "▁Bar",
        -9.055892221025458
      ],
      [
        "▁TV",
        -9.056096671352137
      ],
      [
        "mar",
        -9.056169028837749
      ],
      [
        "▁areas",
        -9.056299844520526
      ],
      [
        "▁1996",
        -9.05690705534994
      ],
      [
        "\nF",
        -9.057083520278447
      ],
      [
        "▁study",
        -9.057295891090996
      ],
      [
        "▁Te",
        -9.058326992310548
      ],
      [
        "▁reported",
        -9.058541034180772
      ],
      [
        "▁23",
        -9.05999336581917
      ],
      [
        "▁working",
        -9.060006691603235
      ],
      [
        "ek",
        -9.060339111535313
      ],
      [
        "▁formed",
        -9.060676071183149
      ],
      [
        "▁Pe",
        -9.061178285043182
      ],
      [
        "ence",
        -9.062398056650041
      ],
      [
        "▁sub",
        -9.063931682722574
      ],
      [
        "▁Western",
        -9.064124518238017
      ],
      [
        "ists",
        -9.064724661651402
      ],
      [
        "▁we",
        -9.064991893918203
      ],
      [
        "▁come",
        -9.065154273093025
      ],
      [
        "X",
        -9.066132936274192
      ],
      [
        "▁Zealand",
        -9.066886644591236
      ],
      [
        "▁making",
        -9.067205759939704
      ],
      [
        "▁west",
        -9.068303042263016
      ],
      [
        "▁=",
        -9.068724244717867
      ],
      [
        "ff",
        -9.069380305793818
      ],
      [
        "▁Michael",
        -9.069553859618468
      ],
      [
        "50",
        -9.070912463072185
      ],
      [
        "▁style",
        -9.070929735536833
      ],
      [
        "▁data",
        -9.071332723803081
      ],
      [
        "▁radio",
        -9.071720672376062
      ],
      [
        "”",
        -9.072533245322349
      ],
      [
        "▁stage",
        -9.07330156357352
      ],
      [
        "▁Great",
        -9.075696467305029
      ],
      [
        "▁Film",
        -9.076242448060407
      ],
      [
        "▁Peter",
        -9.077246291378833
      ],
      [
        "all",
        -9.07745311120225
      ],
      [
        "ven",
        -9.081540916248313
      ],
      [
        "▁daughter",
        -9.081901464162634
      ],
      [
        "▁footballers",
        -9.083000326062969
      ],
      [
        "▁White",
        -9.083914792977673
      ],
      [
        "11",
        -9.084490180884941
      ],
      [
        "out",
        -9.085312339865117
      ],
      [
        "▁president",
        -9.085795181850804
      ],
      [
        "▁does",
        -9.086869007628982
      ],
      [
        "▁Pan",
        -9.08722343706055
      ],
      [
        "ally",
        -9.088577034663363
      ],
      [
        "▁himself",
        -9.08918927017042
      ],
      [
        "30",
        -9.09005538667109
      ],
      [
        "▁(A",
        -9.091953741313487
      ],
      [
        "▁level",
        -9.092690217966098
      ],
      [
        "▁term",
        -9.093670228949577
      ],
      [
        "▁Cor",
        -9.094653583988407
      ],
      [
        "▁road",
        -9.095769572149948
      ],
      [
        "▁go",
        -9.102324814063056
      ],
      [
        "▁body",
        -9.103579861687372
      ],
      [
        "vo",
        -9.104052806666546
      ],
      [
        "▁rock",
        -9.105406143333214
      ],
      [
        "-19",
        -9.105481423610904
      ],
      [
        "although",
        -9.10557019243589
      ],
      [
        "▁(B",
        -9.10649980896383
      ],
      [
        "▁26",
        -9.107261697838155
      ],
      [
        "▁No.",
        -9.109022072517506
      ],
      [
        "▁companies",
        -9.109025800490958
      ],
      [
        "▁Europe",
        -9.109239081120117
      ],
      [
        "n't",
        -9.109621774383529
      ],
      [
        "s:",
        -9.109831142855429
      ],
      [
        "▁times",
        -9.112408066579995
      ],
      [
        "▁modern",
        -9.11314542012779
      ],
      [
        "▁albums",
        -9.113189619118549
      ],
      [
        "▁consist",
        -9.113370153844812
      ],
      [
        "▁Texas",
        -9.11386386331754
      ],
      [
        "if",
        -9.115267779155834
      ],
      [
        "▁also\n",
        -9.115747900869174
      ],
      [
        "ure",
        -9.11580018768767
      ],
      [
        "▁Ri",
        -9.116080599759181
      ],
      [
        "▁episode",
        -9.116655646533184
      ],
      [
        "▁get",
        -9.116818050317331
      ],
      [
        "▁1998",
        -9.116946686794913
      ],
      [
        "▁see",
        -9.117157050583739
      ],
      [
        "\nB",
        -9.118535126919731
      ],
      [
        "▁across",
        -9.11982323321749
      ],
      [
        "▁UK",
        -9.123505808474116
      ],
      [
        "▁28",
        -9.124157484646087
      ],
      [
        "ions",
        -9.124370788432419
      ],
      [
        "ors",
        -9.125648528430157
      ],
      [
        "\n20th-century",
        -9.126886416085288
      ],
      [
        "wood",
        -9.127071513596677
      ],
      [
        "▁pre",
        -9.127198206644442
      ],
      [
        "▁process",
        -9.128173008704172
      ],
      [
        "▁1995",
        -9.128705029816823
      ],
      [
        "15",
        -9.128902674420555
      ],
      [
        "▁(P",
        -9.131537946276945
      ],
      [
        "▁J.",
        -9.131593049318004
      ],
      [
        "’",
        -9.131941308813168
      ],
      [
        "ther",
        -9.132394049872282
      ],
      [
        "▁special",
        -9.13333639945319
      ],
      [
        "▁27",
        -9.135706087699992
      ],
      [
        "▁class",
        -9.135798416850067
      ],
      [
        "17",
        -9.140421267500757
      ],
      [
        "che",
        -9.141882417800588
      ],
      [
        "▁alumni",
        -9.142247478469615
      ],
      [
        "▁start",
        -9.142338260348534
      ],
      [
        "▁available",
        -9.142666567499521
      ],
      [
        "▁how",
        -9.144078668567332
      ],
      [
        "ani",
        -9.144102015240742
      ],
      [
        "▁playing",
        -9.1442365300619
      ],
      [
        "▁\"S",
        -9.144365248034429
      ],
      [
        "▁sold",
        -9.146558034880604
      ],
      [
        "▁contract",
        -9.146684099084283
      ],
      [
        "ful",
        -9.14746289801852
      ],
      [
        "U",
        -9.148127178610888
      ],
      [
        "▁birth",
        -9.148531937252724
      ],
      [
        "▁Chinese",
        -9.148691552813697
      ],
      [
        "ford",
        -9.150916925289298
      ],
      [
        "▁Grand",
        -9.151617089903295
      ],
      [
        "val",
        -9.152440882796935
      ],
      [
        "▁Paris",
        -9.152614292909874
      ],
      [
        "▁female",
        -9.154231554591878
      ],
      [
        "▁close",
        -9.154623740624984
      ],
      [
        "bb",
        -9.157884822280856
      ],
      [
        "▁schools",
        -9.159039338746105
      ],
      [
        "▁author",
        -9.159165321125796
      ],
      [
        "▁From",
        -9.159233626318239
      ],
      [
        "ide",
        -9.159434246147429
      ],
      [
        "▁information",
        -9.159967278293859
      ],
      [
        "▁Ba",
        -9.16009336968185
      ],
      [
        "40",
        -9.160241515022989
      ],
      [
        "▁human",
        -9.160362376943343
      ],
      [
        "▁African",
        -9.160769335927073
      ],
      [
        "14",
        -9.161105947858953
      ],
      [
        "ical",
        -9.161875154430154
      ],
      [
        "▁bgcolor=#",
        -9.16214913682533
      ],
      [
        "▁performance",
        -9.162495698536858
      ],
      [
        "ier",
        -9.163386459726025
      ],
      [
        "▁attack",
        -9.16368673319816
      ],
      [
        "▁living",
        -9.164195332535535
      ],
      [
        "16",
        -9.16467870048224
      ],
      [
        "▁Star",
        -9.16572661211422
      ],
      [
        "▁buildings",
        -9.165874979223341
      ],
      [
        "▁model",
        -9.166007475335636
      ],
      [
        "▁performed",
        -9.16859687740912
      ],
      [
        "▁hand",
        -9.169029901482213
      ],
      [
        "gave",
        -9.169033659357435
      ],
      [
        "▁Cha",
        -9.170100228239923
      ],
      [
        "||",
        -9.170382761666632
      ],
      [
        "und",
        -9.170480119034508
      ],
      [
        "▁less",
        -9.171108640708866
      ],
      [
        "▁black",
        -9.172242371268748
      ],
      [
        "▁range",
        -9.17330957046504
      ],
      [
        "▁court",
        -9.173462652178694
      ],
      [
        "▁construction",
        -9.173981686889833
      ],
      [
        "▁Y",
        -9.17697670567653
      ],
      [
        "hu",
        -9.179939837856558
      ],
      [
        "12",
        -9.180623240542435
      ],
      [
        "▁seven",
        -9.180782404045214
      ],
      [
        "▁should",
        -9.181583814512251
      ],
      [
        "cha",
        -9.182237422189251
      ],
      [
        "R",
        -9.182871962411808
      ],
      [
        "sen",
        -9.183890011479233
      ],
      [
        "▁never",
        -9.184381521062425
      ],
      [
        "▁Per",
        -9.186200505662406
      ],
      [
        "▁stations",
        -9.187342361699217
      ],
      [
        "ill",
        -9.188064767414293
      ],
      [
        "▁current",
        -9.18827083896462
      ],
      [
        "▁Hu",
        -9.188343163034348
      ],
      [
        "nd",
        -9.188851231332913
      ],
      [
        "▁Los",
        -9.189325703795033
      ],
      [
        "ted",
        -9.18942859827836
      ],
      [
        "ph",
        -9.19157624645917
      ],
      [
        "▁1997",
        -9.191710729831977
      ],
      [
        "▁killed",
        -9.193133719264205
      ],
      [
        "25",
        -9.193936160330614
      ],
      [
        "sk",
        -9.195813754435292
      ],
      [
        "ville",
        -9.196035339685187
      ],
      [
        "▁media",
        -9.19695858729868
      ],
      [
        "▁co",
        -9.197094638543932
      ],
      [
        "▁Law",
        -9.198793844415977
      ],
      [
        "▁Pi",
        -9.199945021232267
      ],
      [
        "!",
        -9.20150150378789
      ],
      [
        "ization",
        -9.201914086718768
      ],
      [
        "▁return",
        -9.202673895402546
      ],
      [
        "▁months",
        -9.203330410725325
      ],
      [
        "ius",
        -9.20505193675116
      ],
      [
        "▁Richard",
        -9.205839940468627
      ],
      [
        "I",
        -9.206098636859878
      ],
      [
        "▁allow",
        -9.206991594129498
      ],
      [
        "▁Henry",
        -9.207080340780124
      ],
      [
        "▁taken",
        -9.20843647876694
      ],
      [
        "▁though",
        -9.2093780908588
      ],
      [
        "▁away",
        -9.210447408756723
      ],
      [
        "fer",
        -9.210780361350805
      ],
      [
        "jo",
        -9.211487218410648
      ],
      [
        "▁finished",
        -9.212146433114782
      ],
      [
        "▁1992",
        -9.212181598945607
      ],
      [
        "▁ship",
        -9.212502146619894
      ],
      [
        "▁followed",
        -9.212563385288364
      ],
      [
        "▁Un",
        -9.213451244435356
      ],
      [
        "13",
        -9.21358723829604
      ],
      [
        "While",
        -9.214451627768156
      ],
      [
        "▁Am",
        -9.216172869045419
      ],
      [
        "lan",
        -9.216522533814706
      ],
      [
        "▁Force",
        -9.216747825194807
      ],
      [
        "▁me",
        -9.21802379579851
      ],
      [
        "80",
        -9.218720887067892
      ],
      [
        "▁$",
        -9.219289888338912
      ],
      [
        "▁establishments",
        -9.220991407593242
      ],
      [
        "ria",
        -9.224358734377219
      ],
      [
        "▁must",
        -9.2262203345955
      ],
      [
        "▁bar",
        -9.226414417481294
      ],
      [
        "▁1994",
        -9.226781776743579
      ],
      [
        "▁Day",
        -9.227248099567879
      ],
      [
        "▁novel",
        -9.22737154008316
      ],
      [
        "▁Ireland",
        -9.227953745430458
      ],
      [
        "▁designed",
        -9.229260100886888
      ],
      [
        "▁Bre",
        -9.230126276203533
      ],
      [
        "▁ten",
        -9.230311083140764
      ],
      [
        "▁brother",
        -9.231002862343802
      ],
      [
        "▁features",
        -9.231970066067579
      ],
      [
        "▁Christian",
        -9.23325566345779
      ],
      [
        "▁police",
        -9.233450049896208
      ],
      [
        "ice",
        -9.236415983517626
      ],
      [
        "▁white",
        -9.236797004260177
      ],
      [
        "▁originally",
        -9.237378555978237
      ],
      [
        "▁Gi",
        -9.2381908054517
      ],
      [
        "▁board",
        -9.23877041900312
      ],
      [
        "well",
        -9.239406154451794
      ],
      [
        "ten",
        -9.239570704417593
      ],
      [
        "▁Spanish",
        -9.239571715959928
      ],
      [
        "▁awarded",
        -9.240893237580577
      ],
      [
        "pi",
        -9.241202043400268
      ],
      [
        "▁artists",
        -9.24175131846443
      ],
      [
        "▁campaign",
        -9.24223791635393
      ],
      [
        "ara",
        -9.24365098089407
      ],
      [
        "▁once",
        -9.244079620647526
      ],
      [
        "fe",
        -9.245716405424066
      ],
      [
        "▁With",
        -9.246566092470447
      ],
      [
        "▁find",
        -9.247717099082626
      ],
      [
        "▁featured",
        -9.248311812422694
      ],
      [
        "–18",
        -9.24835712852211
      ],
      [
        "▁includes",
        -9.251033970668326
      ],
      [
        "tal",
        -9.251480352556138
      ],
      [
        "Y",
        -9.251639477410786
      ],
      [
        "▁Wi",
        -9.252211973777111
      ],
      [
        "wi",
        -9.252733199346714
      ],
      [
        "-S",
        -9.252925207553949
      ],
      [
        "▁remained",
        -9.253918634843426
      ],
      [
        "▁Virginia",
        -9.254878131238065
      ],
      [
        "▁29",
        -9.255140756600454
      ],
      [
        "▁center",
        -9.255265959624477
      ],
      [
        "▁front",
        -9.255592387644052
      ],
      [
        "▁Ver",
        -9.255811360249405
      ],
      [
        "▁artist",
        -9.2560751185063
      ],
      [
        "▁sent",
        -9.256390820571221
      ],
      [
        "▁largest",
        -9.25715017751148
      ],
      [
        "▁Hill",
        -9.25813499023987
      ],
      [
        "▁good",
        -9.2588571003869
      ],
      [
        "iv",
        -9.259037815870718
      ],
      [
        "ker",
        -9.259164508410104
      ],
      [
        "gan",
        -9.259871509606251
      ],
      [
        "▁you",
        -9.259935722742616
      ],
      [
        "▁training",
        -9.2606201324437
      ],
      [
        "▁eight",
        -9.260806263124413
      ],
      [
        "▁great",
        -9.262046512937282
      ],
      [
        "▁Smith",
        -9.262501279552673
      ],
      [
        "▁Some",
        -9.26332997544844
      ],
      [
        "23",
        -9.263975859049076
      ],
      [
        "▁Ni",
        -9.26485209235977
      ],
      [
        "▁Chi",
        -9.264996119393476
      ],
      [
        "▁real",
        -9.265128776549147
      ],
      [
        "▁History",
        -9.26574547062754
      ],
      [
        "house",
        -9.267566257346735
      ],
      [
        "ran",
        -9.268798764342725
      ],
      [
        "▁places",
        -9.269149329981511
      ],
      [
        "▁Super",
        -9.269150483275736
      ],
      [
        "▁books",
        -9.27017259142608
      ],
      [
        "▁Har",
        -9.270806831034424
      ],
      [
        "s\"",
        -9.271137328339723
      ],
      [
        "▁du",
        -9.272301561005955
      ],
      [
        "▁Order",
        -9.272309235242732
      ],
      [
        "▁Historic",
        -9.273143378600949
      ],
      [
        "▁aircraft",
        -9.274688682711744
      ],
      [
        ".\n\nB",
        -9.275407845478272
      ],
      [
        "▁shows",
        -9.27572276293223
      ],
      [
        "▁Mexico",
        -9.277839764400102
      ],
      [
        "▁seen",
        -9.278506185932471
      ],
      [
        "▁Martin",
        -9.278869607992501
      ],
      [
        "▁throughout",
        -9.279740485714802
      ],
      [
        "▁serve",
        -9.28062315962629
      ],
      [
        "ens",
        -9.280841897703048
      ],
      [
        "▁(M",
        -9.283222871364952
      ],
      [
        "▁players\n",
        -9.284207148901134
      ],
      [
        "q",
        -9.284574485299947
      ],
      [
        "\nOn",
        -9.284849195687892
      ],
      [
        "▁Ad",
        -9.285677910511339
      ],
      [
        "▁forces",
        -9.286662709916934
      ],
      [
        "▁writer",
        -9.287371550577172
      ],
      [
        "▁railway",
        -9.289302572428765
      ],
      [
        "▁Ex",
        -9.290553635075332
      ],
      [
        "▁Ti",
        -9.290736679329425
      ],
      [
        "▁success",
        -9.290941063569619
      ],
      [
        "ik",
        -9.292046838167728
      ],
      [
        "usually",
        -9.292372868155166
      ],
      [
        "▁college",
        -9.292700731790474
      ],
      [
        "ett",
        -9.293456324765659
      ],
      [
        "har",
        -9.29543859513528
      ],
      [
        "mb",
        -9.295698353843925
      ],
      [
        "▁competition",
        -9.295835692905904
      ],
      [
        "▁Year",
        -9.296641836607582
      ],
      [
        "▁involved",
        -9.29770524781641
      ],
      [
        "▁countries",
        -9.297998218489127
      ],
      [
        "▁Navy",
        -9.298349048083947
      ],
      [
        "▁Mac",
        -9.301057872489851
      ],
      [
        "21",
        -9.30201860240385
      ],
      [
        "▁Championships",
        -9.302391032114208
      ],
      [
        "▁1988",
        -9.303990292440835
      ],
      [
        "▁introduced",
        -9.304106743128125
      ],
      [
        "▁Province",
        -9.30494269144853
      ],
      [
        "99",
        -9.305733893273645
      ],
      [
        "▁politician",
        -9.306102910243482
      ],
      [
        "▁turn",
        -9.3064638467503
      ],
      [
        "?",
        -9.307182586387388
      ],
      [
        "▁eventually",
        -9.307530342305569
      ],
      [
        "▁1990",
        -9.307606630545235
      ],
      [
        "▁sea",
        -9.30770146100639
      ],
      [
        "not",
        -9.30806108177231
      ],
      [
        "▁scored",
        -9.308501425673716
      ],
      [
        "low",
        -9.309078366259406
      ],
      [
        "▁space",
        -9.30994886975259
      ],
      [
        "▁private",
        -9.310206734105954
      ],
      [
        "▁Mi",
        -9.31071571820057
      ],
      [
        "▁1993",
        -9.311838940066224
      ],
      [
        "unt",
        -9.312687427585153
      ],
      [
        "▁replaced",
        -9.313113731119016
      ],
      [
        "▁Italy",
        -9.313836613800673
      ],
      [
        "▁listed",
        -9.313941422282385
      ],
      [
        "▁ex",
        -9.314958785109669
      ],
      [
        "According",
        -9.316795010039355
      ],
      [
        "▁travel",
        -9.316798288539466
      ],
      [
        "▁studio",
        -9.317410582570895
      ],
      [
        "▁Bi",
        -9.31762480429192
      ],
      [
        "du",
        -9.31880495045517
      ],
      [
        "ev",
        -9.31927993627996
      ],
      [
        "▁Festival",
        -9.319834266350929
      ],
      [
        "▁currently",
        -9.319870687026222
      ],
      [
        "▁type",
        -9.319943696054887
      ],
      [
        "▁command",
        -9.320049990588512
      ],
      [
        "▁Chicago",
        -9.320446811840558
      ],
      [
        "▁health",
        -9.320940024478231
      ],
      [
        "▁Si",
        -9.321828034731512
      ],
      [
        "24",
        -9.32211112727706
      ],
      [
        "▁Che",
        -9.323274440503893
      ],
      [
        "▁rights",
        -9.323350266730882
      ],
      [
        "▁culture",
        -9.324601486031826
      ],
      [
        "cy",
        -9.32480259808122
      ],
      [
        "▁Committee",
        -9.325439724356597
      ],
      [
        "ari",
        -9.325896015285416
      ],
      [
        "▁ground",
        -9.327664165133767
      ],
      [
        "▁Ke",
        -9.327697927944637
      ],
      [
        "▁previous",
        -9.328037974883562
      ],
      [
        "▁added",
        -9.328250989363486
      ],
      [
        "▁Soviet",
        -9.328287751898296
      ],
      [
        "▁central",
        -9.329008873481573
      ],
      [
        "ning",
        -9.32963359261368
      ],
      [
        "▁Pre",
        -9.331473882785042
      ],
      [
        "▁Jo",
        -9.331557377092103
      ],
      [
        "60",
        -9.332410278555122
      ],
      [
        "▁trade",
        -9.333594328443567
      ],
      [
        "▁degree",
        -9.33397620030375
      ],
      [
        "▁change",
        -9.334163533547303
      ],
      [
        "▁least",
        -9.335793409948698
      ],
      [
        "▁Angeles",
        -9.335985195431407
      ],
      [
        "▁Sea",
        -9.336725592070973
      ],
      [
        "▁1991",
        -9.33703323775035
      ],
      [
        "▁above",
        -9.337307026546013
      ],
      [
        "▁Vi",
        -9.339267583921902
      ],
      [
        "▁Rock",
        -9.339353739603784
      ],
      [
        "▁goal",
        -9.339384290179295
      ],
      [
        "▁(the",
        -9.340913850041467
      ],
      [
        "▁stated",
        -9.341455444582193
      ],
      [
        "Q",
        -9.341782460268071
      ],
      [
        "ney",
        -9.342071706131927
      ],
      [
        "▁basketball",
        -9.342131806263158
      ],
      [
        "▁Sir",
        -9.343254098009062
      ],
      [
        "▁website",
        -9.343709128321922
      ],
      [
        "kin",
        -9.3445364584486
      ],
      [
        "▁Ge",
        -9.34535523739022
      ],
      [
        "port",
        -9.346221377834572
      ],
      [
        "\n|-\n|",
        -9.34785016664457
      ],
      [
        "▁Mor",
        -9.348905942675847
      ],
      [
        "▁31",
        -9.348951741395963
      ],
      [
        "▁Brown",
        -9.349747727589987
      ],
      [
        "▁Mount",
        -9.35026084542074
      ],
      [
        "▁put",
        -9.350766499581377
      ],
      [
        "▁either",
        -9.351498750799701
      ],
      [
        "▁guitar",
        -9.351508980774218
      ],
      [
        "▁Mu",
        -9.351814734677493
      ],
      [
        "70",
        -9.353545999046935
      ],
      [
        "▁fourth",
        -9.35360653655996
      ],
      [
        "ix",
        -9.354340646264793
      ],
      [
        "▁writing",
        -9.355707402910218
      ],
      [
        "▁Mark",
        -9.356016855074163
      ],
      [
        "ena",
        -9.357802529610165
      ],
      [
        "▁via",
        -9.35958334024956
      ],
      [
        "▁Arts",
        -9.360994244913124
      ],
      [
        "ath",
        -9.364275396609404
      ],
      [
        "▁size",
        -9.36480813596842
      ],
      [
        "▁Carolina",
        -9.36483397092659
      ],
      [
        "▁provided",
        -9.365146187705912
      ],
      [
        "98",
        -9.369052618551637
      ],
      [
        "sky",
        -9.369545722836872
      ],
      [
        "▁Science",
        -9.36954752569572
      ],
      [
        "ast",
        -9.369885013121138
      ],
      [
        "▁50",
        -9.37019270864849
      ],
      [
        "▁unit",
        -9.373023101255074
      ],
      [
        "ag",
        -9.373737433556014
      ],
      [
        "▁capital",
        -9.373761649239725
      ],
      [
        "car",
        -9.374102550345151
      ],
      [
        "▁upon",
        -9.374799004164418
      ],
      [
        "tu",
        -9.37481813667266
      ],
      [
        "▁science",
        -9.375530738871023
      ],
      [
        "row",
        -9.376086613226216
      ],
      [
        "90",
        -9.376537663246433
      ],
      [
        "ella",
        -9.378501536995902
      ],
      [
        "▁Men",
        -9.37932443444456
      ],
      [
        "▁Wales",
        -9.379715835450044
      ],
      [
        "▁Florida",
        -9.379835632376638
      ],
      [
        "▁force",
        -9.379887512839883
      ],
      [
        "00",
        -9.381095974569503
      ],
      [
        "▁tournament",
        -9.38178094583041
      ],
      [
        "▁person",
        -9.382549178471146
      ],
      [
        "▁Sam",
        -9.383102193273507
      ],
      [
        "▁Government",
        -9.383478607970867
      ],
      [
        "▁reached",
        -9.383553393242156
      ],
      [
        "▁Sal",
        -9.383668654797855
      ],
      [
        "uk",
        -9.383712350127094
      ],
      [
        "sta",
        -9.383836053271073
      ],
      [
        "▁market",
        -9.384378761144665
      ],
      [
        "ative",
        -9.385620194379502
      ],
      [
        "▁plant",
        -9.386014648894495
      ],
      [
        "▁writers",
        -9.386328956206638
      ],
      [
        "▁night",
        -9.386478616594312
      ],
      [
        "▁saw",
        -9.388009046455789
      ],
      [
        "ating",
        -9.388865721690376
      ],
      [
        "▁action",
        -9.389447977300652
      ],
      [
        "uch",
        -9.390202775483527
      ],
      [
        "▁missing",
        -9.391658523621846
      ],
      [
        "▁wide",
        -9.393985101424391
      ],
      [
        "pur",
        -9.394218214216387
      ],
      [
        "bar",
        -9.394303034987981
      ],
      [
        "ep",
        -9.394571570424231
      ],
      [
        "▁units",
        -9.39458795042467
      ],
      [
        "▁(T",
        -9.394997645736687
      ],
      [
        "time",
        -9.395079364143522
      ],
      [
        "ern",
        -9.395214313412051
      ],
      [
        "▁Service",
        -9.395704084114966
      ],
      [
        "▁Min",
        -9.39606506869713
      ],
      [
        "▁1st",
        -9.396446221739431
      ],
      [
        "▁And",
        -9.396993696044044
      ],
      [
        "▁Je",
        -9.397544760153577
      ],
      [
        "▁Com",
        -9.399087714285503
      ],
      [
        "▁sp",
        -9.400487422235734
      ],
      [
        "▁1987",
        -9.401171174162988
      ],
      [
        "▁(H",
        -9.401343107380681
      ],
      [
        "28",
        -9.40268445850465
      ],
      [
        "▁Mary",
        -9.403162751581727
      ],
      [
        "leading",
        -9.403358702916039
      ],
      [
        "ada",
        -9.403533255862326
      ],
      [
        "zo",
        -9.403751674008676
      ],
      [
        "▁God",
        -9.404101246375944
      ],
      [
        "▁placed",
        -9.404556464223925
      ],
      [
        "▁shot",
        -9.405183672801792
      ],
      [
        "vin",
        -9.405583130492687
      ],
      [
        "▁st",
        -9.406659766448385
      ],
      [
        "▁organization",
        -9.407024676012886
      ],
      [
        "▁actor",
        -9.407259178743542
      ],
      [
        "08",
        -9.407595181060191
      ],
      [
        "▁Col",
        -9.408402015206788
      ],
      [
        "-1",
        -9.408513041096253
      ],
      [
        "▁Ra",
        -9.408787159990684
      ],
      [
        "▁Pennsylvania",
        -9.40888462330083
      ],
      [
        "▁river",
        -9.41009610722798
      ],
      [
        "▁2,",
        -9.410106020647108
      ],
      [
        "▁far",
        -9.410706381597535
      ],
      [
        "▁Fe",
        -9.411140400401557
      ],
      [
        "▁1986",
        -9.411373946078204
      ],
      [
        "▁(D",
        -9.411481876278534
      ],
      [
        "▁provide",
        -9.411488625314075
      ],
      [
        "nes",
        -9.41188488683217
      ],
      [
        "▁rest",
        -9.412195646153675
      ],
      [
        "▁Saint",
        -9.412683767377509
      ],
      [
        "red",
        -9.412982745756503
      ],
      [
        "can",
        -9.413214183869403
      ],
      [
        "▁1980",
        -9.41377227978658
      ],
      [
        "▁access",
        -9.413993883522087
      ],
      [
        "02",
        -9.414429591520516
      ],
      [
        "ica",
        -9.41472292938374
      ],
      [
        "▁(N",
        -9.414838914602134
      ],
      [
        "▁active",
        -9.415036076596268
      ],
      [
        "▁division",
        -9.415150816935357
      ],
      [
        "▁1984",
        -9.415487666980331
      ],
      [
        "▁section",
        -9.416062522100043
      ],
      [
        "ations",
        -9.416193515654054
      ],
      [
        "for",
        -9.416335070398654
      ],
      [
        "▁centre",
        -9.41637214710892
      ],
      [
        "tor",
        -9.417030103321073
      ],
      [
        "▁leader",
        -9.41728100458113
      ],
      [
        "pan",
        -9.417380357199903
      ],
      [
        "27",
        -9.417465796723887
      ],
      [
        "over",
        -9.417483353280906
      ],
      [
        "cc",
        -9.417687557905937
      ],
      [
        "ight",
        -9.417862464539054
      ],
      [
        "▁results",
        -9.418483446054003
      ],
      [
        "▁Ki",
        -9.418672621185186
      ],
      [
        "▁\"the",
        -9.41925397119271
      ],
      [
        "▁edition",
        -9.41973815271683
      ],
      [
        "▁tour",
        -9.42055576921567
      ],
      [
        "▁Director",
        -9.420562915720222
      ],
      [
        "\n|-",
        -9.420856244469933
      ],
      [
        "\n21st-century",
        -9.421584136770209
      ],
      [
        "▁decided",
        -9.42231037571219
      ],
      [
        "▁base",
        -9.422421936879358
      ],
      [
        "art",
        -9.42313571278858
      ],
      [
        "ec",
        -9.423320607519717
      ],
      [
        "▁natural",
        -9.424180135767273
      ],
      [
        "ious",
        -9.424703346123307
      ],
      [
        "ick",
        -9.424798163907433
      ],
      [
        "gar",
        -9.425095599814806
      ],
      [
        "\nFilms",
        -9.427426012098397
      ],
      [
        "88",
        -9.428105145145125
      ],
      [
        "05",
        -9.428211292896616
      ],
      [
        "▁movement",
        -9.428283160102522
      ],
      [
        "▁Bu",
        -9.429849910271603
      ],
      [
        "▁1989",
        -9.430042828404483
      ],
      [
        "▁structure",
        -9.43075969930611
      ],
      [
        "▁focus",
        -9.432913889717879
      ],
      [
        "▁Ku",
        -9.433078567837233
      ],
      [
        "▁40",
        -9.433727712876529
      ],
      [
        "▁states",
        -9.434376621316474
      ],
      [
        "tain",
        -9.434838722225997
      ],
      [
        "ski",
        -9.435203168993606
      ],
      [
        "rather",
        -9.436184537519905
      ],
      [
        "ect",
        -9.436760560696973
      ],
      [
        "▁Bank",
        -9.437407392213492
      ],
      [
        "▁hit",
        -9.438366665133403
      ],
      [
        "▁Greek",
        -9.438501334164028
      ],
      [
        "tri",
        -9.439142123496323
      ],
      [
        "▁attended",
        -9.439996857910705
      ],
      [
        "▁Town",
        -9.44136657041898
      ],
      [
        "01",
        -9.442190668623315
      ],
      [
        "▁producer",
        -9.443277017383096
      ],
      [
        "▁network",
        -9.443485337948125
      ],
      [
        "ator",
        -9.443512536394472
      ],
      [
        "▁cast",
        -9.444105629427174
      ],
      [
        "▁Sun",
        -9.444734330294013
      ],
      [
        "▁singer",
        -9.445435457516744
      ],
      [
        "▁attempt",
        -9.445475091718237
      ],
      [
        "▁Ya",
        -9.445498308652816
      ],
      [
        "▁gold",
        -9.446032677582323
      ],
      [
        "▁Is",
        -9.447680006766664
      ],
      [
        "▁outside",
        -9.448375002058908
      ],
      [
        "lon",
        -9.448512465940395
      ],
      [
        "▁Empire",
        -9.449595866505884
      ],
      [
        "▁Irish",
        -9.449664398273686
      ],
      [
        "lic",
        -9.449874095115392
      ],
      [
        "▁Battle",
        -9.45059505066607
      ],
      [
        "▁\"B",
        -9.451175312106821
      ],
      [
        "▁Joseph",
        -9.451864776914796
      ],
      [
        "▁Parliament",
        -9.45197166192942
      ],
      [
        "Although",
        -9.452029398426122
      ],
      [
        "whose",
        -9.4527250649119
      ],
      [
        "▁instead",
        -9.45415108394347
      ],
      [
        ":\n\n",
        -9.454432308224595
      ],
      [
        "▁previously",
        -9.455508283047324
      ],
      [
        "▁Tour",
        -9.456124550865747
      ],
      [
        "▁1985",
        -9.456137382984828
      ],
      [
        "▁characters",
        -9.45687666661676
      ],
      [
        "ile",
        -9.457050036083166
      ],
      [
        "\nP",
        -9.457357325526427
      ],
      [
        "\nO",
        -9.457677585910295
      ],
      [
        "▁\"A",
        -9.458490210959393
      ],
      [
        "eastern",
        -9.45862278318785
      ],
      [
        "ida",
        -9.459412226458701
      ],
      [
        "▁practice",
        -9.460179209680792
      ],
      [
        "▁families",
        -9.460279283946637
      ],
      [
        "ue",
        -9.460313956733346
      ],
      [
        "▁defeated",
        -9.460327914719814
      ],
      [
        "▁Register",
        -9.460545923524565
      ],
      [
        "▁Old",
        -9.461131274028064
      ],
      [
        "▁met",
        -9.461332043797642
      ],
      [
        "van",
        -9.461484209190175
      ],
      [
        "▁drama",
        -9.461512606384334
      ],
      [
        "northern",
        -9.46186858586483
      ],
      [
        "cu",
        -9.462321937741562
      ],
      [
        "bu",
        -9.462527475902679
      ],
      [
        "▁strong",
        -9.463148313757314
      ],
      [
        "▁Dan",
        -9.463184520570925
      ],
      [
        "of",
        -9.463613830236527
      ],
      [
        "▁collection",
        -9.463708568917653
      ],
      [
        "▁Two",
        -9.463719465010456
      ],
      [
        "▁lower",
        -9.464118236333139
      ],
      [
        "▁musical",
        -9.464446877392838
      ],
      [
        "Z",
        -9.464560702714113
      ],
      [
        "qui",
        -9.464611140192707
      ],
      [
        "▁winning",
        -9.46486652949886
      ],
      [
        "▁Board",
        -9.466256882319401
      ],
      [
        "▁southern",
        -9.46906329810619
      ],
      [
        "▁Congress",
        -9.469145553893432
      ],
      [
        "\nList",
        -9.46940736521134
      ],
      [
        "▁commercial",
        -9.469547934069686
      ],
      [
        "▁Northern",
        -9.469928054852735
      ],
      [
        "▁Sha",
        -9.469947313501722
      ],
      [
        "▁Love",
        -9.47002240455619
      ],
      [
        "bra",
        -9.470298911150646
      ],
      [
        "▁Sp",
        -9.47071661106367
      ],
      [
        "▁Other",
        -9.471282474846786
      ],
      [
        "▁interest",
        -9.471680871017666
      ],
      [
        "lar",
        -9.472122186711644
      ],
      [
        "berg",
        -9.474119036208176
      ],
      [
        "brought",
        -9.474238087457039
      ],
      [
        "▁Second",
        -9.474926331320042
      ],
      [
        "▁behind",
        -9.475251944738774
      ],
      [
        "sia",
        -9.475430902089405
      ],
      [
        "▁sports",
        -9.475723779342617
      ],
      [
        "▁Space",
        -9.475871101315562
      ],
      [
        "▁individual",
        -9.477039358565166
      ],
      [
        "▁M.",
        -9.477281807532503
      ],
      [
        "▁seat",
        -9.477945919181142
      ],
      [
        "mann",
        -9.478129001081781
      ],
      [
        "▁You",
        -9.47883196660741
      ],
      [
        "▁industry",
        -9.478856530868773
      ],
      [
        "07",
        -9.479853721562625
      ],
      [
        "▁Van",
        -9.479872577922825
      ],
      [
        "▁child",
        -9.480155845555423
      ],
      [
        "▁En",
        -9.480912414838599
      ],
      [
        "-A",
        -9.481516179939561
      ],
      [
        "▁Team",
        -9.481634722577116
      ],
      [
        "▁Tri",
        -9.481666893832061
      ],
      [
        "▁Louis",
        -9.482013614793066
      ],
      [
        "95",
        -9.482989878196603
      ],
      [
        ".\n\nEarly",
        -9.483180710028867
      ],
      [
        "▁Assembly",
        -9.483728444189266
      ],
      [
        "▁Wa",
        -9.484143082176303
      ],
      [
        "sch",
        -9.484194972763895
      ],
      [
        "▁love",
        -9.48452675764782
      ],
      [
        "▁Lee",
        -9.484849606193219
      ],
      [
        "▁Lord",
        -9.486777213882904
      ],
      [
        "▁successful",
        -9.487209430665121
      ],
      [
        "▁Tom",
        -9.487543657506839
      ],
      [
        "▁date",
        -9.487774745271595
      ],
      [
        "cre",
        -9.48857132699728
      ],
      [
        "▁primary",
        -9.488700863514683
      ],
      [
        "-B",
        -9.488825515619627
      ],
      [
        "▁beginning",
        -9.489681710819115
      ],
      [
        "▁possible",
        -9.489694631432176
      ],
      [
        "s)",
        -9.489858966194019
      ],
      [
        "yl",
        -9.48995376635715
      ],
      [
        "head",
        -9.49068413068354
      ],
      [
        "22",
        -9.490698693698615
      ],
      [
        "▁Wood",
        -9.491414855342905
      ],
      [
        "▁Za",
        -9.491574772434168
      ],
      [
        "...",
        -9.492826865879744
      ],
      [
        "▁Education",
        -9.49297436641008
      ],
      [
        "ified",
        -9.493120706792846
      ],
      [
        "▁others",
        -9.493293412168006
      ],
      [
        "▁1983",
        -9.49475976782735
      ],
      [
        "▁represented",
        -9.494952894002365
      ],
      [
        "▁magazine",
        -9.495865763732947
      ],
      [
        ").\n",
        -9.49620416360398
      ],
      [
        "shi",
        -9.496249173623054
      ],
      [
        "▁past",
        -9.496530611548167
      ],
      [
        "idae",
        -9.496760534287924
      ],
      [
        "end",
        -9.496870053608774
      ],
      [
        "▁Line",
        -9.49784114593521
      ],
      [
        "og",
        -9.49798634097377
      ],
      [
        "45",
        -9.498066846149818
      ],
      [
        "ku",
        -9.49921188828068
      ],
      [
        "▁Awards",
        -9.499371767020191
      ],
      [
        "▁Land",
        -9.499523746540106
      ],
      [
        "▁defeat",
        -9.500241413932498
      ],
      [
        "tter",
        -9.500680450159225
      ],
      [
        "▁Don",
        -9.501193701296367
      ],
      [
        "▁almost",
        -9.502636457316237
      ],
      [
        "▁Spain",
        -9.503691287071794
      ],
      [
        "▁fact",
        -9.504214035576075
      ],
      [
        "ez",
        -9.504269041395462
      ],
      [
        "▁union",
        -9.504290441059316
      ],
      [
        "▁Mon",
        -9.50486237494273
      ],
      [
        "▁host",
        -9.504955159139936
      ],
      [
        "▁length",
        -9.505197974059712
      ],
      [
        "-based",
        -9.506822719545264
      ],
      [
        "\nE",
        -9.507825506167066
      ],
      [
        "▁census",
        -9.507829242498524
      ],
      [
        "▁regular",
        -9.508714703826687
      ],
      [
        "especially",
        -9.508750501876994
      ],
      [
        "ries",
        -9.50882136582889
      ],
      [
        "▁route",
        -9.509175415516948
      ],
      [
        "\nK",
        -9.509553407582107
      ],
      [
        "▁Series",
        -9.509595091077966
      ],
      [
        "26",
        -9.509805925366342
      ],
      [
        "qu",
        -9.510782887451716
      ],
      [
        "ose",
        -9.51082861043027
      ],
      [
        "let",
        -9.51126229090892
      ],
      [
        "▁battle",
        -9.511420783348616
      ],
      [
        "▁plays",
        -9.512868731431139
      ],
      [
        "▁Public",
        -9.513193859813597
      ],
      [
        "▁1982",
        -9.513711750785854
      ],
      [
        "back",
        -9.513902366714785
      ],
      [
        "▁Research",
        -9.514335960434787
      ],
      [
        "▁summer",
        -9.514673408446217
      ],
      [
        "▁(17",
        -9.51500159255353
      ],
      [
        "▁(E",
        -9.515251588520673
      ],
      [
        "▁Ju",
        -9.516413017831663
      ],
      [
        "von",
        -9.5166661577627
      ],
      [
        "▁Life",
        -9.51904371433131
      ],
      [
        "▁inter",
        -9.519794855778999
      ],
      [
        "her",
        -9.520037131745958
      ],
      [
        "▁closed",
        -9.520538399831544
      ],
      [
        "\nG",
        -9.521080244236918
      ],
      [
        ".\n\nHistory",
        -9.521235602262033
      ],
      [
        "▁island",
        -9.521404324810156
      ],
      [
        "▁traditional",
        -9.521573184066963
      ],
      [
        "▁Tu",
        -9.523233494666938
      ],
      [
        "ris",
        -9.52403436260612
      ],
      [
        "▁Chief",
        -9.524107734859298
      ],
      [
        "res",
        -9.524427175117859
      ],
      [
        "▁Port",
        -9.52445960441392
      ],
      [
        "29",
        -9.524573456560104
      ],
      [
        "▁independent",
        -9.524573465299834
      ],
      [
        "zi",
        -9.524799591936082
      ],
      [
        "▁low",
        -9.524939774107654
      ],
      [
        "▁changed",
        -9.525203301824327
      ],
      [
        "cho",
        -9.526375484291842
      ],
      [
        "▁week",
        -9.526884094911173
      ],
      [
        "▁allowed",
        -9.527020974837157
      ],
      [
        "▁Ru",
        -9.527232048893485
      ],
      [
        "▁studies",
        -9.52746634594311
      ],
      [
        "▁Ab",
        -9.528035449791737
      ],
      [
        "▁food",
        -9.529358527905128
      ],
      [
        "▁1979",
        -9.529501489210828
      ],
      [
        "off",
        -9.52995879641362
      ],
      [
        "▁plan",
        -9.53067724862116
      ],
      [
        ".\n\nC",
        -9.533054183262479
      ],
      [
        "▁Valley",
        -9.533631783231288
      ],
      [
        "tre",
        -9.533786105276082
      ],
      [
        "▁A.",
        -9.534285793849556
      ],
      [
        "pp",
        -9.534740607696694
      ],
      [
        "▁1972",
        -9.534771150152308
      ],
      [
        ".\n\nAfter",
        -9.534796104595927
      ],
      [
        "led",
        -9.534943294889606
      ],
      [
        "35",
        -9.535915410358575
      ],
      [
        "▁my",
        -9.536809512133928
      ],
      [
        "▁significant",
        -9.537360462659832
      ],
      [
        "war",
        -9.53788109243867
      ],
      [
        "▁Cross",
        -9.537933694311626
      ],
      [
        "ura",
        -9.53912361091699
      ],
      [
        "▁But",
        -9.539729587082261
      ],
      [
        "▁runs",
        -9.54104366819251
      ],
      [
        "tz",
        -9.541970483007088
      ],
      [
        "▁Bra",
        -9.543803914125098
      ],
      [
        "▁Home",
        -9.544111413996976
      ],
      [
        "▁taking",
        -9.54461729786546
      ],
      [
        "▁ended",
        -9.5446641902732
      ],
      [
        "▁links\n\n",
        -9.545427043328992
      ],
      [
        "ld",
        -9.546199077283436
      ],
      [
        "▁below",
        -9.548029455565688
      ],
      [
        "gu",
        -9.549391498148756
      ],
      [
        "▁approximately",
        -9.549465342516111
      ],
      [
        "04",
        -9.550167280970713
      ],
      [
        "▁manager",
        -9.550223489873838
      ],
      [
        "▁score",
        -9.550353141898496
      ],
      [
        "▁Young",
        -9.550381184710576
      ],
      [
        "▁matches",
        -9.55075391910434
      ],
      [
        "\n\nS",
        -9.551348255559816
      ],
      [
        "▁create",
        -9.552223200276163
      ],
      [
        "sha",
        -9.552396994118295
      ],
      [
        "ves",
        -9.552724366692805
      ],
      [
        "▁according",
        -9.553283327603406
      ],
      [
        "▁staff",
        -9.55362045083827
      ],
      [
        "▁launched",
        -9.553687087093543
      ],
      [
        "▁face",
        -9.55372491523693
      ],
      [
        "▁systems",
        -9.553803529161508
      ],
      [
        "▁Edward",
        -9.553857360972465
      ],
      [
        "▁F.C.",
        -9.554546609835464
      ],
      [
        "▁Gold",
        -9.554824583465026
      ],
      [
        "▁itself",
        -9.55493650516985
      ],
      [
        "▁Radio",
        -9.555208717752285
      ],
      [
        "▁cases",
        -9.555359291628205
      ],
      [
        "▁woman",
        -9.555847429223107
      ],
      [
        "cal",
        -9.555996636500451
      ],
      [
        "▁officer",
        -9.557186006079787
      ],
      [
        "▁view",
        -9.558714639659248
      ],
      [
        "▁1976",
        -9.559039854421039
      ],
      [
        "▁ca",
        -9.559075151402038
      ],
      [
        "▁Fi",
        -9.55950013075371
      ],
      [
        "rie",
        -9.560331124831428
      ],
      [
        "town",
        -9.560545638765122
      ],
      [
        "ign",
        -9.560981192128262
      ],
      [
        "air",
        -9.561211614307197
      ],
      [
        "\")",
        -9.561881872980965
      ],
      [
        "ual",
        -9.562525037489003
      ],
      [
        "=",
        -9.562550437424552
      ],
      [
        "▁future",
        -9.562594119056513
      ],
      [
        "▁singles",
        -9.564607034939941
      ],
      [
        "▁label",
        -9.565416366177688
      ],
      [
        "▁operations",
        -9.565841999319883
      ],
      [
        "▁standard",
        -9.566023960787595
      ],
      [
        "▁owned",
        -9.56642550633475
      ],
      [
        "|",
        -9.567305614565539
      ],
      [
        "▁1970",
        -9.567733586075494
      ],
      [
        "▁deal",
        -9.567956984340814
      ],
      [
        "▁Sch",
        -9.56813350584914
      ],
      [
        "97",
        -9.56817086046356
      ],
      [
        "▁ever",
        -9.56879142141866
      ],
      [
        "▁1981",
        -9.56924002137116
      ],
      [
        "iz",
        -9.569538698343756
      ],
      [
        "▁opening",
        -9.569680284774622
      ],
      [
        "▁Pat",
        -9.571171532244566
      ],
      [
        "ks",
        -9.571182680759694
      ],
      [
        "▁Civil",
        -9.57195313899752
      ],
      [
        "▁chief",
        -9.57210014294251
      ],
      [
        "▁Times",
        -9.57282763851456
      ],
      [
        "▁vocals",
        -9.573829329917706
      ],
      [
        "lie",
        -9.574120033624231
      ],
      [
        "▁student",
        -9.57412071689902
      ],
      [
        "▁little",
        -9.574234757330178
      ],
      [
        "96",
        -9.5747492674938
      ],
      [
        "▁higher",
        -9.575070879137622
      ],
      [
        "▁required",
        -9.575987138870559
      ],
      [
        "▁Bill",
        -9.576612026392556
      ],
      [
        "▁test",
        -9.577120006110801
      ],
      [
        "ip",
        -9.578125276966123
      ],
      [
        "▁soon",
        -9.578181411306938
      ],
      [
        "▁seasons",
        -9.578584130015695
      ],
      [
        "▁Russia",
        -9.578845490746746
      ],
      [
        "▁army",
        -9.580012728990468
      ],
      [
        "▁Can",
        -9.58041904202362
      ],
      [
        "▁senior",
        -9.580698913094496
      ],
      [
        "▁appearance",
        -9.580807951471039
      ],
      [
        "▁Gar",
        -9.581363276344232
      ],
      [
        "▁Commission",
        -9.58152981018977
      ],
      [
        "\nSt",
        -9.581678681168889
      ],
      [
        "▁economic",
        -9.582398571587047
      ],
      [
        "▁1968",
        -9.58321952820893
      ],
      [
        "▁Pu",
        -9.583747383526429
      ],
      [
        "▁related",
        -9.584406350896046
      ],
      [
        "▁medal",
        -9.585784592813436
      ],
      [
        "vis",
        -9.586058843505734
      ],
      [
        "ros",
        -9.586211238090927
      ],
      [
        "\nI",
        -9.586371991631713
      ],
      [
        "▁Britain",
        -9.586405456770345
      ],
      [
        "▁\"I",
        -9.586748323207587
      ],
      [
        "▁Southern",
        -9.586803408269398
      ],
      [
        "▁red",
        -9.586836192081822
      ],
      [
        "▁money",
        -9.587693127451345
      ],
      [
        "▁Ohio",
        -9.588453388546847
      ],
      [
        "tar",
        -9.589191897817045
      ],
      [
        "▁Railway",
        -9.589327005874676
      ],
      [
        "spent",
        -9.589415955731013
      ],
      [
        "▁legal",
        -9.59003990875692
      ],
      [
        "▁1978",
        -9.590531374357068
      ],
      [
        "cent",
        -9.591258030796883
      ],
      [
        "▁(\"",
        -9.591448065916701
      ],
      [
        "ire",
        -9.592255240385875
      ],
      [
        "tes",
        -9.592490010494137
      ],
      [
        "▁property",
        -9.592524807275126
      ],
      [
        "day",
        -9.59257809968277
      ],
      [
        "▁need",
        -9.592622909514214
      ],
      [
        "▁1974",
        -9.592851689339687
      ],
      [
        "▁III",
        -9.593270740590627
      ],
      [
        "▁Michigan",
        -9.593916220858144
      ],
      [
        "bert",
        -9.594401805110095
      ],
      [
        "-2",
        -9.594913031436716
      ],
      [
        "▁multiple",
        -9.595324618767725
      ],
      [
        "ram",
        -9.595416338760566
      ],
      [
        "mm",
        -9.596204422700323
      ],
      [
        "▁Big",
        -9.596399532035923
      ],
      [
        ".\n\nT",
        -9.596937844313826
      ],
      [
        "▁thought",
        -9.59770230061958
      ],
      [
        "\nMa",
        -9.598182604582075
      ],
      [
        "tion",
        -9.59874501940393
      ],
      [
        "▁cover",
        -9.600491889271462
      ],
      [
        "▁Fort",
        -9.600641930594712
      ],
      [
        "▁Frank",
        -9.6011069565753
      ],
      [
        "▁location",
        -9.60133059094121
      ],
      [
        ".\n\nReferences\n\n",
        -9.601465680886534
      ],
      [
        "06",
        -9.601931051461275
      ],
      [
        "▁lived",
        -9.60204300580958
      ],
      [
        "\nHe",
        -9.602610542138116
      ],
      [
        "▁park",
        -9.603334278420078
      ],
      [
        "▁1945",
        -9.603813802720067
      ],
      [
        "47",
        -9.604016941815084
      ],
      [
        "▁Va",
        -9.604134337608839
      ],
      [
        "▁Asian",
        -9.604827771402954
      ],
      [
        "▁means",
        -9.604948360706697
      ],
      [
        "ological",
        -9.605029610829147
      ],
      [
        "▁genus",
        -9.605450100715546
      ],
      [
        "▁goals",
        -9.606726846246769
      ],
      [
        "istic",
        -9.607208346437963
      ],
      [
        "▁Long",
        -9.607542055249727
      ],
      [
        "89",
        -9.607690472989795
      ],
      [
        "▁parts",
        -9.608349317150127
      ],
      [
        "▁county",
        -9.608613157516132
      ],
      [
        "▁2nd",
        -9.60869282040817
      ],
      [
        "▁cost",
        -9.608735117843493
      ],
      [
        "▁Democratic",
        -9.609723556394496
      ],
      [
        "▁issues",
        -9.610405287438581
      ],
      [
        "▁Jersey",
        -9.610720357668932
      ],
      [
        "▁1975",
        -9.611009979878233
      ],
      [
        "09",
        -9.612108508269438
      ],
      [
        "ding",
        -9.612654392204606
      ],
      [
        "48",
        -9.612753362202925
      ],
      [
        "nda",
        -9.612775294844761
      ],
      [
        "▁Most",
        -9.612929457368608
      ],
      [
        "▁move",
        -9.613489569827996
      ],
      [
        "▁highest",
        -9.614341448952652
      ],
      [
        "03",
        -9.6155321495446
      ],
      [
        "▁Yu",
        -9.616215295097495
      ],
      [
        "tle",
        -9.616263674685227
      ],
      [
        "▁Asia",
        -9.616313410018837
      ],
      [
        "▁contains",
        -9.616353592811306
      ],
      [
        "▁course",
        -9.616772361796267
      ],
      [
        "000",
        -9.617020192295403
      ],
      [
        "gon",
        -9.617118584744828
      ],
      [
        "▁Scotland",
        -9.617789924000176
      ],
      [
        "▁ran",
        -9.617876808224803
      ],
      [
        "av",
        -9.618559350645128
      ],
      [
        "\"\n",
        -9.618704921760843
      ],
      [
        "92",
        -9.619104267518694
      ],
      [
        "▁award",
        -9.619272080442329
      ],
      [
        "▁C.",
        -9.619791867725382
      ],
      [
        "Since",
        -9.619957051226994
      ],
      [
        "▁certain",
        -9.620674861690873
      ],
      [
        "▁Pacific",
        -9.62131365007617
      ],
      [
        "▁(1",
        -9.621735150029627
      ],
      [
        "▁loss",
        -9.62179834080716
      ],
      [
        "era",
        -9.622529539618402
      ],
      [
        "▁1977",
        -9.622753773547943
      ],
      [
        "▁\"a",
        -9.623087440143602
      ],
      [
        "▁Open",
        -9.623185398860134
      ],
      [
        "ero",
        -9.623918034159187
      ],
      [
        "▁3,",
        -9.625041749280314
      ],
      [
        "▁vote",
        -9.625183852104298
      ],
      [
        "▁subject",
        -9.625955605882206
      ],
      [
        "▁decision",
        -9.626063893799614
      ],
      [
        "uc",
        -9.62634911925625
      ],
      [
        "dia",
        -9.626455726981304
      ],
      [
        "▁associated",
        -9.626684730988485
      ],
      [
        "▁material",
        -9.627230210084162
      ],
      [
        "94",
        -9.627292917943628
      ],
      [
        "▁surface",
        -9.627686266762396
      ],
      [
        "▁Dutch",
        -9.6280526059075
      ],
      [
        "▁earlier",
        -9.628613966592914
      ],
      [
        "▁se",
        -9.628678190237279
      ],
      [
        "\n\nReferences\n\n",
        -9.628706602859575
      ],
      [
        "▁broadcast",
        -9.628792757211736
      ],
      [
        "▁feature",
        -9.629791903892041
      ],
      [
        "cher",
        -9.630243091773819
      ],
      [
        "▁running",
        -9.630515206994325
      ],
      [
        "ola",
        -9.630564080203742
      ],
      [
        "▁Vo",
        -9.630737241576956
      ],
      [
        "▁Prince",
        -9.630760318516154
      ],
      [
        "▁activities",
        -9.631244048625598
      ],
      [
        "▁Theatre",
        -9.631560627716274
      ],
      [
        "▁Par",
        -9.631940769855232
      ],
      [
        "▁Cu",
        -9.632091536120523
      ],
      [
        "▁sometimes",
        -9.632597858161326
      ],
      [
        "▁management",
        -9.632804744651157
      ],
      [
        "uff",
        -9.633171204191736
      ],
      [
        "▁(G",
        -9.633415687041554
      ],
      [
        ".\n\nCareer",
        -9.633589116210127
      ],
      [
        "▁department",
        -9.634752891801018
      ],
      [
        "▁train",
        -9.63514107180331
      ],
      [
        "ton,",
        -9.635277071972009
      ],
      [
        "gg",
        -9.635346720198882
      ],
      [
        "ax",
        -9.635880555075262
      ],
      [
        "▁S.",
        -9.635895623025746
      ],
      [
        "▁1973",
        -9.636017049381472
      ],
      [
        "▁generally",
        -9.636590672769184
      ],
      [
        "ren",
        -9.63684213819374
      ],
      [
        "▁thus",
        -9.637551276213664
      ],
      [
        "93",
        -9.637703447412356
      ],
      [
        "▁report",
        -9.637943313357443
      ],
      [
        "▁issue",
        -9.637969335041097
      ],
      [
        "▁Conference",
        -9.63882302983209
      ],
      [
        "▁honor",
        -9.638864612877306
      ],
      [
        "▁Mer",
        -9.63907999580537
      ],
      [
        "75",
        -9.639126150318546
      ],
      [
        "▁(in",
        -9.640066823300737
      ],
      [
        "▁Illinois",
        -9.640949017341264
      ],
      [
        "ize",
        -9.64096524547969
      ],
      [
        "\nW",
        -9.64224160795973
      ],
      [
        "bel",
        -9.642456988127716
      ],
      [
        "▁medical",
        -9.642462615589022
      ],
      [
        "des",
        -9.642840025499375
      ],
      [
        ");",
        -9.643261247139876
      ],
      [
        "▁studied",
        -9.643304304652219
      ],
      [
        "▁years.",
        -9.64332462785398
      ],
      [
        "▁lack",
        -9.643360821361428
      ],
      [
        "▁H.",
        -9.644492503346658
      ],
      [
        "tel",
        -9.644751271059251
      ],
      [
        "▁1971",
        -9.644762407096808
      ],
      [
        "▁professor",
        -9.645090121310352
      ],
      [
        "additional",
        -9.645649494645058
      ],
      [
        "▁look",
        -9.64587178067243
      ],
      [
        "▁entered",
        -9.646885038247305
      ],
      [
        "ability",
        -9.647613206654722
      ],
      [
        "▁Library",
        -9.648981825533127
      ],
      [
        "▁husband",
        -9.649565753394395
      ],
      [
        "▁Places",
        -9.650601268462125
      ],
      [
        "com",
        -9.650993089430811
      ],
      [
        "▁Time",
        -9.651084818295468
      ],
      [
        "act",
        -9.651128440353864
      ],
      [
        "-year",
        -9.651977754624959
      ],
      [
        "▁selected",
        -9.652151462567893
      ],
      [
        "▁response",
        -9.652317110507632
      ],
      [
        "▁victory",
        -9.652454689764705
      ],
      [
        "34",
        -9.653708509001005
      ],
      [
        "now",
        -9.655519135723242
      ],
      [
        "\nAn",
        -9.655739286119058
      ],
      [
        "▁Bur",
        -9.656581446541221
      ],
      [
        "▁(F",
        -9.656872792126956
      ],
      [
        "▁retired",
        -9.656875907009047
      ],
      [
        "▁1969",
        -9.657306313089137
      ],
      [
        "▁Massachusetts",
        -9.65741376808737
      ],
      [
        "\nEnglish",
        -9.658273082402417
      ],
      [
        "▁act",
        -9.658408478001947
      ],
      [
        "▁already",
        -9.659079757244584
      ],
      [
        "▁season.",
        -9.659684446688425
      ],
      [
        "▁Book",
        -9.660904850477515
      ],
      [
        "▁complex",
        -9.66109478452352
      ],
      [
        "86",
        -9.661718266363884
      ],
      [
        "illa",
        -9.662504793319899
      ],
      [
        "▁(R",
        -9.662605367487606
      ],
      [
        "91",
        -9.662874349583154
      ],
      [
        "▁voice",
        -9.662995273855847
      ],
      [
        "▁Ser",
        -9.66362102268864
      ],
      [
        "ng",
        -9.663907940977001
      ],
      [
        "▁increased",
        -9.663970065648805
      ],
      [
        "▁personal",
        -9.664394708430626
      ],
      [
        "▁Mc",
        -9.664634990084572
      ],
      [
        "numerous",
        -9.664918262940875
      ],
      [
        "▁ships",
        -9.665083885410999
      ],
      [
        "▁cut",
        -9.6653058240064
      ],
      [
        "49",
        -9.665389575133474
      ],
      [
        "▁structures",
        -9.66704350779973
      ],
      [
        "▁Health",
        -9.667064962040381
      ],
      [
        "▁annual",
        -9.668850758067961
      ],
      [
        "38",
        -9.6695919916541
      ],
      [
        "▁complete",
        -9.669957544493162
      ],
      [
        "▁Blue",
        -9.670672779185502
      ],
      [
        "▁Kong",
        -9.671138806827994
      ],
      [
        "▁fight",
        -9.671425413224098
      ],
      [
        "▁relative",
        -9.671546370218186
      ],
      [
        "▁engine",
        -9.671570219526235
      ],
      [
        "87",
        -9.671705741447669
      ],
      [
        "ale",
        -9.671771239976488
      ],
      [
        "ear",
        -9.674087086487912
      ],
      [
        "▁Tra",
        -9.674319886157583
      ],
      [
        "▁border",
        -9.675268760963927
      ],
      [
        "▁prevent",
        -9.675316917846022
      ],
      [
        "▁better",
        -9.67595856922969
      ],
      [
        "▁That",
        -9.677466696935737
      ],
      [
        "becoming",
        -9.679060096767927
      ],
      [
        "▁Centre",
        -9.679291196221792
      ],
      [
        "▁western",
        -9.679445697717826
      ],
      [
        ".5",
        -9.679562808228921
      ],
      [
        "▁(I",
        -9.679916649122378
      ],
      [
        "ox",
        -9.680109937963357
      ],
      [
        ".1",
        -9.680783973050326
      ],
      [
        "▁Georgia",
        -9.680922271323796
      ],
      [
        "nie",
        -9.681691929729658
      ],
      [
        "eg",
        -9.682177797507526
      ],
      [
        "▁particular",
        -9.682479029514845
      ],
      [
        "▁1967",
        -9.682949589991958
      ],
      [
        "▁noted",
        -9.683075049820356
      ],
      [
        "▁Under",
        -9.68329974401388
      ],
      [
        "▁sister",
        -9.68489456099304
      ],
      [
        "shire",
        -9.68501631644854
      ],
      [
        "pl",
        -9.68524845394829
      ],
      [
        "▁civil",
        -9.685323025616247
      ],
      [
        "▁Jack",
        -9.685726790517336
      ],
      [
        "▁championship",
        -9.685824093829499
      ],
      [
        "44",
        -9.685961579678457
      ],
      [
        "▁Jewish",
        -9.68599826936978
      ],
      [
        "▁FC",
        -9.686265307830151
      ],
      [
        "▁king",
        -9.686985077502234
      ],
      [
        "ew",
        -9.688065620537479
      ],
      [
        "▁Jan",
        -9.688300759867415
      ],
      [
        "▁Ber",
        -9.688635129140124
      ],
      [
        "▁1964",
        -9.688652911424102
      ],
      [
        "▁evidence",
        -9.68912933012329
      ],
      [
        "▁competed",
        -9.689914648634746
      ],
      [
        "▁operated",
        -9.69040705684839
      ],
      [
        "▁hard",
        -9.690600200454323
      ],
      [
        "nia",
        -9.690695138012245
      ],
      [
        "▁Jones",
        -9.690891558659398
      ],
      [
        "gue",
        -9.690957063674617
      ],
      [
        "▁majority",
        -9.69138918616565
      ],
      [
        "▁relationship",
        -9.691836933191736
      ],
      [
        "▁Maria",
        -9.69197385220544
      ],
      [
        "▁federal",
        -9.691999508842851
      ],
      [
        "▁Francisco",
        -9.692807566624625
      ],
      [
        "▁meet",
        -9.693549816793915
      ],
      [
        "▁religious",
        -9.693617599622115
      ],
      [
        "▁co-",
        -9.694503689397296
      ],
      [
        "light",
        -9.6945314841442
      ],
      [
        "▁pay",
        -9.694693992785275
      ],
      [
        "▁account",
        -9.695062569055965
      ],
      [
        "▁Dr.",
        -9.695551887683095
      ],
      [
        "ification",
        -9.695633380178638
      ],
      [
        "▁nine",
        -9.69564213107706
      ],
      [
        "▁Night",
        -9.69608899515169
      ],
      [
        "▁Journal",
        -9.69640866027658
      ],
      [
        "▁Scottish",
        -9.696435972660014
      ],
      [
        ".\n\nP",
        -9.696495828798483
      ],
      [
        "▁Er",
        -9.697940093537202
      ],
      [
        "▁friend",
        -9.697957274064489
      ],
      [
        "55",
        -9.697988185717472
      ],
      [
        "ple",
        -9.698481799819103
      ],
      [
        "▁Boston",
        -9.698538314679926
      ],
      [
        "▁clear",
        -9.698943752369704
      ],
      [
        "▁elections",
        -9.699206111727662
      ],
      [
        "▁Val",
        -9.699247381806941
      ],
      [
        "▁1960",
        -9.699270229524815
      ],
      [
        "\n\nC",
        -9.699332677395839
      ],
      [
        "\nRe",
        -9.699895593373137
      ],
      [
        "▁footballer",
        -9.701548073903604
      ],
      [
        ".\n\nIt",
        -9.701655939712504
      ],
      [
        "ette",
        -9.702658854637555
      ],
      [
        "▁comedy",
        -9.703140640837264
      ],
      [
        "▁direct",
        -9.703705364124197
      ],
      [
        "▁politicians",
        -9.704209155641124
      ],
      [
        "▁(L",
        -9.704796562572756
      ],
      [
        "▁give",
        -9.704802048989567
      ],
      [
        "▁municipality",
        -9.705002235291309
      ],
      [
        "▁table",
        -9.705131889983221
      ],
      [
        "▁prior",
        -9.70576007617275
      ],
      [
        "78",
        -9.706192685152491
      ],
      [
        "▁del",
        -9.70624401860158
      ],
      [
        "▁expatriate",
        -9.706871968026094
      ],
      [
        "▁Office",
        -9.707159680785676
      ],
      [
        "▁executive",
        -9.707917885628705
      ],
      [
        "▁Foundation",
        -9.708073141598828
      ],
      [
        "▁approach",
        -9.708292361250061
      ],
      [
        "▁financial",
        -9.708630009409948
      ],
      [
        "37",
        -9.709809154288827
      ],
      [
        "▁entire",
        -9.709854156545351
      ],
      [
        "42",
        -9.709899228495523
      ],
      [
        "▁changes",
        -9.70999551658942
      ],
      [
        "ash",
        -9.710261171129877
      ],
      [
        "▁W.",
        -9.710361084214716
      ],
      [
        "bin",
        -9.71055441141752
      ],
      [
        "▁word",
        -9.710614713571562
      ],
      [
        "▁Ch",
        -9.710717094119547
      ],
      [
        "▁review",
        -9.710943698560197
      ],
      [
        "79",
        -9.710953088141714
      ],
      [
        "▁Cat",
        -9.711248324075052
      ],
      [
        "▁bi",
        -9.711780693574692
      ],
      [
        "top",
        -9.71209344670731
      ],
      [
        "▁Ve",
        -9.712740413286504
      ],
      [
        "man,",
        -9.71311440767955
      ],
      [
        "burg",
        -9.713808859405217
      ],
      [
        "▁sound",
        -9.714198710470605
      ],
      [
        "65",
        -9.715255782925938
      ],
      [
        "stone",
        -9.715495093929263
      ],
      [
        "▁serving",
        -9.715644114339971
      ],
      [
        "ray",
        -9.715958121941485
      ],
      [
        "▁recording",
        -9.716023744250968
      ],
      [
        "▁university",
        -9.716510264616776
      ],
      [
        "▁terms",
        -9.716764687123197
      ],
      [
        "▁Station",
        -9.717131849954626
      ],
      [
        "39",
        -9.717226563642754
      ],
      [
        "▁Columbia",
        -9.717507454239641
      ],
      [
        "▁3:",
        -9.71770781495722
      ],
      [
        "▁Fu",
        -9.717940854072317
      ],
      [
        "▁produce",
        -9.718357486745868
      ],
      [
        "var",
        -9.71887758207247
      ],
      [
        "▁Oxford",
        -9.719876550155448
      ],
      [
        "▁status",
        -9.720439459962655
      ],
      [
        "▁limited",
        -9.720905980141582
      ],
      [
        "▁editor",
        -9.72109984897183
      ],
      [
        "net",
        -9.721119603384068
      ],
      [
        "ju",
        -9.721218473508598
      ],
      [
        "▁key",
        -9.721459305974193
      ],
      [
        "▁Bal",
        -9.722082668021187
      ],
      [
        "mor",
        -9.72219503345614
      ],
      [
        "initially",
        -9.722390911052338
      ],
      [
        "▁hockey",
        -9.722426644886646
      ],
      [
        "▁passed",
        -9.722948132971796
      ],
      [
        "▁minor",
        -9.723178443746447
      ],
      [
        "▁coast",
        -9.723252440055273
      ],
      [
        "▁computer",
        -9.72343325594748
      ],
      [
        "▁join",
        -9.72359082211329
      ],
      [
        "▁income",
        -9.723879603754465
      ],
      [
        "▁Creek",
        -9.724315800594908
      ],
      [
        "▁Eastern",
        -9.72487268251078
      ],
      [
        "▁Corps",
        -9.724943339322781
      ],
      [
        "84",
        -9.725565359051227
      ],
      [
        "%",
        -9.726536270339764
      ],
      [
        "▁actors",
        -9.72659980049838
      ],
      [
        "men's",
        -9.72726009024694
      ],
      [
        "ised",
        -9.72783855749798
      ],
      [
        "az",
        -9.72788209113499
      ],
      [
        "▁Middle",
        -9.728058170775256
      ],
      [
        "▁Q",
        -9.728142119026472
      ],
      [
        "▁#",
        -9.728360466408605
      ],
      [
        "▁speed",
        -9.728411597548472
      ],
      [
        "81",
        -9.72846446191048
      ],
      [
        "▁names",
        -9.72862252284562
      ],
      [
        "▁Kar",
        -9.728633519346873
      ],
      [
        "▁Queen",
        -9.729691676082018
      ],
      [
        "oth",
        -9.730053274844705
      ],
      [
        "caused",
        -9.730935584160642
      ],
      [
        "▁Field",
        -9.731328067615435
      ],
      [
        "46",
        -9.731774177058071
      ],
      [
        "▁hours",
        -9.732029538562582
      ],
      [
        "▁meeting",
        -9.733040654649084
      ],
      [
        "▁communities",
        -9.733133584979102
      ],
      [
        "▁rate",
        -9.733271595391956
      ],
      [
        "▁famous",
        -9.733434840839942
      ],
      [
        "▁Its",
        -9.733700610207972
      ],
      [
        "▁R.",
        -9.734004869745291
      ],
      [
        "▁example",
        -9.735960014162314
      ],
      [
        "▁enter",
        -9.736929038120447
      ],
      [
        "▁native",
        -9.73693934957106
      ],
      [
        "▁minutes",
        -9.737075726461661
      ],
      [
        "+",
        -9.738560041656397
      ],
      [
        "ible",
        -9.738605185500246
      ],
      [
        "▁effect",
        -9.738965012063739
      ],
      [
        "▁Far",
        -9.73897520400121
      ],
      [
        "▁Coast",
        -9.739081026222504
      ],
      [
        "▁Governor",
        -9.739083306503481
      ],
      [
        "mit",
        -9.739136542689952
      ],
      [
        "ban",
        -9.739389040747518
      ],
      [
        "▁function",
        -9.73947865336274
      ],
      [
        "pin",
        -9.73951911341174
      ],
      [
        "▁tell",
        -9.739569568311477
      ],
      [
        "▁1965",
        -9.74016528031928
      ],
      [
        "pet",
        -9.740434033870452
      ],
      [
        "▁remains",
        -9.740479487220199
      ],
      [
        "▁Ram",
        -9.740493218872125
      ],
      [
        "ore",
        -9.740592838540612
      ],
      [
        "\nMembers",
        -9.741044940642846
      ],
      [
        "▁policy",
        -9.741868757603045
      ],
      [
        "▁self-",
        -9.74235073554012
      ],
      [
        "▁murder",
        -9.74310391955915
      ],
      [
        "▁Johnson",
        -9.743719684552108
      ],
      [
        "▁influence",
        -9.74405111895978
      ],
      [
        "ble",
        -9.744123161401086
      ],
      [
        "▁claimed",
        -9.744377725873765
      ],
      [
        "77",
        -9.744591846225886
      ],
      [
        "36",
        -9.74483503650153
      ],
      [
        "▁bank",
        -9.745664370427752
      ],
      [
        "82",
        -9.745717810229817
      ],
      [
        "▁programs",
        -9.74576679380681
      ],
      [
        "▁council",
        -9.745948929517468
      ],
      [
        "▁1966",
        -9.746333077709805
      ],
      [
        "▁energy",
        -9.746615105992968
      ],
      [
        "cus",
        -9.746667294458016
      ],
      [
        "vent",
        -9.746718428797317
      ],
      [
        "▁increase",
        -9.747062387212418
      ],
      [
        "83",
        -9.747755059620395
      ],
      [
        "▁re-",
        -9.747821695049876
      ],
      [
        "):",
        -9.748039720513265
      ],
      [
        "▁shown",
        -9.74850091802387
      ],
      [
        "▁4,",
        -9.748596498195917
      ],
      [
        "ers,",
        -9.74865101400259
      ],
      [
        "▁Water",
        -9.748672402610591
      ],
      [
        "hat",
        -9.749178610097902
      ],
      [
        "\nD",
        -9.749961941916366
      ],
      [
        "wan",
        -9.75002011009716
      ],
      [
        "▁Hospital",
        -9.750125628658624
      ],
      [
        "▁going",
        -9.750799805431987
      ],
      [
        "▁Show",
        -9.751479300762561
      ],
      [
        "▁bass",
        -9.75163242606449
      ],
      [
        "▁star",
        -9.752036662510758
      ],
      [
        "▁theory",
        -9.752144705505257
      ],
      [
        "tur",
        -9.752390267242575
      ],
      [
        "▁Latin",
        -9.752630574743021
      ],
      [
        "▁peak",
        -9.752836766711864
      ],
      [
        "▁uses",
        -9.753434774860995
      ],
      [
        "▁cause",
        -9.753795167231234
      ],
      [
        "31",
        -9.753825821721275
      ],
      [
        "▁li",
        -9.753985011705657
      ],
      [
        "▁supported",
        -9.754489701677954
      ],
      [
        "▁(20",
        -9.754498872564128
      ],
      [
        "▁Williams",
        -9.755097446448623
      ],
      [
        "los",
        -9.755212994351817
      ],
      [
        "▁chart",
        -9.755501609344453
      ],
      [
        "referred",
        -9.755618153895215
      ],
      [
        "▁Women's",
        -9.756576875529186
      ],
      [
        "▁subsequently",
        -9.756615099001035
      ],
      [
        "kar",
        -9.756935268286577
      ],
      [
        "particularly",
        -9.757979502082446
      ],
      [
        "▁raised",
        -9.758310471095403
      ],
      [
        "▁mostly",
        -9.758804436377352
      ],
      [
        "▁pick",
        -9.759231198253596
      ],
      [
        "▁presented",
        -9.759310560759245
      ],
      [
        "▁firm",
        -9.759695244603016
      ],
      [
        "ments",
        -9.75977593770163
      ],
      [
        "▁overall",
        -9.75985773730574
      ],
      [
        "▁transport",
        -9.759980484362387
      ],
      [
        "more",
        -9.760017044180428
      ],
      [
        "▁1944",
        -9.760290694675932
      ],
      [
        "▁Scott",
        -9.760508224217263
      ],
      [
        "▁Win",
        -9.761062712614146
      ],
      [
        "▁marriage",
        -9.76122378769564
      ],
      [
        "▁CD",
        -9.762030599865874
      ],
      [
        "▁academic",
        -9.762603933656125
      ],
      [
        "▁meaning",
        -9.7627515299515
      ],
      [
        "▁call",
        -9.763163808646071
      ],
      [
        "43",
        -9.763192509256688
      ],
      [
        "▁foreign",
        -9.763522509854651
      ],
      [
        "▁Olympic",
        -9.764063219881274
      ],
      [
        "kh",
        -9.76411137778853
      ],
      [
        "▁source",
        -9.764151453746281
      ],
      [
        "ric",
        -9.764199482918617
      ],
      [
        "▁Good",
        -9.764683414137181
      ],
      [
        "win",
        -9.766088602856916
      ],
      [
        "▁Bel",
        -9.766140162555441
      ],
      [
        "▁reading",
        -9.766233555439864
      ],
      [
        "len",
        -9.766434342824942
      ],
      [
        "▁month",
        -9.76677205964298
      ],
      [
        "▁technology",
        -9.76755133052523
      ],
      [
        "▁\"P",
        -9.767571238610214
      ],
      [
        "▁historical",
        -9.7677018504246
      ],
      [
        "▁Jean",
        -9.767946198373004
      ],
      [
        "\nNational",
        -9.768595392659062
      ],
      [
        "cor",
        -9.768903135491204
      ],
      [
        "▁descent",
        -9.769037085629467
      ],
      [
        "▁metal",
        -9.769535725178669
      ],
      [
        "king",
        -9.76975295505093
      ],
      [
        "▁tax",
        -9.769932972370675
      ],
      [
        "gal",
        -9.770135112154403
      ],
      [
        "aya",
        -9.77047876025648
      ],
      [
        "eth",
        -9.770587074963661
      ],
      [
        "ory",
        -9.770915543296898
      ],
      [
        "oma",
        -9.770990078055002
      ],
      [
        "и",
        -9.77115861534953
      ],
      [
        "son,",
        -9.77176318046853
      ],
      [
        "featuring",
        -9.771921760990171
      ],
      [
        "-P",
        -9.772454383073713
      ],
      [
        "▁officers",
        -9.772484073493693
      ],
      [
        "▁clubs",
        -9.772670197358364
      ],
      [
        "-D",
        -9.773085998856962
      ],
      [
        "▁concept",
        -9.77362075574092
      ],
      [
        "▁Hong",
        -9.773825940186255
      ],
      [
        "earned",
        -9.773896936700819
      ],
      [
        "\n\nB",
        -9.774124384199576
      ],
      [
        "▁room",
        -9.77413356004833
      ],
      [
        "▁longer",
        -9.774166081223258
      ],
      [
        "▁E.",
        -9.774321922155401
      ],
      [
        "▁stop",
        -9.774378446587177
      ],
      [
        "▁Berlin",
        -9.774896077286161
      ],
      [
        "hal",
        -9.775152641649823
      ],
      [
        "▁Israel",
        -9.775243087527302
      ],
      [
        "▁Polish",
        -9.775463828433223
      ],
      [
        "85",
        -9.775718727876969
      ],
      [
        "▁regional",
        -9.776066336397284
      ],
      [
        "rum",
        -9.776148729919425
      ],
      [
        "▁da",
        -9.776266392550655
      ],
      [
        "▁Inter",
        -9.77683664664005
      ],
      [
        "▁separate",
        -9.776996080680147
      ],
      [
        "▁Major",
        -9.777242749512846
      ],
      [
        "▁Regiment",
        -9.778325076301956
      ],
      [
        "▁Pen",
        -9.77899024117049
      ],
      [
        "▁Bridge",
        -9.779447779422261
      ],
      [
        "wer",
        -9.779513666533633
      ],
      [
        "▁Alexander",
        -9.78055831974517
      ],
      [
        "ock",
        -9.781620094297761
      ],
      [
        "▁(K",
        -9.7825663398176
      ],
      [
        "▁Victoria",
        -9.782751224842933
      ],
      [
        "▁appears",
        -9.783906418692718
      ],
      [
        "▁color",
        -9.783967124324922
      ],
      [
        "eng",
        -9.784072442763222
      ],
      [
        "▁personnel",
        -9.784496684946925
      ],
      [
        "▁bus",
        -9.785917641684769
      ],
      [
        "ull",
        -9.786112010455597
      ],
      [
        "▁(2",
        -9.786895316093336
      ],
      [
        "▁Post",
        -9.787032207309938
      ],
      [
        "▁hospital",
        -9.788652924019287
      ],
      [
        "▁got",
        -9.788747437018815
      ],
      [
        "▁movie",
        -9.788878403310543
      ],
      [
        "▁winner",
        -9.789132062770042
      ],
      [
        "rit",
        -9.789152173041499
      ],
      [
        "▁Official",
        -9.789578119274392
      ],
      [
        "oli",
        -9.789809595508997
      ],
      [
        "▁Premier",
        -9.790375915423349
      ],
      [
        "▁Senate",
        -9.790625788841977
      ],
      [
        "▁Ban",
        -9.791249517346257
      ],
      [
        "▁larger",
        -9.791268224940708
      ],
      [
        "▁leaving",
        -9.791688688465234
      ],
      [
        "▁Joe",
        -9.791808747717138
      ],
      [
        "\nYear",
        -9.791850545175235
      ],
      [
        "▁failed",
        -9.79204700012112
      ],
      [
        "59",
        -9.792113267852939
      ],
      [
        "71",
        -9.792533874217874
      ],
      [
        "▁composed",
        -9.79317333826972
      ],
      [
        "▁crew",
        -9.793376652901925
      ],
      [
        "▁care",
        -9.793483539382553
      ],
      [
        "▁parents",
        -9.793507491289498
      ],
      [
        "lla",
        -9.793752796481778
      ],
      [
        "▁seem",
        -9.794067168914319
      ],
      [
        "▁actress",
        -9.794202479239244
      ],
      [
        "68",
        -9.794852769734751
      ],
      [
        "\n\nA",
        -9.79503826296081
      ],
      [
        "del",
        -9.79541602222688
      ],
      [
        "33",
        -9.797100062664462
      ],
      [
        "▁association",
        -9.797116348207927
      ],
      [
        "▁believed",
        -9.797124900007415
      ],
      [
        "▁mo",
        -9.797516186175942
      ],
      [
        "▁acquired",
        -9.79755725327569
      ],
      [
        "\nBritish",
        -9.79771237623727
      ],
      [
        "▁Press",
        -9.797999320411792
      ],
      [
        "▁Later",
        -9.798098413480883
      ],
      [
        ".\n\nF",
        -9.798530608488017
      ],
      [
        "▁Top",
        -9.798548748960622
      ],
      [
        "▁square",
        -9.798578424653476
      ],
      [
        "ball",
        -9.79950651645376
      ],
      [
        "▁Little",
        -9.799506701311083
      ],
      [
        "s\nAmerican",
        -9.80036654005907
      ],
      [
        "▁Earth",
        -9.800370189652838
      ],
      [
        "▁themselves",
        -9.80072267350113
      ],
      [
        "▁van",
        -9.800985590817572
      ],
      [
        "\nDe",
        -9.801893795549864
      ],
      [
        "73",
        -9.801920041369025
      ],
      [
        "▁weeks",
        -9.802283112093258
      ],
      [
        "▁Korea",
        -9.802289068930241
      ],
      [
        "32",
        -9.802351540286763
      ],
      [
        "ston",
        -9.802367097075953
      ],
      [
        "▁Up",
        -9.802485734219967
      ],
      [
        "ography",
        -9.802899730146851
      ],
      [
        "▁code",
        -9.804866636640426
      ],
      [
        "▁Mal",
        -9.805561029224245
      ],
      [
        "nny",
        -9.805593682148503
      ],
      [
        "64",
        -9.805747742833042
      ],
      [
        "are",
        -9.806155085162699
      ],
      [
        "▁appear",
        -9.807317703225447
      ],
      [
        "▁faculty",
        -9.807616441487042
      ],
      [
        "▁break",
        -9.808219077128081
      ],
      [
        "▁middle",
        -9.80846675545479
      ],
      [
        "ala",
        -9.809548559339547
      ],
      [
        "▁remaining",
        -9.811411447945394
      ],
      [
        "▁youth",
        -9.811695756127373
      ],
      [
        "▁lines",
        -9.812045949931859
      ],
      [
        "▁amount",
        -9.812471824196827
      ],
      [
        "▁ice",
        -9.812885954004825
      ],
      [
        "▁\"T",
        -9.812957162678694
      ],
      [
        "ever",
        -9.813137486427056
      ],
      [
        "51",
        -9.813430850301561
      ],
      [
        "▁cities",
        -9.814132786160775
      ],
      [
        "▁try",
        -9.814172825256742
      ],
      [
        "▁Secretary",
        -9.814329802095678
      ],
      [
        "▁carried",
        -9.814496666278176
      ],
      [
        "▁super",
        -9.816426940274587
      ],
      [
        "▁pass",
        -9.816443361508549
      ],
      [
        "▁appearances",
        -9.816588579193105
      ],
      [
        "▁Fo",
        -9.817375520976675
      ],
      [
        "▁example,",
        -9.817549962861824
      ],
      [
        "▁Rome",
        -9.817778340208088
      ],
      [
        "▁If",
        -9.818352300574137
      ],
      [
        "72",
        -9.818556626926128
      ],
      [
        "par",
        -9.818964628278373
      ],
      [
        "▁article",
        -9.819666959938914
      ],
      [
        "▁Jr.",
        -9.819988660628901
      ],
      [
        "nic",
        -9.820016919840137
      ],
      [
        "iya",
        -9.82032697045306
      ],
      [
        "▁Tar",
        -9.820368177260631
      ],
      [
        "▁1963",
        -9.820574025088929
      ],
      [
        "xi",
        -9.82087276464587
      ],
      [
        "ord",
        -9.822032599053468
      ],
      [
        "▁sh",
        -9.82212571942464
      ],
      [
        "▁experience",
        -9.822128402473094
      ],
      [
        "57",
        -9.822180284141291
      ],
      [
        "▁Daniel",
        -9.822381118533782
      ],
      [
        "▁floor",
        -9.823326536962755
      ],
      [
        "▁today",
        -9.823895966693167
      ],
      [
        "lum",
        -9.824393206737815
      ],
      [
        "ula",
        -9.824422278050505
      ],
      [
        "56",
        -9.82484708591014
      ],
      [
        "▁Andrew",
        -9.82508679827651
      ],
      [
        "▁interview",
        -9.825211977921201
      ],
      [
        "▁society",
        -9.825255224525435
      ],
      [
        "▁Development",
        -9.825593942758406
      ],
      [
        "\nAl",
        -9.825656299564741
      ],
      [
        "▁newspaper",
        -9.825726866482505
      ],
      [
        "▁1962",
        -9.82573331589821
      ],
      [
        "▁Dis",
        -9.825812636506628
      ],
      [
        "▁potential",
        -9.826734977263554
      ],
      [
        "▁baseball",
        -9.827206098497713
      ],
      [
        "▁Prize",
        -9.827800911913672
      ],
      [
        "▁ma",
        -9.827801646124827
      ],
      [
        "forced",
        -9.828094594536545
      ],
      [
        "ique",
        -9.828165980792177
      ],
      [
        "▁troops",
        -9.828320911796327
      ],
      [
        "\"\n|",
        -9.828421681732134
      ],
      [
        "▁province",
        -9.828507437821452
      ],
      [
        "ug",
        -9.828596723154922
      ],
      [
        "pro",
        -9.828603560592555
      ],
      [
        "▁bridge",
        -9.828682286312286
      ],
      [
        "▁latter",
        -9.829294149425357
      ],
      [
        "▁offered",
        -9.831255454723149
      ],
      [
        "▁1942",
        -9.831786249484397
      ],
      [
        "▁Part",
        -9.831794481114967
      ],
      [
        "uck",
        -9.831838328511754
      ],
      [
        "▁proposed",
        -9.832049154288935
      ],
      [
        "ery",
        -9.83232575365267
      ],
      [
        "▁promoted",
        -9.832361441819193
      ],
      [
        "▁always",
        -9.832415351048166
      ],
      [
        "▁des",
        -9.832491887258133
      ],
      [
        "▁Ci",
        -9.83271563879702
      ],
      [
        "▁Game",
        -9.833052199772617
      ],
      [
        "▁\"C",
        -9.833818601616622
      ],
      [
        "54",
        -9.833878241026952
      ],
      [
        "▁Justice",
        -9.834596553317358
      ],
      [
        "-up",
        -9.834605636862628
      ],
      [
        "▁variety",
        -9.83472526070668
      ],
      [
        "hy",
        -9.834737596841741
      ],
      [
        "ets",
        -9.835426503619809
      ],
      [
        "6\n|",
        -9.835518270498365
      ],
      [
        "▁Korean",
        -9.835805007412562
      ],
      [
        "ith",
        -9.836304910689952
      ],
      [
        "▁organizations",
        -9.836540911576263
      ],
      [
        "▁operation",
        -9.836874284873867
      ],
      [
        "▁Special",
        -9.837799328087451
      ],
      [
        "\nNew",
        -9.837939940542645
      ],
      [
        "ral",
        -9.83852271921785
      ],
      [
        "ami",
        -9.838620464559998
      ],
      [
        "aka",
        -9.839000366327737
      ],
      [
        "▁oil",
        -9.839111856068227
      ],
      [
        "ade",
        -9.839209724459113
      ],
      [
        "mal",
        -9.839361671039718
      ],
      [
        "▁assistant",
        -9.839447148243142
      ],
      [
        "▁block",
        -9.839484826092399
      ],
      [
        "ome",
        -9.839966540348204
      ],
      [
        "▁Shi",
        -9.840061050925984
      ],
      [
        "-C",
        -9.841049967946164
      ],
      [
        "▁Police",
        -9.841453734048159
      ],
      [
        "▁Mad",
        -9.841849449142153
      ],
      [
        "▁regard",
        -9.841942194535246
      ],
      [
        "▁Bishop",
        -9.842031791243778
      ],
      [
        "▁Band",
        -9.842633952005038
      ],
      [
        "▁value",
        -9.843431363471637
      ],
      [
        "▁Poland",
        -9.843735431395368
      ],
      [
        "my",
        -9.844341634433697
      ],
      [
        ")\n\n",
        -9.844514015576346
      ],
      [
        "▁Medal",
        -9.844635459432542
      ],
      [
        ".2",
        -9.845001726126197
      ],
      [
        "▁know",
        -9.845100342597961
      ],
      [
        "use",
        -9.846639094131222
      ],
      [
        "ken",
        -9.847175751169553
      ],
      [
        "▁mis",
        -9.847423842932725
      ],
      [
        "yan",
        -9.847503364113487
      ],
      [
        "tha",
        -9.847611467021737
      ],
      [
        "rick",
        -9.847680617726084
      ],
      [
        "▁Gra",
        -9.848140697615214
      ],
      [
        "▁finish",
        -9.84816701381201
      ],
      [
        "▁keep",
        -9.84822826755917
      ],
      [
        "▁Boy",
        -9.848715888953528
      ],
      [
        "▁cell",
        -9.849343007410546
      ],
      [
        "lor",
        -9.849541005457189
      ],
      [
        "▁direction",
        -9.849866709899345
      ],
      [
        "▁gun",
        -9.850153403970472
      ],
      [
        "▁cultural",
        -9.850179609093772
      ],
      [
        "▁founder",
        -9.850303827749778
      ],
      [
        "▁online",
        -9.850628955554976
      ],
      [
        "▁com",
        -9.850681745846932
      ],
      [
        "▁B.",
        -9.85073951867473
      ],
      [
        "s;",
        -9.85128570368711
      ],
      [
        "ux",
        -9.851307532645462
      ],
      [
        "\n\nFurther",
        -9.851781365679326
      ],
      [
        "ich",
        -9.852438331179238
      ],
      [
        "▁Airport",
        -9.852538214305135
      ],
      [
        "\nAssociation",
        -9.852629092584161
      ],
      [
        "might",
        -9.852796998901148
      ],
      [
        "ali",
        -9.853518655569275
      ],
      [
        "▁brief",
        -9.854247305339051
      ],
      [
        "▁positive",
        -9.854559631062052
      ],
      [
        ")\n|",
        -9.854736985680242
      ],
      [
        "ib",
        -9.854961309495645
      ],
      [
        "▁Will",
        -9.855261935795278
      ],
      [
        "▁Peak",
        -9.855392853314267
      ],
      [
        "▁BBC",
        -9.855878845408768
      ],
      [
        "▁text",
        -9.85601416135319
      ],
      [
        "▁Of",
        -9.856293611632601
      ],
      [
        "▁Dar",
        -9.8567493212227
      ],
      [
        "▁cur",
        -9.85702433810704
      ],
      [
        "ole",
        -9.857077244301689
      ],
      [
        "▁rule",
        -9.857658105375956
      ],
      [
        "▁draw",
        -9.857814981556128
      ],
      [
        "▁Prime",
        -9.858346139621698
      ],
      [
        "▁gas",
        -9.858954884094736
      ],
      [
        "▁dance",
        -9.859494657503708
      ],
      [
        "▁graduated",
        -9.859655663420575
      ],
      [
        "▁poet",
        -9.859659167783429
      ],
      [
        "▁Pol",
        -9.859979199912575
      ],
      [
        "tta",
        -9.860129101705834
      ],
      [
        "▁specific",
        -9.860442175102829
      ],
      [
        "▁stone",
        -9.860854744029153
      ],
      [
        "▁Sydney",
        -9.861314740632931
      ],
      [
        "old",
        -9.862439062130083
      ],
      [
        "ction",
        -9.862608523478128
      ],
      [
        "▁master",
        -9.862654785127472
      ],
      [
        "▁Republican",
        -9.862894264055683
      ],
      [
        "53",
        -9.863205526417033
      ],
      [
        "▁Press,",
        -9.86333944228905
      ],
      [
        "▁Hol",
        -9.863424079836191
      ],
      [
        "despite",
        -9.863727479065506
      ],
      [
        "▁Mel",
        -9.86390602657923
      ],
      [
        "lit",
        -9.86400984794659
      ],
      [
        "▁format",
        -9.864037965571232
      ],
      [
        "die",
        -9.864227256542783
      ],
      [
        "▁candidate",
        -9.86435047845991
      ],
      [
        "▁silver",
        -9.865005076071764
      ],
      [
        "▁mass",
        -9.865672513847386
      ],
      [
        "▁Cambridge",
        -9.865894780195132
      ],
      [
        "▁(W",
        -9.866241500373265
      ],
      [
        "▁1948",
        -9.866364190587735
      ],
      [
        "▁deep",
        -9.866465841130937
      ],
      [
        "▁Hi",
        -9.866720659053422
      ],
      [
        "▁fall",
        -9.866826464996933
      ],
      [
        "\t",
        -9.866862779938073
      ],
      [
        "-T",
        -9.867297462101497
      ],
      [
        "dar",
        -9.867510356499459
      ],
      [
        "▁paper",
        -9.868252554152287
      ],
      [
        "▁Bell",
        -9.86847371980965
      ],
      [
        "▁Over",
        -9.868784498800315
      ],
      [
        ".\"\n",
        -9.868815623222343
      ],
      [
        "▁done",
        -9.86920938225913
      ],
      [
        "bl",
        -9.86943602502926
      ],
      [
        "▁ob",
        -9.869495683637934
      ],
      [
        "▁Sta",
        -9.86956522448274
      ],
      [
        "▁Ontario",
        -9.869590530856883
      ],
      [
        "▁whole",
        -9.86989155738341
      ],
      [
        "52",
        -9.870207926936178
      ],
      [
        "▁$1",
        -9.870767579362719
      ],
      [
        "▁estate",
        -9.870876286305329
      ],
      [
        "▁want",
        -9.871164082815703
      ],
      [
        "\nUniversity",
        -9.871179485629678
      ],
      [
        "▁awards",
        -9.871223688689556
      ],
      [
        "gy",
        -9.87123844096024
      ],
      [
        "▁parties",
        -9.871293591264484
      ],
      [
        "▁1961",
        -9.87133541536394
      ],
      [
        "▁1943",
        -9.87171668634522
      ],
      [
        "▁administrative",
        -9.87219355246021
      ],
      [
        "▁200",
        -9.872585007261542
      ],
      [
        "▁Ol",
        -9.87283074217479
      ],
      [
        "water",
        -9.873316833620494
      ],
      [
        "▁conference",
        -9.873476404234149
      ],
      [
        "▁Live",
        -9.874190014522135
      ],
      [
        "▁tracks",
        -9.874779253682458
      ],
      [
        "▁Santa",
        -9.875406165788679
      ],
      [
        "lot",
        -9.875625667005169
      ],
      [
        "▁Free",
        -9.876020057816714
      ],
      [
        "▁60",
        -9.876690656661017
      ],
      [
        "▁records",
        -9.877258717117224
      ],
      [
        "▁develop",
        -9.877301069912757
      ],
      [
        "▁fifth",
        -9.877370158859502
      ],
      [
        "▁responsible",
        -9.877742074529
      ],
      [
        "▁5,",
        -9.878075042619605
      ],
      [
        "thi",
        -9.878194856519023
      ],
      [
        "▁conditions",
        -9.879186099160087
      ],
      [
        "ants",
        -9.879252643337136
      ],
      [
        "&",
        -9.879264886089585
      ],
      [
        "▁year.",
        -9.88032314744996
      ],
      [
        "mes",
        -9.88033292825638
      ],
      [
        ".\n\nAs",
        -9.880459212636401
      ],
      [
        "▁provides",
        -9.880593020725525
      ],
      [
        "▁read",
        -9.880657967512597
      ],
      [
        "▁1940",
        -9.880684522686813
      ],
      [
        "ama",
        -9.882172082682342
      ],
      [
        "▁Brazil",
        -9.883251870104184
      ],
      [
        "▁individuals",
        -9.883449334254752
      ],
      [
        "▁1956",
        -9.883534569020727
      ],
      [
        "tent",
        -9.883577856034304
      ],
      [
        "▁Duke",
        -9.88401261688495
      ],
      [
        "\nLe",
        -9.88541228521549
      ],
      [
        "▁issued",
        -9.885415340810914
      ],
      [
        "▁3rd",
        -9.885437003521666
      ],
      [
        "▁receive",
        -9.885545138483085
      ],
      [
        "▁time.",
        -9.885877382146495
      ],
      [
        "▁stories",
        -9.886366830212287
      ],
      [
        "ack",
        -9.886410880468567
      ],
      [
        "▁leave",
        -9.88703935507162
      ],
      [
        "nna",
        -9.88756101015893
      ],
      [
        "▁class=\"",
        -9.887773031287354
      ],
      [
        "och",
        -9.887888666369392
      ],
      [
        "▁...",
        -9.888062697357219
      ],
      [
        "▁camp",
        -9.888108063870934
      ],
      [
        "serv",
        -9.888144733736848
      ],
      [
        "s.\n",
        -9.88891321743465
      ],
      [
        "E9E9E9",
        -9.889283083559263
      ],
      [
        "▁recent",
        -9.889320539501682
      ],
      [
        "▁Professor",
        -9.889349438098334
      ],
      [
        "▁content",
        -9.8896061115281
      ],
      [
        "▁65",
        -9.889617207379862
      ],
      [
        "▁port",
        -9.890158745522625
      ],
      [
        "▁nature",
        -9.89052950929671
      ],
      [
        "58",
        -9.890536005540246
      ],
      [
        "▁Power",
        -9.891313989189122
      ],
      [
        "▁forms",
        -9.891924595802053
      ],
      [
        "▁transferred",
        -9.892090275148004
      ],
      [
        "▁Carl",
        -9.89338514399475
      ],
      [
        "▁reach",
        -9.893688934485505
      ],
      [
        "▁farm",
        -9.893738773182758
      ],
      [
        "▁Sh",
        -9.893807117906926
      ],
      [
        "▁Mont",
        -9.894408957811303
      ],
      [
        "women's",
        -9.895277012568954
      ],
      [
        "▁episodes",
        -9.89544622530732
      ],
      [
        "ctor",
        -9.896362265218352
      ],
      [
        "▁prominent",
        -9.896973984833771
      ],
      [
        "▁houses",
        -9.897215468607873
      ],
      [
        "▁extended",
        -9.89757380215225
      ],
      [
        "▁Sports",
        -9.89791357044324
      ],
      [
        "▁Avenue",
        -9.89798667873424
      ],
      [
        "ration",
        -9.899057565138671
      ],
      [
        "▁1941",
        -9.899310080375004
      ],
      [
        "ancient",
        -9.899876335213087
      ],
      [
        "▁Cre",
        -9.90060894076672
      ],
      [
        "▁treatment",
        -9.902148353991187
      ],
      [
        "set",
        -9.902337303808011
      ],
      [
        "62",
        -9.90239051288299
      ],
      [
        "▁arrived",
        -9.902593619683007
      ],
      [
        "▁USA",
        -9.90373741039505
      ],
      [
        "▁initial",
        -9.903865918095994
      ],
      [
        "▁Out",
        -9.90408814510791
      ],
      [
        "▁channel",
        -9.90521021777504
      ],
      [
        "▁Es",
        -9.905362191906933
      ],
      [
        "▁era",
        -9.90569938577725
      ],
      [
        "vel",
        -9.906009686206582
      ],
      [
        "▁1958",
        -9.90605162907243
      ],
      [
        "▁Many",
        -9.906072516423892
      ],
      [
        "▁heart",
        -9.906231335525222
      ],
      [
        "▁discovered",
        -9.906317980172457
      ],
      [
        "pic",
        -9.906375453421685
      ],
      [
        "▁Light",
        -9.90658531729844
      ],
      [
        "▁Ten",
        -9.906629643450461
      ],
      [
        "▁problems",
        -9.906784025105155
      ],
      [
        "▁Ali",
        -9.906954052777968
      ],
      [
        "▁saying",
        -9.907270198872824
      ],
      [
        "▁elements",
        -9.907357206613833
      ],
      [
        "▁nearby",
        -9.907458563771309
      ],
      [
        "rus",
        -9.907563032503402
      ],
      [
        "▁solo",
        -9.908065163423691
      ],
      [
        "▁19th",
        -9.908184068015183
      ],
      [
        "lat",
        -9.908330464349351
      ],
      [
        "▁1950",
        -9.9085448044472
      ],
      [
        "cker",
        -9.909059995997957
      ],
      [
        "tch",
        -9.909367513748837
      ],
      [
        "▁Ministry",
        -9.909414267249042
      ],
      [
        ".com",
        -9.90980680931642
      ],
      [
        "▁Ye",
        -9.91014277395508
      ],
      [
        "▁1946",
        -9.910507413370581
      ],
      [
        "ene",
        -9.910632417585182
      ],
      [
        "▁enough",
        -9.911032732742978
      ],
      [
        "▁mountain",
        -9.911210956620975
      ],
      [
        "▁Islands",
        -9.911446639301428
      ],
      [
        "▁Th",
        -9.911761234538957
      ],
      [
        "pon",
        -9.912004122294498
      ],
      [
        "▁scene",
        -9.91214503727506
      ],
      [
        "▁fl",
        -9.91219007061458
      ],
      [
        "cer",
        -9.912980298440564
      ],
      [
        "sey",
        -9.913526878307762
      ],
      [
        "zy",
        -9.913611541382023
      ],
      [
        "ost",
        -9.914124780260542
      ],
      [
        "right",
        -9.914255257948072
      ],
      [
        "ates",
        -9.914306781790781
      ],
      [
        "▁32",
        -9.914794049886638
      ],
      [
        "eau",
        -9.914847931313943
      ],
      [
        "▁sc",
        -9.915159255401889
      ],
      [
        "▁managed",
        -9.915278258463042
      ],
      [
        "▁L.",
        -9.915285199178888
      ],
      [
        "▁vi",
        -9.915288914028308
      ],
      [
        "track",
        -9.915332124904324
      ],
      [
        "▁method",
        -9.915831493280757
      ],
      [
        "▁35",
        -9.91588391562417
      ],
      [
        "IS",
        -9.916222645239971
      ],
      [
        "uri",
        -9.916995534591562
      ],
      [
        "ese",
        -9.917531360108608
      ],
      [
        "▁bring",
        -9.91759137617833
      ],
      [
        "▁nearly",
        -9.917635755046247
      ],
      [
        "▁agreement",
        -9.917792905565072
      ],
      [
        "▁Supreme",
        -9.91901702192191
      ],
      [
        "▁1959",
        -9.919284283026554
      ],
      [
        "nder",
        -9.919679070230107
      ],
      [
        "dal",
        -9.919965329234392
      ],
      [
        "ped",
        -9.921543236940572
      ],
      [
        "rid",
        -9.922155439206232
      ],
      [
        "▁Sho",
        -9.922215058906902
      ],
      [
        "▁products",
        -9.922286126897445
      ],
      [
        "▁soldiers",
        -9.922702294295027
      ],
      [
        "▁quarter",
        -9.923037463824588
      ],
      [
        "▁heavy",
        -9.92349455185948
      ],
      [
        "▁covered",
        -9.924198400464888
      ],
      [
        "▁Sc",
        -9.924557907797459
      ],
      [
        "▁Route",
        -9.924760798306425
      ],
      [
        "▁Federal",
        -9.92518415223538
      ],
      [
        ".\n\nG",
        -9.925526602577644
      ],
      [
        "▁Region",
        -9.925791102446142
      ],
      [
        "gel",
        -9.926039540248237
      ],
      [
        "▁renamed",
        -9.926397442472393
      ],
      [
        "▁constructed",
        -9.926588678241279
      ],
      [
        "\nOlympic",
        -9.927101812895792
      ],
      [
        "41",
        -9.927503040559165
      ],
      [
        "ensis",
        -9.9275071560739
      ],
      [
        "▁Elizabeth",
        -9.928084284902061
      ],
      [
        "▁D.",
        -9.92832226719009
      ],
      [
        "▁rugby",
        -9.928753694007263
      ],
      [
        "▁residents",
        -9.928910956860584
      ],
      [
        "▁Os",
        -9.92950018884498
      ],
      [
        "▁Corporation",
        -9.929858037933107
      ],
      [
        "76",
        -9.930179797749238
      ],
      [
        "▁Gal",
        -9.930339466128668
      ],
      [
        "▁directly",
        -9.930628881917585
      ],
      [
        "▁musicians",
        -9.930919301719847
      ],
      [
        "qua",
        -9.931344179652642
      ],
      [
        "▁Francis",
        -9.931521238255229
      ],
      [
        "▁plans",
        -9.931710737163009
      ],
      [
        "▁store",
        -9.931822427282958
      ],
      [
        "ust",
        -9.931864777664023
      ],
      [
        "board",
        -9.932219867087122
      ],
      [
        "▁dead",
        -9.932824655417315
      ],
      [
        "living",
        -9.933066796847344
      ],
      [
        "whether",
        -9.933261916046014
      ],
      [
        "▁anti-",
        -9.933454739861082
      ],
      [
        "▁administration",
        -9.933807758992694
      ],
      [
        "▁1939",
        -9.933984022377219
      ],
      [
        "ace",
        -9.934027654655734
      ],
      [
        "▁Social",
        -9.934199858545409
      ],
      [
        "▁architecture",
        -9.934223977529054
      ],
      [
        "giving",
        -9.934360188285057
      ],
      [
        "▁Marine",
        -9.934495152497234
      ],
      [
        "▁Toronto",
        -9.93511299704246
      ],
      [
        "-20",
        -9.935943714314885
      ],
      [
        "▁20th",
        -9.937185566360215
      ],
      [
        "▁Qu",
        -9.93772539889839
      ],
      [
        "e\n|",
        -9.93793926119575
      ],
      [
        "tation",
        -9.93800672153242
      ],
      [
        "▁BC",
        -9.938677309737905
      ],
      [
        "primarily",
        -9.938910477107608
      ],
      [
        "▁likely",
        -9.939171152991936
      ],
      [
        "▁Winter",
        -9.940295190974282
      ],
      [
        "▁rural",
        -9.9405322135771
      ],
      [
        "ake",
        -9.940676732798153
      ],
      [
        "▁1957",
        -9.940691208872133
      ],
      [
        "▁ball",
        -9.940919291595247
      ],
      [
        "▁Kitt",
        -9.940936726820421
      ],
      [
        "▁fish",
        -9.941641842304486
      ],
      [
        "▁letter",
        -9.941689376771
      ],
      [
        "▁security",
        -9.941723270257398
      ],
      [
        "watch",
        -9.942169435480357
      ],
      [
        "▁Cal",
        -9.942600537071472
      ],
      [
        "▁Han",
        -9.942745362465754
      ],
      [
        "▁participated",
        -9.942935920667948
      ],
      [
        "gin",
        -9.943180921803288
      ],
      [
        "▁wanted",
        -9.943478043850385
      ],
      [
        "▁45",
        -9.943826326409988
      ],
      [
        "▁visit",
        -9.943853740699774
      ],
      [
        "▁reform",
        -9.943947390306734
      ],
      [
        "list",
        -9.944178534794549
      ],
      [
        "▁der",
        -9.944360859546554
      ],
      [
        "▁Bob",
        -9.944377838704101
      ],
      [
        "tern",
        -9.94443042520783
      ],
      [
        "▁+",
        -9.944697536907508
      ],
      [
        "dic",
        -9.94486894030406
      ],
      [
        "▁minister",
        -9.945063402214188
      ],
      [
        "bit",
        -9.945145625546541
      ],
      [
        "alongside",
        -9.945221755282878
      ],
      [
        "▁Nations",
        -9.945567491722867
      ],
      [
        "▁champion",
        -9.945811192226104
      ],
      [
        "▁Mag",
        -9.946454391016683
      ],
      [
        "▁Mas",
        -9.946487492653622
      ],
      [
        "▁Stadium",
        -9.946858221847767
      ],
      [
        "lam",
        -9.947361615537288
      ],
      [
        "▁Vol",
        -9.948102919150555
      ],
      [
        "asked",
        -9.94840273524165
      ],
      [
        "▁piano",
        -9.948565694300768
      ],
      [
        "▁mission",
        -9.948811993266322
      ],
      [
        "vers",
        -9.949017775253237
      ],
      [
        "▁Ham",
        -9.94975589733057
      ],
      [
        "stein",
        -9.950221991745282
      ],
      [
        "▁revealed",
        -9.950500025116318
      ],
      [
        "▁1947",
        -9.950710652750123
      ],
      [
        "▁double",
        -9.950819868817558
      ],
      [
        "\nLa",
        -9.95102558659278
      ],
      [
        "cl",
        -9.951475435105957
      ],
      [
        "▁1952",
        -9.953107543296667
      ],
      [
        "▁news",
        -9.953802762314874
      ],
      [
        "▁Netherlands",
        -9.95396990201994
      ],
      [
        "nni",
        -9.95460104764344
      ],
      [
        "▁imp",
        -9.954917761638539
      ],
      [
        "ians",
        -9.9549291151065
      ],
      [
        "(with",
        -9.955825728404664
      ],
      [
        "▁Stephen",
        -9.956027743611099
      ],
      [
        "▁build",
        -9.956517744629396
      ],
      [
        "▁idea",
        -9.956620048646128
      ],
      [
        "efef",
        -9.956730571171795
      ],
      [
        "▁engineer",
        -9.956771339555265
      ],
      [
        "▁Three",
        -9.957194802230013
      ],
      [
        "▁conflict",
        -9.95791466722971
      ],
      [
        "▁Ed",
        -9.958055437358187
      ],
      [
        "▁fo",
        -9.958479186245095
      ],
      [
        "▁impact",
        -9.959452717367501
      ],
      [
        "66",
        -9.959640650911393
      ],
      [
        "bal",
        -9.959794732161146
      ],
      [
        "▁Minnesota",
        -9.96003078739631
      ],
      [
        "pper",
        -9.960093769186251
      ],
      [
        "▁Song",
        -9.960304905686087
      ],
      [
        "▁parish",
        -9.961127884867153
      ],
      [
        "▁Technology",
        -9.961596221616611
      ],
      [
        "mic",
        -9.961738508349741
      ],
      [
        "EC",
        -9.961939956710484
      ],
      [
        "\nRo",
        -9.962459119892051
      ],
      [
        "▁Tro",
        -9.96277792829118
      ],
      [
        "LA",
        -9.962898733158998
      ],
      [
        "s\n\n",
        -9.96311389558314
      ],
      [
        "▁Philip",
        -9.96331301408766
      ],
      [
        "▁kind",
        -9.963378987206651
      ],
      [
        "▁surname",
        -9.963504512973659
      ],
      [
        "work",
        -9.963874687811483
      ],
      [
        "grew",
        -9.964081108375874
      ],
      [
        "ert",
        -9.96440852922611
      ],
      [
        "▁McC",
        -9.964965227198226
      ],
      [
        "CC",
        -9.965675770594299
      ],
      [
        "▁winners",
        -9.965727464636988
      ],
      [
        "▁literature",
        -9.96619792334417
      ],
      [
        "lli",
        -9.966379739214462
      ],
      [
        "▁Son",
        -9.966641167050998
      ],
      [
        "▁Master",
        -9.966701329288941
      ],
      [
        "▁Pakistan",
        -9.96671284633048
      ],
      [
        "▁Albert",
        -9.96686212578929
      ],
      [
        "▁Jose",
        -9.96691838133493
      ],
      [
        "▁stay",
        -9.967345195678826
      ],
      [
        "▁Ash",
        -9.967793476005088
      ],
      [
        "er's",
        -9.967857962294271
      ],
      [
        "▁medalists",
        -9.967883909623795
      ],
      [
        "▁6,",
        -9.96792566848781
      ],
      [
        "▁multi",
        -9.967941361417129
      ],
      [
        "AA",
        -9.969175756412016
      ],
      [
        ".\n\nE",
        -9.969361264718657
      ],
      [
        "_",
        -9.969846992174807
      ],
      [
        "▁1955",
        -9.96997670478998
      ],
      [
        "\n\nT",
        -9.97009698893599
      ],
      [
        "▁product",
        -9.970206317165953
      ],
      [
        "▁Cho",
        -9.9712406612279
      ],
      [
        "▁branch",
        -9.97186012206207
      ],
      [
        "lia",
        -9.971946949713306
      ],
      [
        "▁suggest",
        -9.972184487903672
      ],
      [
        "▁distance",
        -9.9722260160613
      ],
      [
        "▁website\n",
        -9.97235607581742
      ],
      [
        "mark",
        -9.972677140633852
      ],
      [
        "▁hold",
        -9.972863088127482
      ],
      [
        "67",
        -9.973022017573543
      ],
      [
        "▁officially",
        -9.973296902223849
      ],
      [
        "pre",
        -9.973875947011624
      ],
      [
        ".\n\nRe",
        -9.974027222234557
      ],
      [
        "turned",
        -9.974032930325558
      ],
      [
        "▁conducted",
        -9.974363060744395
      ],
      [
        "▁continue",
        -9.974559866535705
      ],
      [
        "ture",
        -9.97476294025126
      ],
      [
        "▁words",
        -9.974902402894182
      ],
      [
        "ky",
        -9.974938883099274
      ],
      [
        "▁Chris",
        -9.975508796694433
      ],
      [
        "▁press",
        -9.975610441011419
      ],
      [
        "-M",
        -9.975674502286003
      ],
      [
        "arch",
        -9.975689912680364
      ],
      [
        "▁governor",
        -9.975821011453458
      ],
      [
        "Following",
        -9.975873141748927
      ],
      [
        "▁P.",
        -9.976274441910375
      ],
      [
        "ult",
        -9.976915906913563
      ],
      [
        "Despite",
        -9.97718603476304
      ],
      [
        "▁situation",
        -9.97719627576369
      ],
      [
        "▁Swedish",
        -9.977945825649579
      ],
      [
        "▁Project",
        -9.979154907818101
      ],
      [
        "bre",
        -9.979290859277873
      ],
      [
        "▁Both",
        -9.979383198193643
      ],
      [
        "▁promotion",
        -9.979457510527514
      ],
      [
        "▁dark",
        -9.979507302387399
      ],
      [
        "aki",
        -9.979529330037344
      ],
      [
        "ute",
        -9.979574252116526
      ],
      [
        "▁Jackson",
        -9.9801258779079
      ],
      [
        "form",
        -9.980669160159595
      ],
      [
        "▁Network",
        -9.980947057686498
      ],
      [
        "una",
        -9.981008211651133
      ],
      [
        "▁Mike",
        -9.981090113291366
      ],
      [
        "-G",
        -9.981232056558346
      ],
      [
        "▁7,",
        -9.981611314570829
      ],
      [
        "▁physical",
        -9.982258565954481
      ],
      [
        "▁committee",
        -9.982696301744568
      ],
      [
        "▁notable",
        -9.982737477824546
      ],
      [
        "rad",
        -9.982852062456905
      ],
      [
        "▁Bas",
        -9.983134364260826
      ],
      [
        "mat",
        -9.98347733239052
      ],
      [
        "▁damage",
        -9.983619822508107
      ],
      [
        "▁Philadelphia",
        -9.98368226997128
      ],
      [
        "▁opera",
        -9.983904865332976
      ],
      [
        "▁leg",
        -9.984272373489288
      ],
      [
        "▁spread",
        -9.98524059049299
      ],
      [
        "dle",
        -9.985465943829224
      ],
      [
        "view",
        -9.985540940081902
      ],
      [
        "▁friends",
        -9.9855732287864
      ],
      [
        "▁Gor",
        -9.986192299930936
      ],
      [
        "▁connect",
        -9.98637362985937
      ],
      [
        "74",
        -9.986670503003811
      ],
      [
        "kan",
        -9.986886115912428
      ],
      [
        "\nAs",
        -9.987175490244127
      ],
      [
        "▁Ph",
        -9.98748464644505
      ],
      [
        "▁Forest",
        -9.98827135921026
      ],
      [
        "▁settlement",
        -9.988284442834745
      ],
      [
        "▁search",
        -9.988631585468358
      ],
      [
        "ado",
        -9.98907545223644
      ],
      [
        "lip",
        -9.990032889751859
      ],
      [
        "▁green",
        -9.990099386906872
      ],
      [
        "▁mu",
        -9.990178182875496
      ],
      [
        "matic",
        -9.99039434573733
      ],
      [
        "\nL",
        -9.990528808061503
      ],
      [
        "ika",
        -9.990688201374075
      ],
      [
        "▁cross",
        -9.990833822462859
      ],
      [
        "th-century",
        -9.990997214326208
      ],
      [
        "▁household",
        -9.991406181403244
      ],
      [
        "▁Lady",
        -9.991680174386435
      ],
      [
        "▁Miss",
        -9.991821033354322
      ],
      [
        "▁removed",
        -9.993352957260539
      ],
      [
        "lea",
        -9.994123688938876
      ],
      [
        "▁Play",
        -9.994215108361338
      ],
      [
        "bus",
        -9.994580270816252
      ],
      [
        "▁captain",
        -9.994784707102193
      ],
      [
        "*",
        -9.994829003466261
      ],
      [
        "mont",
        -9.995607253518838
      ],
      [
        "▁street",
        -9.996087685326838
      ],
      [
        "▁background",
        -9.996148088484844
      ],
      [
        "▁Final",
        -9.996192908867746
      ],
      [
        "▁1980s",
        -9.996298518130544
      ],
      [
        "▁image",
        -9.99655510714912
      ],
      [
        "▁composer",
        -9.996804574394856
      ],
      [
        "▁Sand",
        -9.996838585672334
      ],
      [
        "tus",
        -9.997486671122418
      ],
      [
        "▁Jim",
        -9.997677620617951
      ],
      [
        "▁dedicated",
        -9.997780925766094
      ],
      [
        "▁pressure",
        -9.998184100367673
      ],
      [
        "▁More",
        -9.99828648895896
      ],
      [
        "▁Wisconsin",
        -9.998618778211434
      ],
      [
        "▁Cam",
        -9.99929846105997
      ],
      [
        "▁(16",
        -9.99947253961463
      ],
      [
        "▁Main",
        -9.999776289623828
      ],
      [
        "▁Fire",
        -10.000659375516049
      ],
      [
        "▁System",
        -10.001055499097989
      ],
      [
        ".\n\nDuring",
        -10.001381924224024
      ],
      [
        "designated",
        -10.001452756960498
      ],
      [
        "▁Class",
        -10.001858494681793
      ],
      [
        "pos",
        -10.002146744530666
      ],
      [
        "AC",
        -10.002226344207683
      ],
      [
        "▁Earl",
        -10.002741439052699
      ],
      [
        "▁Castle",
        -10.003167412714056
      ],
      [
        "▁1954",
        -10.003530919551466
      ],
      [
        "ark",
        -10.003718379752465
      ],
      [
        "s.\n\nThe",
        -10.003806693828198
      ],
      [
        "yard",
        -10.004635751180356
      ],
      [
        "sie",
        -10.004652778350122
      ],
      [
        "▁lives",
        -10.00478636913813
      ],
      [
        "s.\n\n",
        -10.005249122684916
      ],
      [
        "▁Nu",
        -10.005736743363643
      ],
      [
        "▁transfer",
        -10.006096475082071
      ],
      [
        "▁(or",
        -10.006779356222195
      ],
      [
        "▁Wilson",
        -10.006796338167206
      ],
      [
        "▁Christ",
        -10.007060342879534
      ],
      [
        "▁critical",
        -10.007292777274646
      ],
      [
        "▁prison",
        -10.007311181017474
      ],
      [
        "\n\nP",
        -10.007329120875038
      ],
      [
        "▁launch",
        -10.007825972059235
      ],
      [
        "▁planned",
        -10.00800502518527
      ],
      [
        "▁leaders",
        -10.00805535237153
      ],
      [
        "▁basis",
        -10.008200897079671
      ],
      [
        "▁Highway",
        -10.008816903680401
      ],
      [
        "▁States.",
        -10.009036467646798
      ],
      [
        "▁workers",
        -10.009500091325041
      ],
      [
        "▁digital",
        -10.009637537562343
      ],
      [
        "▁environment",
        -10.009841090787946
      ],
      [
        "▁signal",
        -10.010610133945606
      ],
      [
        "jan",
        -10.010620300745801
      ],
      [
        "\nM",
        -10.011149953723844
      ],
      [
        "▁1949",
        -10.011162451687822
      ],
      [
        "dra",
        -10.011630717810702
      ],
      [
        "▁0.",
        -10.012325308653914
      ],
      [
        "ping",
        -10.012325429263525
      ],
      [
        "▁\"F",
        -10.012437739174931
      ],
      [
        "\nR",
        -10.012638365727621
      ],
      [
        "▁levels",
        -10.013108251208534
      ],
      [
        "▁sources",
        -10.01314131494333
      ],
      [
        "▁effects",
        -10.013179689198418
      ],
      [
        "▁trans",
        -10.013687747891654
      ],
      [
        "cur",
        -10.013726775111104
      ],
      [
        "▁Area",
        -10.013814437420898
      ],
      [
        "\nN",
        -10.013853158618113
      ],
      [
        "▁relations",
        -10.013907829076592
      ],
      [
        "▁trial",
        -10.014042946108171
      ],
      [
        "▁historic",
        -10.01408152809741
      ],
      [
        "▁rules",
        -10.014665928557157
      ],
      [
        "▁growth",
        -10.014711406218204
      ],
      [
        "▁display",
        -10.015250190138575
      ],
      [
        "▁4:",
        -10.015352961269214
      ],
      [
        "▁poor",
        -10.01628069830268
      ],
      [
        "▁establish",
        -10.01655216993793
      ],
      [
        "ı",
        -10.016693703420936
      ],
      [
        "bol",
        -10.016705882907722
      ],
      [
        "▁here",
        -10.017062861381042
      ],
      [
        "▁1953",
        -10.017204006704876
      ],
      [
        "▁capacity",
        -10.017419889228673
      ],
      [
        "rich",
        -10.017568598882704
      ],
      [
        "▁1970s",
        -10.018625738710817
      ],
      [
        "MA",
        -10.018701607809712
      ],
      [
        "▁tower",
        -10.018713761130511
      ],
      [
        "▁su",
        -10.01880237420867
      ],
      [
        "▁activity",
        -10.019107075123166
      ],
      [
        "▁Sweden",
        -10.019206305819864
      ],
      [
        "zen",
        -10.019299813034852
      ],
      [
        "▁Camp",
        -10.019724439813144
      ],
      [
        "▁News",
        -10.019879035432927
      ],
      [
        "bot",
        -10.019894364712906
      ],
      [
        "▁software",
        -10.02018550733407
      ],
      [
        "▁Four",
        -10.021272251542978
      ],
      [
        "▁distribution",
        -10.021649475132943
      ],
      [
        "▁intended",
        -10.022113189244212
      ],
      [
        "▁question",
        -10.022152346156584
      ],
      [
        "69",
        -10.022180754500022
      ],
      [
        "Another",
        -10.022293941658532
      ],
      [
        "▁charge",
        -10.022725676932529
      ],
      [
        "-3",
        -10.022865837196502
      ],
      [
        "▁drive",
        -10.022988315317539
      ],
      [
        "▁forward",
        -10.023094642416616
      ],
      [
        "▁Down",
        -10.02311430996079
      ],
      [
        "▁2:",
        -10.023148723545127
      ],
      [
        "position",
        -10.023154077159722
      ],
      [
        "▁him.",
        -10.023697381032221
      ],
      [
        "▁sexual",
        -10.023771703946412
      ],
      [
        "ott",
        -10.02401175283142
      ],
      [
        "ele",
        -10.024078065268723
      ],
      [
        "▁portion",
        -10.025410518045684
      ],
      [
        "▁Junior",
        -10.02575324598277
      ],
      [
        "▁divided",
        -10.025786846240155
      ],
      [
        "▁maintain",
        -10.026245948765787
      ],
      [
        "▁projects",
        -10.026357326492644
      ],
      [
        "gle",
        -10.026414997967622
      ],
      [
        "▁Community",
        -10.026590918162182
      ],
      [
        "▁fellow",
        -10.026661221811114
      ],
      [
        "▁problem",
        -10.026699879951188
      ],
      [
        "▁ordered",
        -10.02813976301491
      ],
      [
        "▁Captain",
        -10.028736432321773
      ],
      [
        "▁†",
        -10.029177308857447
      ],
      [
        "▁Cur",
        -10.029679701667224
      ],
      [
        "▁destroyed",
        -10.030403219678906
      ],
      [
        "▁wing",
        -10.030674557298356
      ],
      [
        "▁Media",
        -10.03157207099639
      ],
      [
        "log",
        -10.032490735613523
      ],
      [
        "▁mixed",
        -10.03369986731904
      ],
      [
        "ood",
        -10.033773663314335
      ],
      [
        "avi",
        -10.033775901209028
      ],
      [
        "▁yet",
        -10.033953976279749
      ],
      [
        "▁Kan",
        -10.034523925714932
      ],
      [
        "▁secret",
        -10.03498030980266
      ],
      [
        "▁style=\"text-a",
        -10.03520944612464
      ],
      [
        "▁highly",
        -10.035307123494615
      ],
      [
        "ima",
        -10.035324140579752
      ],
      [
        "▁Wall",
        -10.035403673287261
      ],
      [
        "▁households",
        -10.035480493089013
      ],
      [
        "▁Head",
        -10.035637382615139
      ],
      [
        "▁campus",
        -10.035675963129108
      ],
      [
        "bgcolor=#f",
        -10.035902511989754
      ],
      [
        "▁equipment",
        -10.036300319527447
      ],
      [
        "▁unknown",
        -10.036934936401979
      ],
      [
        "▁loan",
        -10.036941894803787
      ],
      [
        "mun",
        -10.037657731519435
      ],
      [
        "▁Arm",
        -10.037988913398184
      ],
      [
        "aries",
        -10.038233667328099
      ],
      [
        "▁facilities",
        -10.038372717849718
      ],
      [
        "col",
        -10.03852714667959
      ],
      [
        "▁figure",
        -10.03856989059525
      ],
      [
        "mainly",
        -10.038582304617211
      ],
      [
        "▁Sri",
        -10.038867333544623
      ],
      [
        "▁inside",
        -10.038918042225939
      ],
      [
        "▁quickly",
        -10.039071064044302
      ],
      [
        "ned",
        -10.039286197088593
      ],
      [
        "▁Arthur",
        -10.039290780157199
      ],
      [
        "▁Ze",
        -10.039394032028904
      ],
      [
        "▁commander",
        -10.039730932605083
      ],
      [
        "▁stars",
        -10.039871554014345
      ],
      [
        "▁pop",
        -10.040177285070246
      ],
      [
        "▁follows",
        -10.040296134078147
      ],
      [
        "▁upper",
        -10.040392298624555
      ],
      [
        "▁Studies",
        -10.040542951368565
      ],
      [
        ".\n\nPersonal",
        -10.040995691432041
      ],
      [
        "▁partner",
        -10.041600573831188
      ],
      [
        "▁flight",
        -10.04206337390942
      ],
      [
        "ova",
        -10.042087334959808
      ],
      [
        "▁articles",
        -10.042091740149951
      ],
      [
        "▁Tor",
        -10.042363620660362
      ],
      [
        "es.",
        -10.042435245692241
      ],
      [
        "▁(3",
        -10.042457589846904
      ],
      [
        "▁smaller",
        -10.04279839665506
      ],
      [
        "ington",
        -10.042813904707968
      ],
      [
        "▁Missouri",
        -10.043013531457698
      ],
      [
        "chan",
        -10.043079572212305
      ],
      [
        "▁big",
        -10.043177272445691
      ],
      [
        "-class",
        -10.043277184241132
      ],
      [
        "▁Member",
        -10.043359359759576
      ],
      [
        "▁Fair",
        -10.043390319075822
      ],
      [
        "▁disease",
        -10.043974438115116
      ],
      [
        "-day",
        -10.044070769317546
      ],
      [
        "mas",
        -10.044253967201406
      ],
      [
        ".\nThe",
        -10.044349157342376
      ],
      [
        "▁risk",
        -10.04463145791938
      ],
      [
        "▁1951",
        -10.044710508740975
      ],
      [
        "▁Simon",
        -10.045022813237175
      ],
      [
        "▁comp",
        -10.045213575625901
      ],
      [
        "▁languages",
        -10.04539787508664
      ],
      [
        "titled",
        -10.045617667475334
      ],
      [
        "▁teacher",
        -10.045660766486286
      ],
      [
        "▁contact",
        -10.045726283106077
      ],
      [
        "▁Sel",
        -10.046425640664308
      ],
      [
        "ska",
        -10.046879465775035
[...]
